memory_initialization_radix=16;
memory_initialization_vector=
BD1BE1A3,
BB76E481,
3BEB4296,
3C786EA1,
BC375FFC,
BC7C68D9,
3DC73823,
3CD8048A,
BCE40A82,
3CAD5B96,
BC896A06,
BD4E35B1,
BD7C672A,
3B909554,
3DA99ACB,
BD7150EA,
BD2F7010,
3D15AA06,
3C2F8FD5,
BD569AC3,
BCFF428D,
BD17D0F2,
3BD1D262,
BD0D5AEC,
3D47F198,
3D48D673,
BD2F081A,
BC18225A,
BCC22B4D,
BD052354,
BCDAC6A9,
BCA8CA7C,
BD5C0C48,
BC9AC4F8,
BD3A7CE8,
BCEA51DD,
3CB8EC41,
3C4A6F6C,
3DA22A6A,
3D07ABE8,
BB64EB14,
3D3A168E,
BBDC880B,
BD55BB7D,
BD099DA9,
BCCB9848,
BD81D3FD,
BD7AD1E0,
BC5643CA,
BD8D23AA,
BD4DB8E8,
BD19865D,
BD7DCF9F,
BC853D91,
BCEF8582,
BC775DD6,
BCB9B782,
BDB7C881,
BC6AE921,
3BA5E974,
3C87A02C,
BB214E00,
BB9AFF37,
BCACAE61,
BDDD2241,
BD79D036,
BDBC2E60,
BD715F4C,
3B9A3E1B,
BBDA10DF,
BCB91A99,
BD148AC7,
3D1DDE89,
BCCBA56C,
3D0B5A60,
BB93421C,
BD44FB4C,
3C382F95,
BD8E3D13,
3DA6672E,
3D39AC0D,
3C17C2B3,
3BBA157C,
3C74CFC9,
3B22853C,
3D858516,
3CBC0C58,
BD64C7B9,
3D005F25,
BCAA42B3,
3C22F1C1,
3DB13BF3,
3D9F5E0A,
BD238DF0,
3C925429,
3C604C7D,
BD3E0463,
3CDCF72F,
3D8AAF21,
BC83B88A,
BD18224A,
BCAF2994,
3BB23163,
BD5DE6C5,
BBA2B2E3,
3D6EC2EB,
BCB0B184,
BC50E894,
3BC866A4,
BA68F07B,
BCA9A0E9,
BC88176B,
3A91440E,
BC47D633,
BCD36D89,
BD2DA056,
BCE154AE,
3C9DF4AE,
BC07883E,
3C413CDC,
BD38EEEE,
BD4A0925,
BC6DDB0D,
BC2E6C68,
BD44260F,
3CCB1979,
3C55F783,
3C2C8583,
3DC2BD71,
3D0FBFDA,
BD1BAD19,
3BC19DBF,
3D742A8C,
3CD409DC,
3DC8084E,
3D47C16B,
BD2F19EF,
BD8F7A8C,
3CA70D32,
3C3B7C21,
BD7DB084,
3C006F88,
3D038315,
3CD8B9B5,
3CD2AEEE,
BB3C6150,
BC8684F0,
BD3D2D5A,
BD0EB213,
3C3EB88C,
3C3B8290,
BD3D8036,
3C2F5823,
BD7D1F68,
BD57AA71,
BB9BD006,
BD69F70A,
3D09A0F5,
BC99B7C6,
3CCEE218,
3D036513,
3D0D8396,
3BC7179A,
BC424EF8,
BA9D963F,
BBB41A5F,
3CDEBA00,
3D017E87,
3C0F6FB0,
BC34F6F5,
BCE35DF8,
BCA900B2,
BD87D565,
BCC66F3B,
BCDD71BF,
BD93CDF7,
BD555B00,
BD5C9142,
BBC525A3,
BD50393F,
BC495DD3,
3D023488,
3D1C5E9F,
3D684D90,
3C97F86C,
3D1B34B3,
BC400358,
BB5F3D00,
BBCDC655,
3DEF38AE,
3D83C842,
3CD4B123,
BCC8EEB3,
BA910F4A,
BC924946,
BD282A27,
3B93746E,
3C65111B,
BC7A4850,
BB5EDD7A,
BD58337E,
B8847D80,
3B3CCBE0,
3C3CFAD7,
3D896281,
3CA173DB,
3D471F78,
3B6BA737,
BD04BBB1,
BCBB4C26,
BD58C238,
BC368093,
3D36BFA0,
3C8FBDA7,
BC4891EF,
3DA092BF,
3CB0B8E7,
3D5DB469,
3D3CB254,
3C5BF77F,
BC9056D3,
BD350D80,
BD7D43B4,
BD577A2E,
BD0AAA4F,
3CE80103,
3C68376D,
3CE5AD50,
BD754685,
3C1176AA,
3CDEFF0A,
BC6515D0,
3D4CE286,
BD0441DE,
3D0DB1BA,
BB78750A,
3D8B4271,
BE232C2A,
BD4E4230,
3CB31F90,
BCB139E6,
BCE4C860,
BD22C199,
3D7DAFE1,
3D69CA57,
3D419C32,
3C5CC506,
3D82B603,
BC53A806,
3CB21202,
3D37EDD3,
BD927EEF,
3D161670,
3D44526A,
BC617B2B,
BD2809B7,
3D60E863,
3D97CD3F,
3D666D84,
3C679216,
3DAB6F2D,
BD025CE6,
3C83C201,
BBCFCA6F,
BB423150,
3AC78130,
3C568232,
3D2F0829,
BCF6196F,
BD9BB501,
3D5D4C30,
3BDA7637,
3B311865,
3D11D28F,
BD05CFE8,
BCF3A2E4,
BD0DCB9B,
BB9673CE,
BD3FC87A,
BC8F5817,
3CF80415,
3C5C01DC,
BD82E0B2,
BDC6994E,
BB4A9631,
BCFBE532,
BD2B30BD,
BA763A79,
3C1A9181,
BB787163,
3D902A5C,
BD8178B1,
3C87A982,
3C143B9E,
3D01BF3D,
BC05EB85,
3D5A99A2,
3D419A48,
BD1736C6,
BCE3F200,
BD9DC2F1,
BCC50DC4,
BCD04AE3,
BC6C3331,
3C5C4CD2,
3B99DD15,
BCBD5BBA,
BBFC2848,
BC2F731B,
3D5E264C,
3DE718F2,
3D42561A,
3D913FEA,
3CDF5FE6,
3D273841,
3CD5703B,
3CA7D40F,
BC5E62F8,
3C159575,
3D043FD8,
3D17504F,
3D60C878,
BBB85FB7,
BCF16D3F,
BD6B8823,
BCD9DC7E,
BD6C07FE,
BD752507,
BC98E7E7,
BCDB2528,
BD83B22B,
BCFC889C,
BD8CAD5D,
BC0C93AA,
3C59FDFF,
3CD89102,
BC7DB391,
BD8C8A8A,
BC7EA1F2,
BD891640,
BCEB0C13,
BD9BBC6B,
BCC5CA7A,
BD096371,
BCD9FEF9,
3D843560,
3D6E6C4D,
BB9644A6,
BCF091F5,
BCEC91B5,
3CBA2C20,
BC2496BA,
BD631256,
3D133FD8,
3B27851D,
3C7FBE7B,
BD57C88C,
BCEEBB6A,
BD8E0051,
BC478DAD,
BD62F54A,
3B874354,
B9B181E7,
BD6D7C68,
3CE7F4DF,
BCB1E477,
BB37DFB7,
3C0B7A13,
BD3E4406,
3D79C517,
3D078431,
BD35F07B,
BD78457B,
BC73954D,
3D7F33E1,
BBCA8D5B,
BD901A53,
3D9BC271,
BCE0C7B4,
BDAC6827,
3D0730B4,
3DB8219E,
3D178EC1,
3D360106,
3C757EA8,
BDB1552D,
BDCD8A8D,
BC346E4D,
BCC7B946,
3CE57B51,
BBCD33B8,
BB6B5362,
3C87BD8D,
3CFDFA61,
3C88C309,
BD0A3BCF,
BBEA188B,
BD403336,
3CACCE8B,
3B7DE5C4,
3D2A1AB0,
BD89B0D1,
BD0480F5,
BDB8860F,
3C286451,
BBD07DD2,
3CD567F9,
BC021570,
BC75B9C7,
BA69A48B,
BC6BA4FD,
BD005C92,
3D06FB03,
BD2E488D,
BD694317,
3C2A962D,
BD35DA70,
3BC02EB6,
3D782494,
3CD0B22F,
3C7DC881,
BCC087DB,
3C019692,
3CA928D4,
3C1FA426,
BD894274,
BD161946,
3C517C74,
BD709EFB,
3C903972,
3D59DB4F,
3D56D722,
3D1B82C0,
BC0A3195,
BD24DF0B,
BBA49A80,
BD26D221,
3CF39C48,
3D31808D,
BD6636FB,
BD52DAFF,
BC53D835,
BD2CEF5D,
3CAC565B,
3CEDCF85,
3C7D2630,
3D3AD1B4,
3D513D27,
3BC1704A,
BD193714,
3CBACDEA,
3C879D43,
3BBCEE2E,
BC0009A8,
BBD0D8A4,
BC224DE2,
3CA82398,
BCD93479,
3D8718BC,
BD08DD71,
3CAD5952,
3D01EBAD,
3C65E916,
3D27DE53,
3CCF9FED,
3D1320ED,
3B67F9DE,
BB176004,
BC34112A,
BD6B5E9B,
BD88DEC2,
BDBB9E82,
BD89EBB7,
BC1B60FA,
BD3CDD83,
3CA51D5B,
3D8A615A,
3C001F9E,
3D3520BC,
3D6CFBA6,
BBA6FDC1,
BC9F388B,
3D7AAC84,
BD776A35,
BD13CEF6,
BC7CF6A4,
39988EA2,
BCBE27C1,
BB412E65,
3C1C8AAA,
3C7E8A08,
BC120737,
3DAAA692,
3D5DBD2A,
3C1AF73A,
BCFFE80D,
3B4A33FE,
3D4C7FB7,
3CCA7848,
BD5CFEEA,
BCF9A4C1,
BD0FE386,
BD57E9D4,
BDC52E8A,
3D529BAF,
3D4E2051,
3B55941B,
BD5B690C,
BD4DFC95,
BC86257C,
3C78D1BD,
BC6AF1E0,
3C51AE9B,
3C8EDAB0,
3D5F9382,
3D5C4B4D,
BC1DE852,
BD16D924,
BC99065A,
BCEEA641,
BD5C4A99,
BD44F49E,
BD891ACD,
BD89CBD7,
3BABAC9D,
BC18DB75,
3A6D3DD9,
3D4940C1,
BC224BE9,
3C9A2C45,
3B6F34CE,
3A9A07F1,
3C25F2D1,
3AD9B1EB,
3C997A50,
3D9F4E60,
BCFFCD6A,
BD990FAC,
3D131170,
BD58D954,
3C95D750,
3D525813,
3CDDDF25,
BD72AAEA,
BD2C85F7,
3BD955FF,
BAF0C295,
BB980DE8,
BB9C1DCE,
BC2D5118,
3CED1C3D,
BC632FB8,
BC85FC34,
3C1B5F88,
BDA90C22,
BD98F1F7,
3BF7B68A,
3CE8CC79,
3D1E8827,
BD77C09D,
BDCF24D1,
3C76A75F,
BD3A9618,
BD97CB7D,
3902429A,
3D184F6C,
3D80A866,
BC84B9E7,
BB9A169D,
3CDC8D8F,
BD136BD4,
3D2BA630,
3C630FBF,
BB3D1FB5,
3D45FACD,
3D843CE8,
3D21C425,
BD2544ED,
BD858872,
BCCA25AD,
3D464CF0,
BD0A54C3,
3AC25ECD,
BD0EA290,
3D001CA2,
BD9391C6,
BD2F0E28,
BCE425E2,
BDD05C87,
BD5BA5BA,
BD7F9CFE,
3CA861B3,
3C775731,
BC09C071,
BCDFED35,
BCAD8095,
BCBD92C3,
3CAA3567,
3D534D23,
3DC91607,
BCB04126,
BBD73140,
BD414066,
BD1BB2D2,
BBF4D147,
BB8462D4,
BD909579,
BDE5340D,
3BF6759F,
BD3B3A0F,
BD6F7769,
BC7B5536,
3C9A9F10,
BD43A153,
3D18DEFE,
BCE1A90D,
BCD3D63E,
BC6A116A,
BD9565DC,
3D53DFBF,
3CBB33EA,
BD00B731,
BDEDFB30,
BBBDC6B4,
BDF2594D,
BD998968,
3DA911F9,
BDAB0813,
BD726558,
BD2B3959,
3D0BCE9E,
3C82E2F7,
3BF9C4CA,
3D466C8F,
3D30B1DF,
3D8E909A,
BCDB0FA8,
BD6A2883,
BC2B1549,
BD089ED2,
3C59325E,
BCAD8752,
BC2248D5,
3C1691D6,
BCC7F4E1,
3CAD5026,
BCB43579,
BD63BCF7,
BCECBD36,
BD04A04F,
BD4FBEE9,
BDA6CBC4,
BD7116D2,
BD0408FD,
BD445547,
BD7FFE86,
BCCDECCA,
BD93EB85,
BBB4EB06,
BC8DDC8C,
BD93F2D7,
3C95DFE6,
3C27AED8,
BD460921,
3C3C698A,
3C64D9F5,
BD147341,
3D0F65A3,
B9C308D8,
BB1B8CC5,
BD3ECB2A,
BD3FAFC1,
3C545F9D,
BD21A252,
BDA48031,
3CD90747,
3D5EB107,
3D54A71A,
3ADF30A7,
3C8EB6A1,
3C826355,
3DA5D76D,
3DBE652A,
3D18F043,
BCC24EB0,
3D999A26,
3D832E10,
BD49DABA,
3B9B5F27,
BC788529,
3D089E2F,
3CD84D19,
3CD9AE5C,
3B90DB16,
3CA936E1,
BD00BC2D,
3D748A29,
3C1B85FE,
3C6CBA27,
3CC866A9,
BADEEA41,
3C81421C,
3B9495D9,
3D3C86A5,
BD2F8C46,
3C063C1A,
3B9F3DCD,
BD95BBE9,
3D154A7B,
3C7ED4D6,
BC2B6AA8,
BCC2ADF8,
BC04C61F,
BC1F75FF,
3C9B29ED,
BCDA0638,
BD55579F,
BD5CA55D,
BD0DD998,
3B7A416F,
BBBC1705,
3C9AC0F0,
BDC9F068,
BCA5C79B,
3C937741,
BDE02A47,
3C344DC2,
BD63536A,
BCDE2E42,
3D74E45A,
3C3638FD,
BD789891,
3D795BB9,
BC72C023,
BD06F590,
3D02D6AB,
BCF2EFB3,
BD5EEDD8,
BADF0ABA,
3C7E7F3F,
3C153671,
BD20C91B,
BDD5851C,
BD91562B,
BC8E3468,
BD935295,
BD50464A,
BC0DF132,
3CECE85D,
3D115C7A,
BC6B65FA,
3D077C45,
BD00361D,
3D192F66,
3D0C72A1,
3D700156,
3BECDDDA,
BD0BC99D,
BD934605,
BBDB965C,
BCD046C3,
BDB5628E,
3D41053E,
BCAC48C3,
BD3D950E,
3B4C072C,
BC9649B7,
BD2E8E9F,
BAE78EEB,
BD5CEDFB,
BC57473E,
3C93A944,
BC2FCB85,
3CB44B4E,
BC99F241,
3C99ABD7,
3D239730,
3C57F0C2,
3C6240D4,
3CC5D4AF,
3CBCB5C8,
BC55BAD1,
BCA6DED3,
3D2CE08F,
3C8A0C71,
3CD6F12C,
3B409701,
3CDB2A00,
BC1EFC81,
3AC84CB3,
BD5172DB,
3B98CEC3,
3CB7B20B,
3D60742C,
3C2C0A61,
3CA83C31,
3CDD6979,
3CFBA834,
3B98D4A1,
3CA84C1C,
3D1854FA,
BB56BD2B,
3C5B0633,
3CFAA4E9,
BCF573F2,
BAD6D95B,
BDAE1F87,
BD121D18,
3C490AE3,
BD8D3A34,
3DB26F43,
3D19463B,
3C9F855F,
3D9701E4,
3D9B1929,
3D1E2414,
3DAFF4B9,
3D85A214,
3DCBF827,
BD897E9D,
3CA7B751,
BD811A17,
BD8FCC2F,
BCEB4505,
BD7150E5,
3CD4BE1B,
BCF63B57,
BD15089F,
BDAC819B,
BD20D70D,
3D65DA52,
BD7AE0FE,
BC097D5E,
3A65388B,
3CFD58DC,
3A01909B,
BCA6E113,
3C8B8549,
BB22CD6D,
3DAAFA4C,
BCE0315A,
3D37EE79,
3D1C1AC4,
3D17E109,
3D2CAE30,
3D4247B4,
3ADE01B0,
3C2B1FAC,
3D608C83,
3B66B37D,
3D211C40,
BC2C7EFA,
3D234FF9,
3D7F11D8,
3CEE8CC5,
3B6A82D2,
3B847AD7,
3D34E4EF,
3CEEB71E,
3CD11C50,
3C82EBCB,
3CB4D12F,
3C06739B,
3D4DB635,
BB4E7B49,
BC7B8016,
BD0352E2,
3BD9985F,
BD83AA7B,
BCA02BE1,
3A7BDCDB,
BCF3412B,
BD683BDF,
BDDCC672,
3C340D07,
BD739856,
BCE340C1,
3C42A77D,
BD7C7590,
BCC56BB5,
BD2ACC9A,
BD98698F,
BC27FF74,
BCD94DDE,
3CE710F9,
3C803F08,
3C6C9761,
BC558D2E,
3CA91765,
3D0AEDA9,
BD4F1A06,
3CA4E4A2,
3C1E021A,
3D0FF847,
BDA00FF4,
BD81419D,
BC7B2D35,
BC46884D,
3D0D9231,
BC1F85E7,
BC5F6C33,
BD16EC08,
3D080FDE,
3D3B17DC,
3D1A30CE,
3CF4A4B9,
BC69F43E,
BC90EEB2,
BBBD263E,
BB8CF9CC,
BC916FC5,
3D099A6E,
BC14BF8B,
BCB88DEE,
3C2B554B,
3D26CFFC,
3C3C24E9,
3D594F6E,
3C282424,
3A37F51E,
3D839E05,
3D0BDE31,
3B93B9EF,
3DA5BB01,
3CEF5F0D,
BBEECAFB,
3D0B4256,
3CDB6358,
BB1B59BB,
BD1C54A9,
3CB8D5F9,
BCB8A38A,
BD0EDE27,
BC944B5E,
3B15325A,
BC959735,
B9DA6C5B,
3D395076,
3D5604C4,
BB9E51DF,
3D73FB7A,
3C95FA0C,
3C7A5B22,
BBA532BA,
3A993092,
3D019223,
3C76750A,
BD6A8FF0,
3D640AD9,
3BC51DD1,
BD127860,
3D9BF8BC,
3CA8BB1B,
3B7CB9F9,
BD7F2BAD,
BD91D543,
BA65D4D2,
BDDD2513,
BDD6D640,
3CA36C00,
BDCA86D2,
BDB2BAEF,
BD9736DE,
BA58FAD0,
3D2BCD98,
3DBAB589,
BBF32D0C,
3D628152,
3D7E38CE,
BC3B1C01,
BD23ACE4,
3D143FD0,
3C4DC76D,
3D7F255D,
3D3055C6,
3D093E98,
3CD7444C,
BB418842,
3C588078,
3CFB66BA,
3C2CD757,
3CD1D1D6,
3D5D7815,
3D280082,
BCE02C62,
BD1DD193,
BCE3EED0,
3CA98205,
BCE89345,
BCAABF6C,
BD18E54D,
3B4B3D7F,
BD50C390,
BD27CE22,
3CA18DB4,
BC61D495,
3D117D94,
3B4512B8,
BD1F4707,
3D323687,
3CF24343,
3D0643B7,
3D9E6998,
BC387696,
3B877335,
3DBA8BBD,
3D1C63F2,
3DB66588,
3AA8AF00,
BDB5A7AC,
BCEDD57C,
BCC17863,
BDA16A54,
BC11DF6B,
3C5FEF23,
BD2E39AF,
BC1F7E60,
3A491D57,
38D12C97,
3BC3B24B,
BCF78546,
BD8E32C0,
3CCBE737,
3C2052E9,
3C0A2D36,
BB449B2F,
3C5B3EBC,
3C5C5487,
3AEE0342,
BBFB071F,
BB4693D2,
3C3F674C,
3D0EDA02,
BC9316B7,
3D215D37,
3B41554F,
BCD6EC3B,
BD3B5AFF,
BC84920E,
BDD26C09,
BC99B9E3,
BCF381E5,
3C304C31,
3C7455FC,
BD5F98AE,
BB795579,
BDFDE557,
BD2D7740,
BD13B722,
BDA7BD15,
BC7BDB0F,
3B4BE6CB,
BD5FB277,
BD1F1A6B,
3D337F88,
3D15F26C,
BC80A592,
BC75B422,
3D76342B,
3CA4B124,
3D5659EC,
3D977FDD,
BC266E66,
3D5AC7B4,
3D123D86,
3CDC01A6,
3D09D069,
3DC89B7C,
BBFE9325,
BB1E9141,
3CB821C1,
3C39D139,
BD0218A7,
3C42ADC5,
BCA13836,
BD8D1F30,
3C11FDEC,
BC48EF22,
BD68E709,
3C39E0BA,
BD175B86,
3C834016,
BC7A9D56,
BD16556D,
3CF095EA,
3B79C0B8,
3CE9D549,
3D89A053,
3DA48E27,
BC25B958,
3E12A004,
3D69C1F4,
BC188DB9,
3D27870F,
3D489C1E,
3D17A8C0,
3D5CAF1B,
3D976F9E,
3D1C3C14,
3D9C4BDA,
3D561088,
3AB70647,
BC730993,
BD3DF1AF,
3BE06F87,
3D5CD2AF,
BD159A67,
3B164A74,
3B8ADF98,
BB577B6D,
3DF75506,
3B611BDD,
BBC6C52F,
3E03EF1C,
3DB1F262,
3C1ACFC4,
3D88E0B7,
3C822868,
BB819581,
3D34F862,
3C5E7B97,
3AE1CBB4,
3D458C39,
BC145C54,
3CB0A721,
BAA3A9E4,
BC0E230C,
BC531F23,
BCA61E7F,
BD35BEB0,
BD9678E6,
3C2D26D0,
BC2550BB,
3CEC4D4C,
3D936571,
BCBA84CD,
3CCCF156,
BD56E996,
BD2C79BA,
3B39A33E,
3C7631BF,
BD73E866,
BC79D556,
BCD334C5,
BD81B214,
BB602096,
3C723E86,
3C87EACD,
BD0DC453,
3D8F8B7C,
BCBDD91B,
3C7B2067,
BD12FEE3,
BBF271EC,
BC98DE5B,
BD20A81E,
BD895E25,
BD83D629,
BD716587,
BD984626,
BCF91688,
3D19BF94,
3C103A34,
3B31E110,
BD758656,
BCD62AE1,
3DD7667B,
BDCA6B9D,
BCC9A930,
3D661444,
BD30A2DB,
3CD81043,
3D80BABB,
BB657730,
BD4A3A08,
3BAE4909,
3C326434,
3D47C710,
BC173BB4,
BD863A83,
BD0B2C88,
BC3AEDAA,
BD8169EB,
3D7775B3,
3CCFC547,
BC55B12E,
3D012F66,
3C8EFE58,
3DA4A899,
3D92E7D9,
3BE1CB5B,
3D3BC6D1,
BC8D5D32,
BC5B019A,
3D6883EE,
BCB33725,
BD94FEBC,
BD93638F,
BC0AD6BD,
BBAAED39,
BD540F54,
BD45DC4A,
BD319AB3,
BC85532A,
3D03FDF4,
3B1713C8,
BC3B7E81,
BC7EEC9D,
3D0B42F5,
BCC8E8DE,
BD548A3D,
3D5BFC79,
BC6A5B13,
BD71306A,
BD3DC3AF,
BCB245CA,
BA4549FA,
3D761789,
BD33F761,
BDB187F5,
3C3284B4,
BDDBB4DD,
BD7FF18E,
3D23785B,
BD9AC28E,
BD627563,
3D36C972,
BC9DDED9,
BD8DFDB7,
BCE22F2D,
BC0A3550,
BC31B31A,
BC4A82CB,
3D02F69D,
BCDEB461,
BC99DA6B,
BC96AFBE,
3C3AE85E,
BCAED571,
3D39A9A7,
BBF15C03,
BDD13F08,
BDC9601E,
BDA86343,
3D535DCB,
BD29C91D,
BD8E5B67,
39A2DA43,
BD5322D3,
BD13A443,
3D2A2D33,
3D620A94,
3D2E7DC5,
3DB8F902,
3D10C898,
3D014300,
3A5A316D,
BCA7B626,
BD081D41,
3B8732AB,
BB32C450,
BC89088F,
BBFBB6BC,
BD8B5BC1,
BD5EB419,
BBB71F25,
BDAB0BC3,
BD8F546E,
3D0F4EBE,
BBC5C4F3,
BD148029,
BD84E494,
BBB76676,
BD832107,
BDA2F69E,
BC13E04D,
BC6157E7,
3C9E7C91,
BB0AACE5,
BC5156A1,
3CBA28A9,
BB0EFB7D,
BA99365B,
3D560E13,
3CACFC06,
3BF20FB8,
3C5D5DD9,
3D4BBE94,
BD438216,
BDC1F05E,
3CD8C3F2,
BD7B8D04,
BD445030,
3CE2DDE6,
BDE37E1B,
BDB0D230,
3D8A21AB,
BBC2B358,
3D4EA47D,
BCBB743E,
3C66A193,
3D813C99,
3D0CFF2E,
3CC4E619,
3D36D9DC,
BC652DC8,
BD9D79AB,
BC908718,
3D23044A,
3D373EB8,
3C2A799E,
3D9BE273,
3D89565F,
3BC3527D,
BD977562,
BD15D3C5,
3CC7E17E,
3BF4C356,
3C85D55D,
BD2F3F57,
3C658313,
3B56CD53,
3D5C480A,
BC18276F,
3B605D93,
3C6DF7B7,
BD03362C,
3BFF61E1,
3DAA30EE,
3B70F58F,
3B2C2B4F,
3C4ADD09,
3D189773,
BC312A1B,
3CA8C992,
3C60AF9B,
BBBA99F5,
BCAD229D,
3D66989E,
3CF1FB1F,
BB7B394B,
3CE3832F,
3C217705,
BD2DBDCD,
3CAA04FD,
3D3E9104,
BC0D3102,
BCD218DC,
BCDB0208,
BD19E968,
3BE85FF6,
3C0CE299,
3DA8C60E,
BD6ABCDF,
BD36317C,
3D85C9A1,
BD91BC1C,
BD802388,
3D4AEEAD,
3D078569,
3BDFF9E0,
3D32A048,
BDAB6C84,
3C3F0476,
3CB3ADD0,
BDA0FB34,
BD85B677,
BD085BD5,
3D768DCD,
3D652F61,
3D25FC03,
BBAED2DA,
BC0C2D72,
BD3C5CEB,
BD9F3715,
BD5BD05D,
BDB10452,
3CCDDD36,
BB9FD58B,
3B412E5C,
BCEFDE4B,
BCFAE261,
3BB1C29F,
BC5BDE3C,
BD377BBE,
BCC39BB4,
BBF723CF,
B8A885B7,
3D03F5D1,
BD090C39,
3D45E2DB,
3CF02A33,
BD10894F,
3D399D2D,
BD29254C,
BAAB0628,
3A2E4659,
3D7B406F,
3D18A4F2,
3D1A48B2,
BC599D9F,
3C1C713B,
3C160F49,
3CE524AF,
3BCCC947,
3D04B60B,
3D26303F,
BD2C0390,
3C7AA33D,
3D81FC6E,
BE01FBA3,
BDA0594F,
3C00E7D1,
BC2CEE67,
3C847C3F,
3BC2A14C,
BB356A09,
BD313FEC,
3CA7C7AA,
BDB78FFB,
BDD21B20,
BD0D27BC,
3D0E103C,
BD033E95,
3D0BEB0F,
3D989D5F,
3D507CED,
BD1EAC2D,
3C4F3CC1,
3CD72AF0,
3BF7293B,
BC1AC953,
3B523426,
BC513B68,
3AFAA15E,
B9F0AC06,
BCA40748,
3CC10B1D,
3D6F6C27,
3D091CB5,
3B8CA98A,
BC8C7392,
3D5DB6AF,
3DC23325,
3C3CF923,
3CA36964,
3D5DF520,
3D410928,
3DEEB8ED,
3B1EA608,
3B8823A8,
3CC68D4C,
BCAB13F2,
3CC320E8,
BA289F02,
BCA9AF7A,
BC4C1EC0,
BCAFDA51,
3D1F070F,
3D3BB821,
3DC571AF,
B947F7E3,
BD4FCE0A,
3D3D6E7B,
BBACA409,
3BC513A1,
3D375ECB,
BD6C5872,
3C9DBAA8,
BAA28ECA,
3C6E133B,
BC138AF8,
BC1B3146,
BC7783CE,
BD2682F4,
3CFAB5A6,
3D0DB5F4,
BD3FA33E,
3BD46C38,
3D8CE9B0,
BD31B0DA,
BDB9C3EF,
3D23C81A,
BBF27CC0,
BC70AA06,
3C852512,
BD215D2A,
BC9CFDFD,
3D58B70F,
3CB4CC09,
BCB97888,
3B684643,
BCD7D57F,
BC3EAB1D,
BD218756,
3C619E4E,
3CAEFAA1,
BC978F87,
BD0F54A1,
BB8CDBEA,
3C81E7D9,
BCC11949,
BD8EDACF,
3D288B75,
B8AE1EF9,
3CFD79B6,
3D20480F,
3C84982B,
3C5EE311,
3D80AF93,
BBFBCAD0,
3D1FB2DE,
3CFAC4D6,
3D4E4CFB,
3D92E105,
3DBDF1A4,
3D0E3C17,
BB35837A,
3D793DCA,
3D7D7B2A,
BB4A4EA9,
3C85189E,
BCA86FA9,
3D9858E3,
BCC571A1,
3D0103A2,
3D96B6CE,
3C05DE6F,
3C731ED5,
BCA6F84D,
BD16D16E,
BD4580BD,
BA5EE955,
BC89B34A,
BD4DFAA0,
BCE7A832,
3DAC091A,
3D5D1472,
BD8A952C,
BC87371E,
BD37A6BD,
3D14C313,
BCA8CA72,
BD4EF0C6,
3D5B96A0,
3D0D948A,
BC02D143,
BB9E5775,
3DAF3DD7,
3B51858F,
3C410BBB,
3CBD8E77,
3D519D51,
3C951908,
BC059FC9,
3C895B7D,
3C97D8A6,
BD21C7A2,
3CD863DB,
3CCA2098,
BDC151CF,
BD5A78AB,
BC868BE6,
BD985357,
BD2FE7F6,
BCF64AA1,
BD5E30EC,
BD4CA5A2,
BC8FBBC8,
BD29B017,
BC389BC2,
3D30079F,
BCE6C898,
3C20D572,
3CA4C5DB,
3C153507,
3B629F30,
3CB704B3,
BD0B09F7,
BBC7F5FE,
3CE7C0E6,
BCC32260,
BB3971F5,
3D4EF1CC,
BD5E6863,
BCDCB973,
BCA122DC,
BC6F8E13,
3C80166B,
3CE0E4C7,
BD92896E,
BD021247,
BC77A32A,
BD11A763,
3D01ED8E,
3CFF999A,
BC5BE375,
BD138DD8,
3D94B0ED,
3C48A0E0,
3CC9993F,
3D2EED70,
BD885AE6,
BCB5A03D,
BC97D2F8,
BC32C583,
BD218A0C,
3CE04083,
BC8BFA2E,
3C326CB2,
3D326D5B,
3C9729C0,
3D0B0896,
BD220F37,
3D8FB0BD,
3DB53844,
BCCA9E94,
BD4FF30E,
BD4D7750,
BD1D1405,
BCBADB17,
BDB1B233,
3CD22A6E,
BDD2230E,
BC7F0FC3,
BB135CD0,
BCE3D83D,
BCC6D8BF,
3C143589,
3D2764B5,
3CC55426,
3D289C13,
3CBF026C,
BCB4E6B9,
3D842077,
3D77730F,
BC9F6F5C,
BC88BE51,
BD2878FF,
BC4B50AF,
3BAD93D6,
BAE78B06,
BD3CB92F,
BD7334E3,
3C736C8F,
BDDA881B,
BD66CB18,
3D0A45B1,
3C442DDE,
BBD8553B,
3D121280,
3CB89443,
3C6571B7,
BB6FA3AF,
BCD65409,
3D591240,
3D1AF2FF,
3D7CC036,
3D0D9505,
BD063E16,
BCBA2203,
3D00D77C,
BD558C7F,
BD68486C,
3CBD98D3,
BC09DCD2,
3A36858C,
BCCC04A0,
3C78803C,
BE1C5441,
3A6941CE,
3D3954FD,
BD1F7F39,
BC8A3AB9,
BC86D2CF,
BD2F1BA1,
3D3F2378,
BCC1749B,
3BFC992A,
BD519D57,
BD6C4F77,
BD3C4425,
3BC46F70,
BC9E3BBA,
BDA6FD9B,
BC70C033,
3C22405D,
BBA0EE1E,
3C7158FF,
3C9B7AF1,
3ABB8CC3,
3D0C5465,
BC82B6AD,
BD3B27E4,
BC285946,
BC6301FD,
BB3A9D01,
BD2AFE54,
BD67A58D,
BD088981,
BC39BCD4,
3BC02F44,
BD1C76D9,
BC4C306D,
3C41516F,
BC5942E0,
3C23518E,
BC2CCA72,
BB935D98,
3A658D2A,
3D4CA075,
3CCC4DD6,
3CA9F358,
BC29DD36,
BD2D1D8C,
BD859D10,
BD203D88,
BD9455D6,
BD81C807,
BC164157,
BD7882AD,
BDDF60D3,
3C465F23,
3C072D88,
BDB9B56D,
3D84A34C,
3D41D1B9,
BCEDCDED,
BD5A61E5,
BCD0B4CD,
BC28571F,
3C968DCB,
3D25AE81,
3D34B165,
3C796411,
3D09D2B7,
3DD95560,
3CDD1603,
BD107E09,
3C6E8450,
BB5C2E51,
BC26235F,
3C93E781,
BD0B272D,
BCD9DDDE,
3C952763,
3C4EDE4A,
3B0BE7D9,
BA4C495C,
3DA5131B,
BC8F0B0F,
BC377095,
3A543352,
3B3B313F,
BBEDA3C6,
BCDBEC6A,
3D062B7D,
BD066158,
3D065045,
3D7EFD50,
BD618CC9,
3CB1B01F,
3C86F0EB,
BCC467B8,
3D2901E8,
3C3603F6,
BC0E9810,
3CB8B7C8,
3C684A6C,
BB92881D,
3D125B89,
3CB09988,
3E0397EB,
BD553CE0,
3C792D2C,
BD723F6A,
BD31FEA3,
BC47E20B,
BDB2D1A7,
BD9F3D22,
3CFD7CAF,
BD404F82,
3B64F60E,
BD3B8E5A,
3D7EB63E,
BD1A508E,
BD10AE0A,
3DD11177,
3C97291C,
3CB2C4D6,
3D07A1B5,
3A4BAB92,
BB67ADB7,
BD41E4CB,
BD9BDEE6,
BD8CC818,
3D2A8394,
3D070CFD,
3CAFB944,
3DB51BFB,
BDAA32CA,
BD33342E,
BD84854C,
BC93B702,
BD1A1BAD,
BC2C5880,
BCA8D262,
3A609BB4,
3D2ADBCE,
3D29530B,
3C0CBDC2,
3BABB9F7,
BD300E8B,
BD8C704D,
BD23941E,
3C0E8AB4,
BD0B24AA,
BD873B25,
BD5E9FFF,
BC59A586,
BDA0337F,
3C8F3954,
3DA60B2A,
BD30789B,
3D14FE5C,
BC80FC45,
BD355536,
3D69F77D,
BC4FBC34,
BCF96263,
3C6D5743,
3C4EF7EB,
3DA24946,
3DB34908,
3DE4AE1D,
3D359339,
3C9EAB7C,
BDB4E894,
BD93186B,
BD85656B,
BE044CB6,
BDA24193,
3CDC4DBA,
3D3ACD25,
3D9CF6CF,
3DA328F0,
3DA2AC9E,
3D1EDB8F,
3DF8C178,
3DE501D3,
3CC2B485,
3CE61688,
BD88D52F,
BD27E556,
3CEA44DC,
BD8874D3,
3D2185F7,
BCC9449F,
3CEB940A,
3DBF0FDF,
3D438137,
3DB3D8F0,
BCF9516F,
3CC33236,
BAA89EE6,
BD91B00A,
BD0FADCC,
3CDF0568,
3D93381A,
BD6D0391,
3CF47B2B,
3D1D1A72,
BC89F6BE,
3C87B4B6,
BD22991C,
3A2339D8,
3ABD1F7F,
3D0A2632,
3C442DF6,
BCE16FD9,
B9DDB4F8,
BA931751,
3D895279,
BC911BFE,
3B1798D7,
3DACFF2F,
3CCBC0D2,
3D281C4F,
BDA24485,
BD637D9F,
3BDCEA83,
BC90EAC4,
BDB85A26,
3C9B56BB,
3BE6DCA3,
BDA8D1A1,
B9463F5C,
BCC792C4,
BDA5359E,
3CFF23FB,
3D2854AD,
3D9ACBE3,
BC452995,
3D278CF8,
3D6ACEB2,
BC8A1F85,
BD114B56,
3D823091,
BB86537F,
3CEA3F40,
BB57AEB4,
3BEA9A51,
BCFFB34B,
BC59DC04,
BD35CF94,
BDBB8030,
BD2EB21F,
BCAC485D,
3D06D84A,
3BD26E72,
BB545A8E,
BDA99A9A,
3CA51372,
BD45194D,
BD02954F,
3C9738B6,
3C88A43A,
BD93F864,
BD6B516B,
BD4EB528,
BD6F6F6B,
BC406737,
BD5F9395,
BB0B6A18,
BB785A9F,
3CE7F0D9,
3C27D4F6,
3C109076,
BBB0B100,
BD6B60BC,
BCD02A12,
3C053DDD,
BD301A3F,
392720C2,
3D139E86,
BD1853F7,
BDAB542A,
BDBE5CBC,
BDC1B0F9,
BD8C79E1,
BD7D2826,
BD731989,
BC849304,
BD1B6F5C,
BDF7BC25,
BD962A5E,
BD517A33,
BDDF7A93,
BC50EE7C,
3CAD8D82,
BC62BADD,
3D5A146C,
BDA7B812,
BD19CD9D,
BD9DEA46,
3D16612E,
BB1F9BFB,
3B4AC00F,
BA8FA37E,
3C3C41F3,
BC5C6DFB,
3D3FC20B,
BD235C57,
BCC7C46B,
3D638DD6,
3D35549A,
3B423713,
3D06C9A5,
3CDD149A,
BD664276,
BCA1B875,
BBA04D1C,
BD0A6AD3,
BCFC98DD,
BD8B0E30,
BCA12F56,
3D09B3D6,
3D76B911,
3D230601,
BB64999D,
BDEE2770,
BD9A757E,
BC483734,
BD827ABF,
BD31B8C4,
BD0B8DD1,
3C2A48F2,
3D7006CC,
BCE9E04F,
3D041AE2,
BB919829,
3CEB8750,
3D6A93C6,
3D2C5A29,
3D38773E,
3C83739D,
BC9ED83C,
3C989AD5,
3C14AC51,
3C957F03,
BC93CA8C,
3D0DCB74,
3D120525,
3D6E34E6,
3D292F56,
3D0E299F,
3D96CB3D,
3D3B22B2,
BC124900,
3B83DB7A,
BC39120C,
3D8C7039,
BBED9DCF,
BDAB36C2,
BCBCCBCB,
BCCD19A0,
BD4A3A6E,
BD42B8DE,
BD0656AA,
BDA9AFD0,
BD6BFDCA,
3C23BE9E,
BB066641,
3C1D4F0E,
3BC4F885,
3D435164,
3D750E2D,
BBC92DF4,
BC2CF288,
3D1B93B1,
3D23B9D0,
BD71B6D5,
3D03CFA5,
388B733A,
BD527716,
3C2830F5,
BDA5D2F0,
BD17F03B,
BD83C57B,
B9246C62,
BD953207,
BCE14AA0,
3BB0E28C,
BCAE531A,
BD0F4478,
BD9C919E,
3B2A37DB,
3C38B58E,
BD474437,
BC4B5CD3,
BD7A2B5E,
BD2F6864,
BCFBED3B,
BD34ACB6,
BC3FD084,
BD8BE371,
BDC56E3D,
BD3708AD,
BCF7AD31,
3AE37CA1,
3D0925B3,
3DC1FEF1,
BD372F3F,
3DD99C3E,
3D66219E,
3D99DF2D,
3D5D3611,
3CB7E12C,
BCC13C33,
3C8969DC,
3D175688,
3C247E21,
3CD67393,
3DB8942D,
3BB87570,
3D0CFEF1,
3CD40B61,
BBAAC8D0,
3D134CC0,
3CE57184,
3DC52683,
3C00D366,
3BF32D5F,
3D81E935,
BD3CB8E8,
3C0BC5A2,
3D41B680,
3D8F5E90,
3D29C1A4,
3DB79576,
3CD46A42,
3CC56283,
BCBE0205,
3D3A0D7A,
3C425B53,
BD80E0F4,
BC34B40A,
BC840DC4,
BD8D2968,
3AD5C1DC,
39EE2493,
BCA8C878,
3CBE7083,
3D372A52,
3D1F3D89,
BCAC7A20,
BC8C06FF,
3CAE0E2B,
BC5A40B5,
BD8CA51D,
3CFCEA0E,
BC234B85,
3D320584,
3DABB991,
BA2E2BE7,
BD2BA525,
BD589881,
BD705C59,
BD88502A,
BB8F7D81,
BDE62EDE,
BD7FD8C0,
BD87AA8F,
3D3989B9,
BDD77402,
BD1F46E0,
3D108BA7,
3BCAC2C8,
BD0CC5B7,
3C8E9B1F,
3CC6C44F,
BB8D2B11,
3D6558ED,
3D3A3DA3,
3CDB8C2E,
3D6A0047,
3DCCD052,
BC385586,
3CC6973A,
3D4114CC,
BD14B815,
3C35075F,
3D459544,
BD305D7A,
3C99BD8A,
3B9A1576,
BB8C2E6A,
3C3F174B,
3A3861D5,
BC6FB6BD,
BBC85CB1,
BD7A0A79,
BCD74CDD,
BCA4B5A4,
BD7E304A,
BA416721,
BD0C0929,
3E057FC9,
3D508A62,
3C916B6B,
3D38814C,
3C061C65,
3C3BCD49,
3D183C5E,
BCA37E40,
3D57215B,
3D02AA62,
3D471595,
3C510820,
BCAACEDB,
BDA8AFA2,
3DBAF6B7,
3BACF2C6,
3C9C6B6B,
BD7322A0,
BD18F0A9,
BCE05220,
3D41DBB1,
3CB4E84D,
BC75B8AC,
3D7FFF98,
BA1231E4,
3CB248FE,
BCBD52F8,
BD3DE21F,
BD0176AF,
3D3FBA99,
BDAF51E6,
BDCD1C83,
BAB11708,
BD806789,
BB8CA6DB,
3BF5EF6D,
BCAA35E4,
BC92C078,
3D1E02F0,
3D3CD315,
3D5BBCA6,
3D0FEB76,
BB8C63D3,
3D9CB695,
BDC42E3A,
BD64EDBA,
3DA2FD1B,
3CA8C742,
BC1420C4,
3DB2F6BC,
BC0E76B8,
3BAB229B,
3DAB20DC,
3BFCD3CB,
BD00C6EE,
3D60B4DE,
BC12FBEA,
3C8FF3EE,
3D8D1AD8,
BD473D3D,
3D2AB0B1,
3D05BADF,
398FDD6C,
3C059654,
3C9CA389,
BD835DFB,
BD218727,
BC21D5B7,
3D0AEF4E,
BBE70B6F,
BCDF4263,
3D630A26,
BBDCC3AE,
BD984A10,
BD8543CE,
BC5E5F0E,
BCCE498F,
BBA363D3,
3D0D9C3A,
3BE224EC,
3C93C951,
BBA757F3,
BCE74E6B,
3C5419B8,
3CAE14BB,
3D89AC12,
3D369F5C,
3C607335,
3CA6A6A9,
3D43933D,
3D003344,
3DBE88ED,
3C99D74F,
3BA853C8,
BCEE797C,
3AD0AE68,
3D09761C,
BC0AEB06,
BB9D9FCC,
3888C55F,
BD8043C7,
BA3AEECC,
BD1BF65D,
3D220B35,
BBF76DA4,
3C1C8FFF,
3C1FEDB7,
3C64B716,
3B9FFFF2,
3CFE3680,
BD515792,
3CEBF84D,
3CEDA74E,
BA8FEC15,
3DAD2E99,
BC7B43FE,
3C9DCEC5,
BD010550,
BD58942F,
3D26A22E,
3C203027,
3D390A23,
BCCB4460,
BCA266F4,
3D1EE548,
BD32C5DD,
BCA72C7C,
BB8ACF2D,
BD09919B,
3D038A8B,
3C3DFCA6,
BC084CE2,
BC4CFECB,
BDA8A4B0,
BD2771E2,
BDD94D92,
BD8FBFF1,
3D77F460,
3C8346C8,
BC937E43,
3CF40C65,
3C679CE2,
3D18672B,
BC8B1F60,
3D271176,
3D8AD2AD,
3D3B6764,
3D1811B1,
BCB6B62A,
3D5E641B,
3C5530FE,
3C52E72F,
3CD3D6E4,
3AD9EBAE,
3D48216A,
BC546267,
BA87D68D,
3D119E24,
BC79FD39,
BD93D4F8,
3D49B2AB,
BD9EB375,
BD93C834,
B8A1DB65,
BD233524,
BCA3650D,
BD444759,
BC17C3B8,
BD1916C7,
BC163556,
3B4B7A08,
BCA081B7,
BC7751D1,
3D342389,
3BBD5990,
BCEB1168,
3D34718A,
BC861551,
BCE98919,
3D0DC10B,
BD779515,
BC558E00,
3BB37B57,
3C19CE12,
BD260580,
3C8B0506,
3B03802D,
3BD3295B,
3BF9C143,
BAC50FB3,
BCE2FCB7,
BC5B2E3E,
BBDFF132,
3C867248,
BCEEB312,
3BC24066,
BB7EB0BE,
BD8556F6,
3CCA82FA,
3D05D694,
BD0A3C2B,
3C6C4109,
BBB01B18,
BD2F5951,
BCFB51FD,
BB96ED58,
BCC7BD2B,
BA9E4B44,
3CA536B7,
BB4D43F9,
BCBC4664,
BB2E7902,
BC769258,
BD7488D3,
BD652EAE,
BD29D11D,
BCDF7665,
BBEC3777,
BBCB0565,
3C7CF802,
BD1F35D7,
BC6A5556,
BC801E95,
BCAAC1B7,
3CBCEC6B,
BD29C8FE,
3D10E181,
BC85C4D3,
3CFC9250,
BD68F812,
BCBB6320,
3B54475E,
BCDE0403,
3CE96840,
3D8F315E,
3CB69725,
BC8DBB88,
BBCB968D,
3C93797F,
3C92DAD5,
3CAC4AC0,
BBB1217D,
BCFF2FC2,
3D0A4F8A,
BC1735A4,
B8AD833F,
BB3EE915,
B9585B7D,
BBCBEF9E,
BD308A02,
BDB0D52D,
3D1BC803,
BCCBA821,
BD14E0D9,
BCDBB225,
3D2232C4,
3CBE23FF,
BC8F1B68,
BC90AB10,
BC8F9459,
3CF58F61,
BC68A519,
BD8AA686,
BC911BBE,
BD3D9E8E,
BCFE242D,
3CBE49C0,
BDCC36A5,
BD6A170C,
3D0F8694,
3B063122,
3D18EBAB,
BD09706A,
3C9D7294,
3C6DB7B5,
BD116362,
BD149411,
BB85F423,
BC3DAAF4,
BD484AC0,
3C192329,
3D885D18,
3CDCC12A,
BD2FA0D8,
3D289068,
BCEA7D89,
BD149ECD,
3D3FCDA2,
BD02A185,
3D3C3313,
BD30CC3A,
BCC71FC4,
BDC932BB,
3D06F213,
3D1444C3,
BD8147BF,
3D3103B7,
3BCA1E73,
3C8469A1,
3D0A4358,
B99BFA26,
3C81AB3C,
3C0AFB4F,
BD07A90A,
BCAD4683,
BC8080F2,
BD065B45,
3B131604,
BC792279,
3C52DEC8,
3C4979D9,
BD657DBE,
BCF6437F,
3C9E8C02,
BD6A9629,
BCABF65B,
3CF6B6A6,
3CF8DCBA,
BCD987B3,
3C4CD2D4,
3CD2AD33,
BCC09CFB,
3D091E56,
3D12DA86,
3CC2D9D6,
3D15AD1B,
3CCE9A63,
BD62011F,
BD069550,
BD3EFEDD,
BDBD9B23,
BB7F992D,
BDC40086,
BD35E388,
3C0581C2,
3D060A92,
3B729FBA,
BCCC2E4D,
BB52C041,
BD8AFB1A,
3BC66B02,
3CEACCA4,
BD09FF73,
3B29EB4C,
BC3E3ACA,
3D350893,
3C3D66D6,
3C1FC41E,
3C5D5096,
3D0805E6,
BC84B825,
BCA43BBC,
3D69F494,
BD4139C2,
3CFB4F1E,
BCC31B85,
BC24FBDC,
BC9738D6,
3D66891E,
BC7F35E2,
BD3B25BE,
3CB3506D,
3D320224,
3C96BA7A,
BB96DF96,
3C237B34,
BB9661B3,
BCDE8EF5,
3CC0523C,
3C0B9673,
3C8B6661,
BCAED815,
BCB10EB0,
3CBC2BF4,
3A4B5DAD,
3D26295C,
3CCBCD63,
BC890FE3,
BBDF268E,
BBC695FC,
BCFAE384,
BD008B24,
BD78BC86,
BB8F9634,
BC615E9F,
BD9A1416,
3CBBB83A,
3AF1F6A0,
BD8307C8,
3BF32D90,
3CDC3423,
3DA10457,
BCD17625,
BCC4EFA3,
3D5D2538,
BC0F4677,
3D251193,
3CF71338,
3CD87AD7,
3D014F4C,
3D4541B3,
BC94A729,
BCAB645A,
3D9F557D,
3CCC6575,
BCDC3BEE,
3CA68E6A,
BB0A8491,
BCC49910,
BD550339,
BD4DDDC2,
BB15A3F4,
BC4B601D,
BD32C529,
BBD7C0FE,
3D28014C,
BD0613A2,
3B73B9F2,
3C9EB614,
BD50DDCC,
BC08106E,
3D0C913F,
3C52AE42,
3D2F9E63,
BBCE8539,
3C52EE04,
3CF7D680,
3CDC8473,
BB90D66C,
3B6A55D7,
BD81CC5E,
BB9A021A,
3B01D472,
BD09D1B8,
BD340B74,
BC844A3F,
BCE169BE,
BB58A0F7,
BBA26618,
BD8A753F,
3DB328B0,
BD600073,
BD498719,
3BCE38CF,
3D059624,
3D9799CB,
3D629EF6,
BC84BCCD,
BD119418,
3D899B11,
BD02C185,
3CE7207F,
3CEE3AB7,
3BDBBDCF,
3B57D0BE,
3CB09D5A,
BBD54135,
BD2FD462,
BCB6AF62,
3C645948,
BD254489,
BD19CADA,
BB2F4C06,
3CED3DE8,
BCC07256,
3C63308E,
BC0E1E2B,
BC8062CC,
BC42585E,
3CA4DFD0,
3BF94C29,
BC2697BD,
BC9346F5,
BBCA2504,
3CFCB13F,
BCCC485D,
BD464872,
3C10AB8D,
3C79D2F4,
3DA2957E,
BB764FDF,
BD73E483,
3D618A0B,
3B5BF6CC,
BD046168,
3D3D0023,
BC8BCF11,
BB8C166A,
3C135FA5,
BB9A303C,
3D385230,
BB87445E,
3D2B598F,
3D90C97E,
BD902271,
3CB6203C,
3C847662,
3C6E0D9A,
3D7E53B9,
BC7273D5,
3B2BF709,
3D93DBFC,
3D319D75,
BCAD1C6D,
3DC4DFC3,
3D363A91,
3D0B500E,
3CA97AD9,
BC8FD7C3,
BC0E6371,
3AD0EC39,
3C8AC655,
3BCA9D5C,
BC27DC93,
3D9B9CD8,
3C91CB0E,
BB814507,
3CB88C80,
3D292514,
3C05F23B,
3D37C9CA,
BC3455AA,
BC9438E5,
3CAB98EA,
BD48DD08,
BCF68042,
BD0A86DD,
BD9D920F,
BDA1D9D0,
BCE0240C,
BD91C4F3,
BD6DD6E7,
BC985612,
3C69B1E9,
3D14B60B,
3BD34006,
3B2DD818,
BD6AD830,
BC6DDF00,
BD4BEEC4,
BD5C870D,
BCCE41A4,
3C78DA84,
3C7B9846,
3C894081,
BCF3EBA9,
3C509412,
3A654BAB,
BC45CA1D,
3CD30343,
BB1F6224,
BC8ACFED,
BD171B27,
BD95A826,
3CAF5877,
BC1729ED,
3CF28273,
BAF2F475,
3C384624,
3D3193DF,
3CCB7106,
3D1485E6,
3C06C5E2,
BBAD1B74,
BBD2EA17,
3C8C87B6,
BCB2DE90,
BCBA9D17,
3BCEA583,
BDAB199C,
BE043849,
BD31FB3B,
BDBF8710,
BCF9BCB0,
BD1FB746,
BC65B669,
BC446FFB,
3C95072F,
3CC0F21D,
3D19845A,
BD5FD0D4,
3D808FE7,
3D0D31F7,
BC991461,
3D4F3C69,
3C191C9F,
BBE70735,
BAD6102C,
BDE37DF5,
BDFA258F,
BC703D5F,
BE03A0C4,
BDDC5A23,
BC4376FB,
BDD79E68,
BDDF2111,
3CE5FF75,
3DEDB493,
3C514BA3,
BCC8204C,
3D1251A3,
BBE9D891,
BD0FDD2C,
BD8A1D5F,
3CBDC631,
3D2C6975,
BCBD2EB4,
BBF5A3B4,
BD2C36BE,
BD6F91B7,
BA20C2C7,
BD4039E2,
BCE09B82,
3C3798CD,
3D32ACE5,
BD61E684,
BD780F29,
3BAB93F3,
BCB7F405,
3DA5CD11,
BCE71719,
3C0A4AE1,
3BA28434,
3AB59037,
BCD7F9E5,
BB8CEEE8,
BDEC48EF,
BD4A45FD,
3CCC20B0,
BCD1FBEC,
BD781303,
3B59F767,
BD2CEBCB,
BD1D69D1,
3BDBA753,
BD317E55,
BB07B371,
3C4E3593,
BBA296C3,
3D0C4352,
3CB502DE,
3B4B2E6E,
3D0AAC5F,
3C9436DD,
BD430F16,
BCEE64FB,
BA2269C7,
BCF1CEB1,
3D33A5C6,
BA3D556A,
3C7A1A26,
3CC66D3A,
3BD1CBB8,
BD02EFD5,
BC2ACA0B,
3B1866D8,
3C586E7E,
BBA92316,
3C9B16CF,
BCC1E3D0,
3C74EA47,
BD33F5C6,
BD6D29B9,
BC83C91C,
BCC73858,
BD084061,
BD11A505,
BD69BD0C,
3B432133,
3B04D923,
BAE0F2DA,
3A87CC57,
BC1D2708,
3C5D7AF5,
BB384888,
3D8EC0F6,
3D4239BD,
BC252CA2,
3D0BABA5,
BBCD64DA,
BD3D5C20,
3D2A62F0,
3D010387,
BCB46E9C,
3D38CA52,
BB1A40B6,
3B393350,
3B697ECA,
3BC38FCF,
BC44B817,
3C1DAFDC,
3BC93150,
BC9FA37D,
3C7384B5,
3CEB9ED7,
3CDCD46F,
3C5017BE,
BAF6A406,
BD3B4A9C,
39AAADF5,
BD8419AF,
BD0FAF2E,
BD5B2D5C,
BD4CB3F1,
3C33E324,
3CA5F703,
3C381C4B,
3C9E6EF3,
BC9EC6CE,
3C2169F4,
3CBE8F1D,
3CAD8C98,
3D0FA896,
BC391443,
3CA63D11,
3D8F942D,
BD2C661F,
3D87A90E,
3CC8B306,
3C79418B,
3D0056BB,
BCBE6AE9,
3C0B8EA5,
BD3AB22A,
3C69AF73,
3DDD0FD2,
3D022493,
3B39D75E,
BC6D9313,
BD839428,
BDAEE5CE,
3CC2E959,
3C561F3B,
3D9B3E92,
3D04E8FE,
3C010943,
3D04FE0F,
3C966CF4,
3C32D856,
3D199DAA,
3D13285C,
3BC99070,
BCAAC9D5,
3CD30ECF,
3D105C8D,
3D156FF7,
3CC44424,
BBC756EC,
3B356F0E,
3C08D3C3,
BBAF862B,
3CEFC277,
3D10A7BD,
3DC20AA6,
3C84F81A,
BC604AC4,
BDBFE2CF,
BDBD6CE3,
BCFCCBE0,
BD351F88,
3C48440E,
BD8CF3D8,
3CA1AD4B,
BC640AD4,
3D9262FA,
3DD4B36B,
3C6F0BF8,
3B51D4D3,
3C0298DD,
BC3B8011,
BC990E68,
BD1893DD,
BCD14833,
3D3BE6F8,
BD15DF04,
3C4C67BD,
BCC0EC0A,
BD42B150,
3A459111,
3B9FD38B,
BC3D48B9,
3DA702E8,
3D8DF96B,
BCBE28EE,
3AC5008B,
3CC75FA5,
3AF04FCA,
3C60451E,
BC2FF900,
BBAE53FE,
BCC07274,
BD6D8813,
BD3AF038,
3D81CDAE,
BBACCF57,
3C2F58F3,
BCFCBF99,
BD70F786,
BC142A3B,
BCF06CE4,
BCFB320A,
3C63F128,
BCB2EE0F,
3CC7547E,
3C81666F,
3BCC451B,
BD5BEE0E,
3C387D2B,
3D443481,
3D49AB07,
BC5DAF81,
BC992106,
BCD32DE3,
BD52821F,
BCCD9B5E,
3C9A2C21,
BD69A2B1,
3CBB308E,
BCDC33FD,
BD7DFC54,
BC102323,
BCB6C125,
37F4C498,
3D14A777,
3C83D3E3,
3D3243B2,
3CA3C390,
3D9BDE09,
BCEDE693,
BD69C01F,
BD187B40,
BD6BB119,
3C9971F7,
BCD13935,
BD2DC7FA,
BDB4B382,
BD5DF608,
BDDD6441,
BD97AA70,
3C865DAA,
BC84180D,
BCAC77EC,
BD1AFDB1,
3CF73565,
BC7CFB2D,
BCF49F0B,
3CF0D5B3,
3DDC638B,
BC14643D,
3C90FD4E,
3D3EE01A,
BD01588D,
BB3378BA,
BAB9F04E,
3CD202B4,
3B509D9F,
BDD26F62,
BBF98BC2,
3C634F3F,
3D56D617,
3CA7AAB4,
BB652D4D,
3A06846E,
BD2DFDA3,
BD8D86FC,
3D6C9A16,
BD860E31,
BD042931,
BCD91CCF,
3D12EFE9,
3CB7408A,
BCC3983B,
3D4A340A,
3D36140F,
3D40F438,
BCFDDEB7,
BD3F7169,
3CB0B919,
BD0CBEA1,
3CC98328,
3D363D53,
3D6AE8D3,
3CA7DC44,
BDCCD442,
3CD1FBEF,
BD60A809,
BCA71A85,
BBB51BCE,
BDB010B8,
BD2BCA1C,
BD873026,
BC9AD02E,
BC1CEA2F,
BCD98EF8,
3D50F23E,
3D7C1283,
3CBAF916,
3DA8F648,
BCE01EF3,
BC8BC72A,
BC9994E9,
BD6B64A8,
3D9272A3,
3D1ABA04,
3C2E8A3C,
3DB9E64F,
3D50D14F,
BC8B423F,
3D1C4F2A,
3B746030,
3AD3421B,
BD52B31A,
BD5BA692,
BD1A9F0F,
BB15420A,
BD092108,
3C24E917,
3C57FB26,
BD70D40A,
BD7985BF,
BD908797,
3C01B3BA,
3C02DBDB,
3C94782B,
BBA23E40,
3D192414,
BB94E44C,
3C328A53,
3CE5F9B7,
3D0875E2,
3C549542,
BCF59B05,
BC3B4C73,
BA1EFD45,
BA9ED1EA,
3C9F1B81,
3BC6A4AE,
3B7B7CA5,
3B5E2477,
BBB3304F,
3C48C5E0,
3D330F7C,
BC90037C,
BD5F9368,
BCFCD31B,
BCEE0C03,
3D68FA03,
3CAF3F48,
3D3618B7,
3D301DFD,
BCE0FE36,
BDA434A6,
BC227964,
BCE43034,
3D8C6559,
3DD7F9FD,
3CF9FF08,
3D9F936E,
3D8A7565,
3CC6C5EE,
3D63CC17,
BBF2705D,
3CF57303,
BBDF3BBD,
BDBC1AB0,
BC5C1C2A,
BD863F2E,
BD1CE764,
3BC40C39,
BC9B50B1,
BBB4A8E4,
3C483EEB,
BD0BE65B,
BC9EA54E,
3CB4D984,
3C8D573F,
3C9057C2,
3C11C63C,
BC85C62C,
BD8B7505,
3D39C709,
BD2FD257,
BD95FFEF,
3C8F8BE0,
3D8E1F4F,
3D5840A8,
BB84AC59,
BC2CAD66,
3C5B7FA5,
3D8C0662,
3D849545,
3D5ED01E,
3CB88C15,
BC78DEF1,
3C58546B,
BD00C71F,
BD1543C9,
BCC6AECF,
BCEFB401,
BD66C305,
3C325DB2,
3C85A601,
BD404720,
BCB152B0,
BD97C47E,
BD7F0A2A,
3CCD495B,
3CF41156,
BD0F33A4,
3CF43B9E,
3D2C8076,
3CFD1BDB,
3CD57D62,
3D1E3442,
BD46E88B,
BD91FB79,
BD3B1B4E,
BDAD7545,
3C44211B,
BC241D6A,
BA8D5C0D,
BBCFB294,
3C8121D0,
3C152111,
3BE4A039,
3BBB54C5,
3D528EFE,
3D2EF65E,
BD74BFA2,
BA214C34,
3D32A255,
3D724F29,
3CF48937,
BC935B05,
3DCFBEDE,
3A051257,
BD84BD9D,
BC1414E1,
BC3D569E,
BD1B84A7,
BC614F7B,
BD183EF9,
BD7D6DDF,
BDCBD32F,
BC9C0605,
BC7B5CFA,
3B15FEDC,
BC44BE06,
BB869E3A,
BD3F7C42,
3B8EDABE,
BD15DBC6,
3C05B3E8,
3CCA674F,
BCC8D074,
3C992ABC,
BC8DD35E,
3C96C4D5,
3CF23174,
3D7CC10A,
BBCFDB8A,
3CAD8D5B,
3BC4F6A2,
BD5164C1,
BC293EF5,
3CF46564,
39C9E207,
BC8A0FA8,
3CF6C07A,
3CBD81F3,
BCB8974E,
3B1ACA31,
3CD0379F,
3DA93C51,
3D78ECD4,
3D5642C1,
BD708B3A,
BCF0A5F6,
BBDC4D0C,
3CE4908F,
3D47D27E,
3D691815,
BD36AA44,
3C880379,
BC4B5E68,
BCA19DDA,
BD08D57A,
BCB5F452,
BD845785,
BCEAD321,
3CD83A1D,
BC8F3EA0,
3CCCB359,
3C2ADEE3,
BD9E84A2,
BC1E8FB6,
3D7719AE,
BCCE55DC,
3D23B4A3,
3CB909D3,
BC87C484,
BCF314A0,
BCE474CE,
3CCBF865,
BC969D9F,
BD4C5185,
3C6C75DC,
BC963FEF,
3D92D50D,
3CB3A2BE,
3C2C18DA,
BB12E1E6,
BD84C62B,
BB3FF167,
3C90920F,
3C86C4C4,
BBE86F06,
3D8DB0CD,
3D3E545A,
BBD97EB9,
BCE9BE6F,
3CDCA7C4,
BD30BA5D,
BD2A01A6,
3D6C6236,
3CA5977A,
3CF16A48,
3B374E41,
3CBD6B8F,
BC4937D8,
BD3F5B23,
BCC83C84,
BAB36C46,
BD9E5E2A,
3C7AEE90,
3D653973,
3D4FC426,
BD8CA43B,
BC93590F,
BD5F838D,
BD50CEB0,
BD482E94,
BD66EECF,
BB06D4D0,
3D21D3D2,
3CBE6F77,
BD0A85D1,
BD2B4631,
BD519C8A,
BD519158,
BD04E511,
BC9718DB,
3D0DA05F,
BC01622D,
3DCA75A4,
3D5BA64C,
BA94E95E,
3BE1C9E8,
BCCDAFAA,
BD340613,
3D3AD643,
3D675900,
3C58EB2B,
3C702367,
BC48BE89,
BCB0DC6D,
BD8158AB,
BDA83E58,
3CF7DADA,
BC8B3F9E,
BCA86606,
3CE05422,
BBEF7DC9,
BC756B64,
3D6E2FA4,
3D0E6627,
3D410A89,
3CD1C4FC,
3DC4B744,
3AD7FC8A,
BD7A7CA6,
3C998A27,
BD5FE6F4,
BCA62F85,
BD5487A3,
BD27BBDB,
3CA3E570,
BBBE5307,
BD57967C,
B9048D0B,
3C1868ED,
BC2ECF9B,
3D986B88,
3D91B602,
3C19E6FF,
BD08A1FA,
BC5829F8,
BCFB20C5,
BB88EA79,
BCB6C04E,
BCEEBBCF,
BBE812A9,
3B2C139C,
BD98A942,
BC0D6132,
39E7C222,
BBB1CCCB,
3CB8C0FF,
3CE88928,
3D165A89,
3D4CD569,
3D640195,
BBC3EEE0,
BC9B1313,
BD52B472,
BD06E249,
BBD5B919,
3DAFF795,
3BE01EE2,
3C81E831,
BD2F8EC2,
BD821EDA,
BD7C3D67,
BD0741B4,
BD5F948F,
3D825097,
3B497019,
BA54EC1C,
3D81C01A,
3D85FA19,
3D0EBBBA,
3C5EB65F,
BC0DF733,
3D09BDB0,
BD04414E,
3C96B216,
3B864538,
BB92F4EB,
3B155E65,
BD99A77F,
BB0A384D,
3AE01F11,
3C6F3A5C,
3D8A9EF9,
3C93A60E,
3CD6A9A9,
3B9FF6EF,
BCCFD2CA,
BCEF148D,
BD7905B0,
3ADA4745,
3B969239,
BC3F454D,
BD03F326,
B8991420,
BCE30887,
BD5D1280,
BD23B8FE,
3C3DD1C5,
BB936229,
BD9D3609,
BCC9D114,
BB262A84,
BCE64FBC,
BCD558A8,
BD680B8F,
BD8CCFB5,
BD99AA2A,
3959ED62,
3C9C0205,
3D188B42,
BD7CF8E9,
BDC191DF,
BCC32CB0,
BD4DFB26,
3C97C633,
3CF9E8D1,
3D1E0FE1,
3D2F0995,
BC8CC775,
BC89B3D0,
BD86E952,
3C13B60A,
3CBE266B,
3C08A0D2,
BCD51205,
BB5F373D,
BCC7589C,
3CCA5327,
3D0CC938,
3D81BCA0,
BC2A7BBD,
3D939D32,
3BD5CBA5,
BC6BEE34,
3D5DC37C,
BCF6F51E,
3C46C076,
BCE01E8A,
BDC6BBB7,
BC982E84,
3C340D8A,
3CC43C57,
3D745D7F,
BCFF49CF,
3C322331,
3CF946A4,
3CE4EA3A,
3C581FC6,
3B477F04,
3C97ABFF,
BD7F0EFA,
3CBA8C9F,
3C5C15FC,
BD398760,
BCAB0C61,
BD326C82,
BBEC048D,
BCA774BC,
3A991662,
3C96AC26,
BDB25651,
BD47F9FA,
BD5CC620,
BBF4D398,
3DA89B9B,
BD936950,
BDDAABA5,
3D275893,
BC4680FD,
3D6DA831,
BB70AC07,
3BF27342,
3CD96225,
BCFC22EA,
BD8C8B7C,
BD4B38A6,
BD52A57A,
BDC09915,
BD5D4A42,
3D0341AC,
BC1E5EA8,
BC42A395,
3D33D894,
BC2D124F,
BD182DE1,
3D6E1E7B,
BDA6A321,
BD29D0A7,
3D040574,
BDEA6B9E,
BD5FD9C5,
BB56AADC,
3D248967,
BB16BFBB,
BCDFCE4C,
BDAE22BB,
BC4CCF39,
BD2C0AEF,
BD511ACA,
3CAA46B8,
BC0EE8EF,
BC0847D6,
3D0CFD2E,
3BD278AF,
3C2B400D,
BC1199F6,
3C31AF77,
BB68F8F8,
BA997CBA,
3BB2BBFD,
BD6C1490,
BBF7C95C,
3B8AAE47,
BD9149BE,
BCD3C005,
3C4BC90B,
BD8EB446,
BB3495CD,
BCE30F7C,
BC882CF7,
BD60758A,
3BF2AC13,
BBD19D4E,
BCEB3DF7,
3B5066E2,
3B965E05,
3D18DD46,
3CDDCA20,
BD08B8C8,
BD0FCC8D,
3D5E033B,
3C57E5CF,
3AC3C1F4,
3D1C0ECA,
BDCA9710,
BD0CBA8B,
3A98C05A,
BD8D7200,
BC988327,
3C2A10EB,
BE0BF7F9,
BC74A7D6,
3D3DDC03,
39BD0918,
3D9538B2,
BC5AC64C,
3B6E27E3,
BB9C8A65,
BBDAEBE1,
3B258A7B,
3CA82CCC,
BDAC7978,
3B270641,
BD3EF388,
BC4E1FF9,
BD33E3CB,
B9D9E854,
BBA96352,
3D87935F,
3D540561,
3D5CC0AD,
3D59AB5E,
3C706014,
BD0759E7,
BD173110,
BBAF79A3,
BD496297,
BD1E7109,
BD2D5FC2,
3B95240E,
BD44AFDA,
BC0B8E2F,
3D0B48A0,
BD096B3C,
3D344F85,
BD417455,
3D642EF8,
3CCA4560,
BD0F8E90,
3DCE11D1,
3D3E6CCA,
3C92C83A,
BC368712,
BD492F62,
3C8D0B9A,
3C019E18,
BB3B30EF,
BCF31F4D,
3D3C0476,
3D31786C,
BD9A4B99,
BCD53BC3,
BA8D1F69,
3CD5D8C9,
BD92D3C3,
3CDC6AB8,
3CD652D8,
3C3226D6,
BD0B7EED,
BD60B281,
BDABD443,
BC928D2B,
BC70A1EF,
BC75310F,
3DCDFB7E,
3CC7F8C5,
BD9AB259,
BA9BFEC8,
3D8F0572,
BC1CFB43,
3CB4FA41,
3D6F7741,
3D42656C,
3D3F9300,
3BCB0ABF,
BB8783A7,
3C656F26,
BCE7C7A4,
3B088A1B,
BCB60A77,
3C7E302A,
3DFC7BE1,
3D5C6129,
3CF088B6,
3DBF6679,
3D924E3B,
3D66CF41,
3D4254BD,
BD43F2F1,
3D86386F,
3D00F015,
BD1C08F1,
3D18D3AA,
3A04690F,
BC4B8908,
3CC6DA9F,
BA58F685,
BD39200F,
BC86DAC5,
3BF4837C,
B9D60945,
3C7FE48F,
BC14905E,
3BCDC668,
BC5A65A4,
3CD04E01,
3CD49D1E,
3C2BA2F6,
3B5F753B,
3D784DAA,
3D40BDB5,
BD08E293,
BD5C88FF,
3B6ED8C7,
3D882182,
3D36E1E0,
BBDC5F0D,
BB1CD4F3,
BC2AE7A2,
BBA9BB0D,
BD0D9EBC,
BC18FA8E,
3D392C7B,
3D897187,
3D07775D,
3D8E3DF4,
BC93DDBC,
BCE8F89A,
3C95BD26,
3CDFCCAE,
3D483320,
BD22C857,
3BEE4900,
BC5877AC,
BCF10283,
3CAFFAC1,
3BB72DC8,
3D3439C4,
3CD295D3,
3D0150FE,
3CA832D1,
3D2294DC,
BDF3A237,
BBD16F9D,
BD08905D,
3D240060,
BD3C2BE1,
BBCD9B68,
BCA76D53,
3D576754,
3D1E4343,
3CDF607E,
3C14C012,
BD4F8295,
3D0859CC,
3D72C876,
BD2080B0,
3D10EEB2,
BC0CFFA8,
BD19EC9E,
BCB95FEE,
3CA0B39C,
3DFAA21E,
3CC8DAD6,
BACE28A4,
3D0F83FB,
3D5E389E,
3D147F3B,
BCF953FA,
BD29EA61,
3D723004,
3CAED4BE,
3C7FD94D,
3BBF3712,
BCEBD418,
BD0392ED,
BD0C7A79,
BD51DFB0,
3D074223,
BC4D1030,
BD256E1E,
3A936D15,
BDBE18D6,
BD2B1BC5,
BD4208BE,
3B9462E8,
3C5F9325,
BCFFBB6F,
BD708FC8,
BBAC71E8,
BDA3922A,
BD81AA00,
BC4ECAD1,
BD307082,
3DA44E42,
3D8FE27A,
3D6AE66C,
3CFA054C,
BCBF5BD7,
BDA0D595,
3C200EE1,
3C439B79,
3D8803FE,
3D5284BC,
BBDD2FC1,
BDA88C7E,
3DEF3674,
BDB0DBA4,
3C7374B9,
3DA07DC1,
BD061739,
3D9C9CC4,
BBCF89DB,
BC363780,
BC291E71,
BD46874B,
BC978DB4,
BA571D07,
BD98546F,
BC0B1634,
BD033121,
BCEFBEA6,
BCE810AD,
3CF2E964,
BC8B830F,
3C3E4FF3,
BD390C8E,
BC905F1A,
3CB99DDB,
3C81BF0B,
BD0DF579,
BD397047,
BD51D206,
3BD4C2A9,
BC80B7A7,
3C92091E,
BC3DF063,
3DEF2162,
3D9A8A13,
3D3CD078,
BD42D3F1,
3C3F8A4A,
3D656AA2,
3CC20A4E,
3DEE0F86,
BCC210F3,
BAF349B1,
BD58E6E5,
BBC578B0,
3C136F0C,
BD00648F,
3D940351,
3CC953E4,
BD48FA1C,
3C99BC9E,
BD6FA405,
BCCC19DE,
BD17D799,
3C2585A3,
BBA2D975,
BC30E972,
BBC31A8A,
3C9D3E34,
BB86A91C,
BBCAB791,
3D875F2F,
3CA3E5CE,
BDA31FD1,
BD9414AD,
3D8F6FDA,
BD9AD18F,
BD2AA530,
3C9967A4,
BC528FDD,
BD8A9699,
3D54F27C,
3CE3ED80,
3D19624C,
3C96E4EA,
BAA87B06,
3B524B7E,
3B93FA19,
BD7A5BEA,
BBBE1BBB,
BC8E5645,
BB42A85F,
BCC13877,
3C850851,
BD26C398,
BCFA8503,
BB0382A7,
BD067ABA,
3DAD8184,
3D2A1D9F,
BCF3DB50,
3C9900F9,
3DC31149,
BD679BFD,
BC8AE78E,
BCBF66A0,
BD96742C,
BD872926,
BB82A52D,
3D13A58D,
BD766A04,
3D0729F8,
BCF9FF08,
BD0AE79F,
BD0AEA0B,
BC6092BD,
3C2CC208,
BD92F4C1,
3CFAB8A9,
3B9C0993,
BD6932E7,
3C5124BD,
3C0921E9,
BC2CE300,
3D37C134,
3D233FA3,
BD0B1804,
BCAD1024,
BB5162D5,
3CAA090E,
3D92E762,
3CA49DCD,
3D25F8D5,
3C91AE49,
3D0D8506,
BC8D00CE,
3B369CBD,
3CD0286F,
BC1D3A6D,
BCB7B21E,
BCB78CCD,
3A3E91F2,
BDA4C91A,
3D314CF4,
BBDCCB1C,
BC4D21EE,
3CD5D222,
BD5844F6,
3C45B688,
3C321BA5,
BDBD38B0,
3B37C47B,
BCBC6D89,
3C4EA35F,
3D2ADF40,
3BC39934,
BC4F43A7,
BC90F9FA,
3B81B2F7,
BC1CE3CE,
3CD03D9C,
BC7D16F8,
BCCF684B,
BCAEB622,
3C98EFB8,
BC59F1B7,
BD8CC7D8,
BD3156AB,
BD350FE7,
3C8A3ABA,
BCE22E84,
BAB4793E,
BC304447,
3D56C3C0,
3CB6097D,
3CABA105,
3D986225,
BD669E90,
3D9DA118,
3CFDDC04,
BCE9E89C,
3D870BBD,
3D085347,
3BCD52A9,
BD29D9E4,
BD056FFA,
BCCD3051,
BDAE829A,
BD095927,
BCF5EB7F,
3C1B9341,
3AE05B77,
BB7CB5FF,
3B92FE60,
3D342591,
3D63F396,
BC9EBB3F,
BC154F67,
BD673E98,
BD87D55B,
BD2E1C4C,
3BA0131B,
3D4EDB81,
3D30D78E,
BC552311,
3D1E471C,
BC8FA0A3,
3D8DC89F,
3C929F71,
BC379124,
3DA3A60C,
3AF49BD1,
3D85B938,
3D6B1B39,
BD74908D,
BCE37B9C,
3C8EE317,
3D799FA0,
BC205408,
3BAD4AB7,
3C8EEF37,
3B33CDA7,
3D8DDF3D,
BB3436E1,
BC873FDC,
3D070B91,
3CC4F9E6,
3DCFC777,
3CAE50D3,
3DA1C9BA,
3BD65D3F,
BC805D5A,
3D888093,
3D59E0AC,
BD199A9B,
BCDE2689,
3CD57EF7,
BA8DB704,
3D02DD65,
3D2587CC,
BD62A84B,
BD2F9926,
BD114016,
BB465968,
BD4F7A95,
BCF92285,
3AE82C9D,
3CA3FC66,
BC7A2543,
BD6E042D,
3C9C680E,
3D270AD0,
3C248BAA,
BD723FFF,
BD9B59CA,
3D2C975C,
BD0CFB11,
3CFABC9F,
3D1C6BC7,
BDB147BA,
3C8BE9C4,
BC2D532E,
BCC89D9E,
3C6EB517,
BD23D105,
3CBDA148,
3D548149,
BD0E801B,
3D1EDB75,
3D95E04C,
3D5EC24F,
3D51EC1E,
3D04FB66,
3D5B1FFD,
BD892CAB,
BCB340A3,
3CF23E9C,
BCE72014,
3C7C17C3,
BCE824B9,
3C4B0B78,
3D7F534B,
BD897626,
BD3CB653,
BA3594F4,
BCDC6B07,
3D607688,
3CCD3898,
3D091A04,
BC115BB0,
3C177D19,
3D91FB38,
BD59EAAF,
BCC48ABF,
3D81A8DA,
3CDF1B83,
3C9929C9,
BDD60DAB,
BC7866A7,
BD3B784D,
BD7EDAB0,
BD8C193E,
3BA06617,
BCB0540D,
BD34D18B,
3C94539D,
3C66B995,
BD334E3C,
3BA438D8,
BD2E374E,
BD7C1CC6,
3D094DC0,
3C707121,
3D9143C3,
3D5B3DD6,
BB2468A9,
BDD1E23A,
3D463E13,
3D37411F,
BD585045,
3D501AF5,
BD9F094D,
BD998D05,
39B2F79D,
3C7CC13E,
BBD08A9B,
3CB37FA3,
BC71E171,
3CAA644A,
3CE75576,
3CC42D2F,
3B1FB5ED,
3CD19481,
3B54200D,
BC623C73,
BC4B21B7,
38EF7E8F,
BC9AA94C,
BD71CCD4,
BDA9FF2A,
BD4DEFDE,
BC4A4F18,
BD2CB3D0,
BC05DA31,
3C7D2D9C,
BD8043B9,
BD281B85,
3BBEEF0C,
B9982A00,
3D1FDB65,
3C645A68,
BD92AAB7,
BC6D9CFE,
3C4AC097,
BD4FC817,
3CBCF225,
3CBFC0DD,
BC73A2FF,
BBF3B490,
3D0E10C9,
3DFD80CC,
3D5E06E8,
BD23E797,
BC8EB882,
BDA34780,
BDA3A144,
BD667EA3,
BD9EB3A0,
BD4E3D58,
3D7ABDBF,
3B287668,
BCD7B960,
3DAC4618,
3D28BA9C,
BD359B55,
BCFAC60D,
BD34990A,
BD3FE565,
BA70266E,
3CED457B,
3C235FB9,
BD9AEFC6,
BD7B547D,
3C76222D,
BD31A08C,
3C8A05A1,
3D028761,
3CA755A3,
3D00ED49,
3D68B1C6,
BDF28B81,
BD3C990D,
3CA6739A,
BDB12038,
BB707F00,
3CCCEA81,
BD3C0683,
3C9775B1,
3DE81C9C,
BD42D475,
3CA49E69,
3DA9D842,
BB93A66A,
3D2300FD,
3CC0C103,
BC57BC21,
3D44FC00,
3D48B2EF,
3D032413,
3D8F40F6,
BD31712B,
3CE1510E,
BBC1C3F5,
BC800D76,
BC13A3E7,
BCFEE98A,
3CFEB00A,
BD370964,
3C70BCE4,
3D81C8A7,
3BC19662,
BCCBFA8D,
3CAA7290,
3B52F629,
BCD1D6CC,
3D40EE04,
BBDBCAD3,
BD6124F6,
3D824D87,
BD47B6B5,
BD84DFD7,
3C01B5CD,
3C72927E,
BC65AF5F,
BD691689,
3D3907FB,
BD44D090,
BD7EAAA9,
3D387353,
BD5529F8,
BDB9D632,
BC9DD12A,
BC0FE0C4,
BCB3830A,
3D12E412,
3D0276D8,
BD199605,
3D5B764E,
3D644FBA,
3D39A5AB,
BDA0D42E,
BD1FE4A5,
3D847E01,
BB160C4A,
3C5A03A9,
3D822D30,
BCEA4806,
3D9106CD,
3D2FCE0B,
BB8D5921,
BBEB4001,
3CFE6362,
3C89DEA2,
3D03947A,
3D7C807D,
3DBB364F,
3DE36514,
3D0018BE,
BDC6A8A0,
3C006975,
3D13D584,
BE0008EB,
3D11E0F9,
3C363B2D,
3D003B40,
3C3DF7F9,
3C9BABA9,
BCEAA844,
BB8A03C2,
BBCCBB6B,
BD59114D,
3BAE5DC0,
3C9FBFA9,
BCEB74AD,
3BD8B4BE,
3D3F438D,
3C978FD3,
BC9D56EC,
BCDDEA93,
3BB8B03D,
BD219134,
3BC7085D,
BD54215A,
BB793B6E,
BC83AA1D,
3D206D3F,
3D1D0265,
3D06F9D4,
BD819A33,
3BDEBB4C,
BD0B576D,
3D4918FD,
3C3BB0A4,
3D226EEE,
3C8AD6D7,
3C853865,
3D81DD9C,
BBE78555,
BCC8F655,
3B8AE54A,
3D39FEDA,
BD4E6A74,
BBD55ED9,
BD23BC71,
3C80C20E,
3D3E8CE4,
3D4D532D,
BD032210,
BB8AB3C1,
BC403B6E,
BD094489,
BD2238EE,
BD88346C,
BC3D8D9E,
3A33C320,
BC3AF923,
BB4B4958,
BCCE163D,
3D225093,
3CD22912,
3CDE0AAC,
3CAC7766,
3D9640F1,
3BA517D4,
BB2A2B8E,
3BF9156C,
BD5F229C,
BD906D12,
BCECE9D6,
3CCAACE1,
BD149269,
3AACD7FF,
BD46109E,
BC85DEF7,
3C5E630E,
3C086E02,
3D64058C,
3CF71B1A,
3BF1404F,
3D09AE87,
B944DDD9,
BB150345,
3C0E89B2,
BCE66D5A,
BD27203E,
BD26F4DF,
BD362069,
BCA97053,
3D4FA9C4,
BCC7ED22,
BD39C435,
3D02DEA4,
BD838A53,
BD12DDF1,
BC354192,
3BA1BEF9,
3D01387D,
BD099F89,
BBFDED70,
3A687E64,
BD389409,
3C4CEC52,
3D67854D,
BCD754F5,
392C266C,
BC5762C4,
BD1DB76A,
3B3177CC,
3D067981,
BD3F8EEE,
3A8E318C,
3C902110,
3CE826EE,
3CF8B22D,
3DF4796F,
3D8418B3,
3DA07E88,
3C44C1E8,
3D249543,
3C22AFD3,
BD6559C8,
3D00AA44,
BD093FC7,
3C29DCD0,
3BB5583F,
BD8AA10E,
BCD09B1F,
BD765BA8,
BD5BF736,
3D6DBD85,
BD3353C5,
BD24B920,
BB5EC854,
BD35A5A7,
BC41992F,
BAAD963F,
BCF63D8A,
BD4A7663,
3CC97836,
BD7F39BF,
BD7A8999,
BD0E475C,
BCAAAAB6,
3B977965,
3D3BFE91,
3D44AC7C,
3BEC5D32,
3BF2CF8B,
3C7CCD9B,
3D8174AC,
3D04D858,
BD2D685C,
BC8AB871,
3C00CABA,
BC920C1E,
BC81CA3B,
BCB3058E,
3D283F55,
BBD375BA,
BD96D25D,
BD85592C,
BBAF00C1,
3BBB3297,
3DE769FF,
3A18D8E1,
BD5C4599,
3D9B54D9,
BCBC62EA,
BD744715,
BD46E91F,
BD8CDBFE,
BC93BEA6,
BDB1F15F,
BD2272E5,
3C5E5EC6,
BD684B49,
3A5E5805,
BCAAAE93,
BCC638E6,
BD8E9013,
BD0479A5,
BBA3BD87,
BDDC2074,
BD31C81C,
3AA3A2B4,
BD0448BE,
3C1A0D75,
3CF6F7B1,
BC8E957E,
BD8E620B,
3BA6ABF8,
3C444F59,
BD40CA5F,
3D2CF7F0,
BBDA235C,
BC8BE975,
3C060813,
3CFF2C50,
3D2FC2E6,
BD48ECD4,
BD4740B4,
BBF99656,
BDC51ACF,
BC05D75F,
BCC17F80,
3D58159E,
3D73F332,
3BCA2742,
385CBC70,
3B861762,
BC9F1446,
BD6D1691,
BC06058F,
BCC6C8C1,
3CDF7A59,
BCC6AE78,
BDA57F41,
BC783CAE,
3D47AFB8,
BD2C9C10,
3C2D6AF5,
BD037CC4,
3D25E62E,
3DBBB094,
3D69E0F2,
BDE709F6,
3CDD03D8,
3D86CD84,
BC996B00,
BC8437F7,
BA99BF56,
BC5AB9FB,
3DC8A886,
3C560F17,
BD946802,
3DEB55B3,
BB7F641B,
BDB0D54F,
3D53174B,
BBFBF61B,
3C490220,
BD6BF06C,
3CCC0E2C,
3CFBFDB5,
BD9FB136,
BD9A680E,
3B1ABD9D,
BD971804,
BD08BA6B,
3D4DB27A,
3D3C9C40,
3CCC20B7,
3CB16DB9,
BCC4E810,
BD36F3E2,
BC02526F,
BD155ED5,
3CB29C21,
BCF425A3,
BD2F138E,
3C840076,
3AC3EE3C,
3CA1DF54,
3CDC18B7,
BC878F15,
3CE8431D,
BD4854F3,
BD1E6965,
3BEE4024,
3D80C8A6,
BD112A27,
BDB3BF88,
3D7F7FEA,
3D52AE35,
BDC28FA3,
3D73B166,
3D4335B0,
BCF184FF,
BC5D6BFB,
BCE73C68,
BB8CA725,
3C087468,
3CB6EE26,
3C43EB53,
BC496AC6,
3D1A52D0,
BC006462,
3CD7612F,
3D4A1186,
3D281785,
3C0854BD,
BD5A2302,
BC42AB3A,
3D47CAA0,
BB707569,
BD03C7B7,
BD9649C0,
3B60E17B,
3C91B547,
BCA76C74,
BD06E5E2,
3D13E31A,
BB7C1ECA,
BD80183C,
3DDFF2B6,
3D8579CF,
3CB9276B,
3C902908,
BD8B9751,
BD1CB6AB,
BCCAF3AF,
BDC0E770,
BD0A6F33,
3CC26299,
3D4DBFBA,
3D0CA05B,
BC48A85E,
3D24B922,
BD937ACD,
BDBF0884,
3C57C482,
3CA217EB,
BCA45BD8,
3CC8938D,
BC86BD97,
3D622A8C,
3D4ABCFD,
3CC21E6A,
3D4CE98E,
3DAFDE9F,
3D2900A6,
3D2A6EB1,
BBE39D67,
3CE80C9B,
3D5F6F2C,
3D01AB79,
BDB5703C,
BC4A6076,
BD109231,
BD1900A9,
3D71868D,
3C6BB1D2,
3C8F8441,
BCF811ED,
BD8FC9DE,
BB2E9F71,
3B69E8CE,
BDAD6BFB,
BD6D5793,
3C88B35F,
3D114E71,
BCEA0782,
BD40A7F4,
BA967CDF,
BBE2291A,
BDB4F236,
BD5C8245,
3C909431,
3C872F18,
BC9CF079,
BC86D87B,
BB597844,
BC8F852C,
BCF0D033,
BC6316E2,
3BA34132,
3B2F8AB4,
BD0827E2,
BD8BE40D,
3A8247D6,
BD4379E6,
BCD1947E,
3BD288DF,
BAA57BFB,
3B7BA10D,
3B90FD14,
3D65A8D9,
BBB94449,
BCD02266,
BD8727F6,
BD76A299,
BD4D2356,
BD9450BD,
BC1C6F8A,
BCD514DF,
BE20AADB,
BE0781BA,
BDDBF8A2,
BC20D38E,
3C99DDD6,
BDBE7D52,
BC99E6A2,
BD7D591E,
BD82D42B,
BB7F32F9,
3C7073AF,
3D0797A7,
BC67602D,
BA562C5D,
3CBB0DAA,
3E0B8DC4,
3DDF2B66,
3D5BA942,
BDC2AC29,
3C3BA9D1,
BC95028B,
BDADA8A4,
BDC914B2,
BDB106BC,
BD93722F,
BDAD7D97,
BD99BB5C,
BCD7DF51,
BD23FC9B,
BBB17FD5,
3D0F5A20,
3DD67B4A,
3DD594DF,
3D6DF459,
3D504528,
3D226167,
BCA99A20,
BD082BFB,
BDB32EA2,
BD53E6CA,
BDD0B4AB,
BB6C323A,
BC848A47,
BD2FC632,
3D531D08,
BBE2E1CD,
BC345948,
3D537DD6,
BA597397,
BD04EF06,
3D997B88,
3C9322A7,
BC2CE95A,
3D35E70D,
BC992EA9,
3D728C68,
3CD26BDA,
3C67E706,
3CCDFBFD,
BCC3E5BA,
3D91137B,
3D3AFEE1,
3D4D2D3C,
BD9BC55B,
BCA1AE40,
BD63858A,
BD33DA0B,
3C160E48,
BD81DFB8,
BB3550E3,
BB311509,
3CB82926,
BDA514F4,
BD1CE19A,
BDA2B7C3,
BD976F4A,
BD45F80B,
BCCB26AC,
BD68B821,
BD121BE9,
3C2A24B1,
3CE35AFE,
3BA2A91B,
BC82E0EA,
BD41E3E9,
392F47E1,
3CACCE95,
BD8BBF85,
BD5B752B,
BCD4C1F3,
3DC6E6DF,
BAB55E27,
3D98C3DA,
3D39D77C,
3D7A49F1,
3DCA8A83,
3D21CB49,
3C930307,
3D71D0CF,
BC11B1AB,
BD07D616,
3BC5A901,
BD901CC0,
BD8B8F0B,
BCAF18E2,
BA13ABB4,
3B9EC943,
BC8436E8,
BB60B14E,
3DB8B83F,
BCDCE2EC,
BD374351,
BBFDECBF,
3C4D7104,
BD3D7827,
BD8A2621,
BD5392C1,
3C06C81C,
3B5A91CA,
BD7D97AA,
3C621764,
BBB773E4,
BD70677C,
3AC36E3E,
BD3084D3,
BC71FF54,
3D0C82BA,
3CAD94BA,
3D94AACC,
BC3D0C57,
BB78EA10,
3D30002C,
BCEBE665,
3BCDA4F4,
3D4F13D9,
BB54453D,
BBD3D55F,
BDAAFC40,
BCB8EC5C,
3C455C4C,
BD498BF4,
BB989DFE,
BCB28A84,
BDAC6517,
3CD48460,
3D5D4D38,
3CA133A6,
3CC356B8,
BC19A605,
BCB7E132,
BC386D80,
BA5D7A7B,
BD2BCAE2,
3CB75CDB,
3BC36474,
3ACE7FB1,
BD1D2F8C,
BCF22985,
BC863067,
BC984064,
BDAE7A9B,
3B808292,
BD9BA800,
3CE1A7D7,
BC9BFE79,
3AD270DC,
3D2C4970,
BC83ED32,
3CA330D1,
39EFA5E9,
3AE723BD,
BD98269E,
BD9FC419,
BCFC72B3,
3CD4BA7A,
BB1512BD,
BCCCF759,
BC7C5020,
3AF1C2D5,
3D70AA73,
BD432699,
BD78E215,
BDABC65A,
3D95553E,
BBC66CE5,
BD186329,
BD6E5223,
BD668E59,
BDA0F66C,
BC574C0C,
BCECFE2F,
BC6A3C60,
BD0E604E,
BD8BC477,
BC9B9D2E,
3BCD6C2C,
BBD1B015,
3D9AB2C4,
BD040F12,
BC325752,
3D3F1E39,
3CD06628,
3B09CB90,
3D03525C,
3D10E961,
3C99D7E5,
BB5B7450,
BCFAD41E,
BD4CE3A9,
BD8EC9E8,
BBB33895,
BD1379A3,
BC6F3D4E,
BC985190,
BD2AAA4A,
3B4BAF65,
BDA72019,
BD8E242D,
BD9E220D,
3C9D2BCD,
BC10BEDE,
BD0ACCBA,
BC06E517,
BD8CF8C2,
BDF248E6,
3D5E844F,
3D38EC53,
3CDDE31B,
3D8CC0B4,
3D63BA9F,
3E04C96A,
BD6D4885,
BAAC6344,
3BF579F4,
3D603E52,
BC4C2304,
BDA25C2D,
3BDCBEE9,
3DB4A529,
BCD8C2A9,
BD154BB3,
BD8B7461,
BD5FF7B7,
3C362965,
BC9153A4,
3B8E39D8,
BD2C4539,
BC1A49C1,
BC57432C,
BBFF0EFC,
BCD9DF15,
BB8739E8,
BC3B5016,
BCEE1E66,
3DA7AED3,
3CBE6B58,
3D1BBC98,
3D9719CE,
3C099F4F,
BC81138D,
3D1EB327,
3DD209B3,
3D0C3D70,
3D0C7526,
3DF569CD,
3D88FBC4,
3C528E69,
3C1FDAF0,
3CEF5DC7,
3C9BA222,
BC682F53,
3C071DCE,
3D8D7DBA,
3D7B0DC3,
BC1D1886,
3D9BCEB8,
3D0BB2D3,
BC40CFB4,
BD432122,
3D611490,
3C6F0407,
3ABA16A2,
BD34BFB3,
BD500C4C,
BDA56AF6,
BC35354C,
BD628B70,
BBC52648,
BD9BA434,
BD66B9BE,
BD3053BB,
BDC6186B,
BD97C5AE,
BD62334F,
BCABC29D,
BCF19AF8,
BD38470B,
BBF30FA8,
BC6BCC7D,
3D661D70,
3C7324E7,
BBFA78F7,
BBC20DD6,
3CBFB90B,
3CB77FBE,
BCC2F446,
BD89226E,
BD3EA666,
BCEE0F2D,
BD7713B2,
3A90B1ED,
3C95BAA8,
3CA63CF2,
BACF82F4,
3C896E86,
3CAFB0D0,
3B3827E0,
3D8D1D07,
3D97CBE6,
3C78B271,
3CB783D9,
BC96FA14,
BC8EA39B,
BD01735C,
BB250311,
3C5AD978,
3CD424C9,
BC8BA89F,
BC0F9030,
3C6F9BC5,
38CD5C49,
3CAFCD94,
3D909C76,
3D30D9B2,
3C46F970,
BCA5ECA0,
3D82159A,
BD3E5F83,
BD03D28F,
3C4BC9A3,
BD3B7240,
3CD5BF85,
3D73D833,
3C7B5FD5,
3D7E8B6B,
3C7D6CED,
3BEF42EC,
3C41B6A0,
BB078186,
BCD00119,
3D47EC39,
3C993888,
BD4C7BB2,
BC297CB9,
3D398E5B,
3CDFE438,
BC2A694D,
3D73BE85,
BCA39D32,
3C96444C,
3CCB182F,
3C2DA72D,
BD08BAB6,
BC781FBF,
3D06188E,
3C9B2BC6,
BBCAB546,
BCDD4A15,
BCEECC8B,
BC9322B0,
BD808B4C,
BD724D4F,
BD8F5467,
BDDE069E,
BD48D4BB,
3C2959C5,
BAF3A0E9,
3A9F68C5,
3C705D87,
3D509C07,
3D1C5D43,
BC8C1DAC,
BD1E7095,
3CAFD9DC,
3CB6E8C5,
B9F07953,
3A84EF11,
3C2D4BB5,
BC99C7FC,
3D4CCCC3,
BD8F7CD7,
3CA1E8C6,
BBC44547,
3D2BDD50,
3CA9488C,
3CA5F858,
BD423B42,
BD84467E,
3C57AD28,
3C0D9A9C,
3C5B8207,
3DAB4D3E,
BC65C113,
BD04691C,
38EA4651,
3C6D185E,
3D508AEF,
BD60615E,
3D0564C1,
3CD01E0D,
BC66DFAA,
3B5967A1,
BC68E534,
3CC83F9B,
3C2FC6AC,
3D0587F5,
3AB1DD1E,
3D0A08E7,
BCC6CF4C,
3CF66BD8,
3BFE1057,
BD17D216,
3DA87C63,
BCC4CDD4,
BC963A40,
3D7D09BA,
BD569416,
BD87D2B4,
3CA97D1E,
3A252925,
3D290749,
3D6D4675,
3CBEB228,
3C7F3C10,
BD62FD57,
BC0BAE8E,
3D730750,
BD3E9400,
BB64C8A9,
BBD517CB,
BC8CA038,
3B33DE72,
3D8CA1B5,
BCE2BD7E,
BB0D51DB,
3CD78AF1,
BD2D854A,
3A57137A,
BD1077AE,
BC40F9EC,
BD16826D,
BC151396,
BDB0814D,
3CDFE9B9,
3D21775B,
BC7F965D,
BDA1791F,
BD8D1F7F,
BD5E9485,
BD6C4548,
BDDA61DB,
BE05E1B0,
BD91024F,
BDCFF2BD,
BDB20E2A,
BD45C4A5,
BD18186B,
BCE3F8F2,
BD123AC1,
3CC70BD6,
3C8D29DD,
BD4FD1F6,
3CBF4F11,
3C3345BB,
BD463215,
BD365F60,
BCCCCDDA,
3D8E20EC,
3DAA107E,
3DD171FD,
3D85E89F,
BCA13CBB,
3CF14831,
3D820C0C,
3CDFE069,
3D54A13E,
BB8290AE,
BD02A7BB,
BC2A9EC7,
BC8C2DA2,
3D13F853,
3C283D99,
BD18F408,
BC926A1E,
BD29056C,
3C143617,
BB2981CB,
BD21B077,
3C8C8340,
BBEFFFF3,
BDB2781E,
BD8445DC,
3BDF6DC0,
3C62EDF3,
3C6A1696,
3B2BE063,
3D5E66C2,
3DA8267E,
3D439287,
3BE2B482,
3D8009D9,
3C5D21DC,
3B7C0A7B,
3D729F98,
3D8A6384,
3D81385B,
3D59F07F,
3DB3547B,
3D77AF2A,
3DC2171D,
3D71F202,
3D296E34,
3D8F4E2E,
BB38A36D,
BDADB9B4,
BD316B6C,
3CAB745F,
BD32E5CD,
3C39F47A,
B95BC9EA,
BD11AC10,
3CD10DD5,
3C898C0C,
3C4DD62B,
3DB59A4A,
3D02120C,
3D8E4F35,
3D0875CB,
3D26CA18,
3BBAAC15,
BC4AF3CA,
BD092D0E,
BD174FF8,
BC8FB724,
BCC95015,
BCE039A1,
BDA9C8DE,
BCEAF48F,
BD0D0329,
3D791971,
3CB4D99D,
3D845FE9,
BB295FC0,
BD2B7C5E,
B98B7087,
3BDFD992,
3D12D063,
3BE841E4,
BD04E78F,
BC9D34A8,
BDA2A4B2,
3CB91E1F,
BD19D60C,
BD4C317F,
BCFA00E6,
BD3BFF33,
BC9F48EA,
B9A53438,
BD0BFEF1,
BD6BDF7F,
BCB31A4D,
BD85C52C,
BD0100EE,
3CAFBF46,
BD733C42,
3D0BFFEA,
BBA61451,
BD038634,
BB9E30AA,
3D2D7014,
3B2944B6,
BCF9601D,
3D355328,
3D5C4BE4,
B9BA4204,
BD292215,
BC6DDEEC,
3D5F14A3,
3D010312,
BCF80282,
3C1D0781,
3C832D1D,
BD3B536F,
BCEEC678,
3C8CD0B1,
BCD6434E,
3B0772EA,
BABA65B9,
3C8CCBA9,
BD157D6D,
BC08F553,
3D60993B,
BC1CC42D,
BD26BC52,
3C92329C,
3D9C4AF4,
BCE143C3,
BCAE2DA2,
3D530CCC,
BCBB545E,
3D00E641,
3CC211B1,
3D25C8A0,
BCF92A16,
3CFAE936,
BCE635EA,
BD7097E5,
3CDD3657,
BC79B6A2,
BD8464BD,
3CE6816B,
3D370FE3,
3CC76C82,
3C140AAF,
3CC1D2B3,
3D921CBE,
BBDF1E28,
BD0F65DD,
3CB3826D,
3D5BDDBB,
3DB200E0,
3D47AAE9,
3BD6C62B,
3D64A834,
3CB6A460,
3BAD97E0,
3D5A16F3,
BD3413EF,
BD66208B,
3D0BD125,
BCA1D2E6,
BD1B2033,
BC923CE6,
BD738415,
BD9F4C62,
BBA2C88F,
BCF59E19,
BD56F6F3,
3D823399,
BC970EDB,
3CB7FE15,
3CCCB4F5,
BCCB87FA,
BD3064B5,
BC93DDA3,
BD32F46A,
BDCCD2D9,
BB8E327E,
BD059082,
BD2CFA33,
BD868108,
BD7D3EF2,
3D52963C,
3B59CFE6,
BD789D6F,
3D6E0245,
BC43F4C8,
BD0D2F88,
BD457200,
3BD3C615,
3C536DF2,
BC3CDD09,
BC61DE87,
3CA97603,
3BAB8D3A,
BD1CCB22,
3CD7F077,
3C274992,
BDB52202,
3D8281EC,
3D2C077C,
BD89F78B,
3C34213C,
3D94D010,
BDCB0F7C,
BC348F06,
3D25728A,
3A9D2A11,
3C6F72C0,
3D8B5F04,
3D2C08F5,
BAA5EA0E,
3D966C6D,
3D4B51D5,
3D374B92,
BCAEF547,
BC2D6FBA,
3D5A50E6,
BBA78470,
3D8BF4DA,
3DB402E3,
3C6D8AD7,
3D96C51B,
3CDD435D,
BCF1AB34,
3D0651B9,
3D1EC6F6,
BC6D8522,
3BB3F603,
3CA0E572,
3D103F8A,
3A90642B,
3CD1B6B1,
3D04A595,
3ABEB907,
3CA7FAFE,
BC74AE98,
3C60A6A8,
BD10D8D2,
3B8B5905,
BCC66210,
BD3B473B,
3CB61D71,
BD445DA9,
BD09C7DD,
3BF8EEAC,
3CF8B068,
BBB95D48,
3CE5B149,
BDCFB919,
3C1CE2FE,
3C9D61CA,
BD650CC5,
BB140CD0,
3D88E603,
3C873108,
BD124022,
3D725205,
BC584E40,
BD50630E,
BC012D37,
BCBC71AD,
BD7F67D1,
BB6D80E7,
3D369BF2,
3B829BA1,
3CDEA2FF,
3CC1C007,
BD5602D6,
BD5C3131,
BB3F1960,
BD8269EC,
BD76352B,
3C23197F,
3C74BF80,
BD84A742,
3BA25F96,
3C258738,
3BDB3950,
3C9A2589,
3D20FFFC,
BCD8493F,
3C4CC3D8,
3D175F11,
BA965167,
BC1ACE9C,
3D7A8AC9,
BB8F4116,
3CC8A0ED,
3D895FF4,
3D171DCA,
3CBF736F,
3C912BA5,
3D798DF2,
3C3E5DA4,
3D91ACA7,
3CB25A85,
3D19F5F5,
3D687EAE,
BBA14FE4,
3D028265,
3D756EC9,
3B8B178F,
3CBB2E15,
BDA4F428,
BC4AF41F,
BCD18463,
BC9AFBFB,
BBFD3E19,
3CC31D37,
BDC8026C,
BCA399D6,
BC6AF531,
3D08C9D3,
3C89F849,
BD3DC539,
3D053914,
BCBE58BA,
BD72C337,
3C75A39E,
BC4906FA,
3CFCA209,
3C1C5707,
3AFD1550,
BC9AC869,
3B4CDDFD,
3D158B72,
BD678ADC,
BC85D116,
BCE1FEEC,
3D17BDA2,
3C198E37,
3CCBE2CF,
3C848B7F,
3C4F2C10,
BD4F8DE3,
3D36F0DD,
39BA2DA2,
BC837378,
3C0ECF3B,
3CCB7D11,
3C95A267,
BCA29C12,
3CAB7618,
3CDFA606,
3C47A0EF,
3B1A4FE7,
38237A6C,
BCF0D70D,
3CB8E04F,
BC747A19,
BD588D73,
BCA0A734,
BB469F51,
BD993C8D,
BD2B51C0,
BCE7BBF6,
3B33AFCD,
BCBA02E4,
BBAFB69B,
3D961DC0,
BC840E72,
BDA1CAAA,
3D3E9528,
3D2C8B69,
BDDFFF55,
BBF95254,
BCE1AC7E,
3D1FDCE7,
3B9312BA,
BC28330D,
3CD832D7,
3D12A023,
3CEAD641,
3D044BD7,
3B9C47C5,
BCA78295,
BCDCB124,
BCDD6D7E,
BC8F32F3,
3D0D748A,
3C893C00,
BD776525,
3CA8C3F9,
BB564365,
3C2DE94A,
3C6A9042,
3D3831D7,
3D7A797B,
BD6406F9,
BC933994,
39127A50,
3CB9AD7B,
3D5150F6,
3D56242C,
3C715252,
3B450352,
3BCBCFFB,
3D08FEAF,
3CDE5FAC,
BC8BC621,
3C16B6FE,
BD4D767F,
3C9231BA,
3A4C5FE9,
BD37F453,
BC09F0E0,
3D40CE4D,
3CBEE385,
3CB68D94,
3D46B7D9,
3B62E30B,
3CBD02AB,
3D65F4EF,
BD4C41AF,
3C486F25,
3D4F1364,
3C8D1CCC,
BC34C7BF,
379B12CB,
3D002E93,
BD32D579,
BC8F52B8,
3C49D284,
BCC4D12C,
BD74A2D4,
3D35E6A0,
BD27B5DF,
BD4D5707,
3C96A32D,
3D3BF193,
3CC012BD,
3A6FBC42,
3D14815B,
BC886941,
BCEF70AC,
3D69D546,
BB743884,
3C10D5F5,
BC324CC3,
BCD20210,
BCD01B4F,
BC53FC63,
BD350F02,
3D3A788F,
BBF4C7C6,
BC3D7D8C,
3D556094,
3D43B9B7,
3C11F272,
BC8A0230,
BCC3E7D3,
BCA2E343,
3D096610,
3C89D888,
BD19264C,
3CFDD48D,
BD8B635D,
BC28EFB6,
3CC983C7,
3C77A446,
BD2D9AB7,
B9AE7600,
BAA87F3B,
BB258F2A,
3CC00F78,
BD1093C0,
BD66A1FE,
BCE02666,
BDA4EB73,
BCA232EB,
3D759341,
BBA17893,
3BFBA9F1,
3C7FB9E7,
BB157AEC,
BBE4B496,
3C99AAD7,
B9E25430,
BCFA2CB0,
BD4D8002,
BB380B69,
BC16317E,
3CEA3449,
BB72E5B7,
BCA4EF44,
BA508C15,
BD445E7E,
BCBF3F9B,
3D3CD226,
3CE394D6,
BBDCC8F3,
3D357A45,
3B6EA4BA,
3CAAA5CD,
BC24B8BF,
BC14A19F,
BAA42478,
BC440011,
BD3BFD8A,
3C38D6A6,
3D83939F,
3D3474F6,
BD3A38F8,
BBB52403,
3D0952B4,
BD3BCF49,
BA2C2B7C,
BCCD3EC7,
BD8BEADF,
3C7A7AD2,
3D510E79,
BD0FBDCB,
BC6AF4F2,
3DB5E3D1,
BB75C34F,
BD675FAE,
3BABB331,
BCE1AF27,
3D6ED11E,
BD0054B4,
BD894592,
3D4BF646,
BC10D4F9,
BCA6C819,
3DEA8340,
BD4164AA,
BD21FD53,
3D3F9807,
BCF4E71B,
3C5338B0,
3C47FB5F,
BD986F0E,
BCF14616,
BD197B65,
BD8AB4D4,
BCB9F723,
3D7F00FD,
BD3A9523,
BDDE2ED1,
3D0640D0,
3D2D8D34,
BD9C6008,
3DE0BC9D,
3D981050,
BDB57261,
BD086C9C,
BD367625,
3CF6789B,
BE08AB61,
BD88A8AA,
BBAA8C8F,
BD86780D,
BD3FB007,
3D3B807A,
BCDFD899,
BC1DF154,
3C2CE740,
BC0F7044,
3C8B0CF6,
BDAD7E2E,
BCD74A48,
3C35CE59,
3BE2D0EC,
BD8E7680,
BD5CBD5C,
3D015CB5,
BD3B43C4,
BD7132D4,
3C8051CB,
3D0FEB04,
BD38585B,
BC92CCF4,
3BF833B7,
3AE01639,
3C9C10DE,
BC859E4B,
BC506ECC,
BBF70266,
3CED109A,
BD309711,
BDC0CACE,
BC89E2DF,
BB83A958,
3CDCA317,
3C208B9A,
BD034F76,
BDD008F2,
BA9017FF,
BD9ED1C9,
BD342B9A,
BD1A740D,
BD0FAB16,
BCD41FEF,
BCF46C3E,
3BDC73F9,
BD421640,
3CB598C6,
BD4E5258,
3C15B7D6,
3C9BAE79,
3D6E99F7,
3D561932,
3CA0C6D1,
3CA27D77,
3D96F700,
BCF737B4,
3C550A16,
3CF9579C,
3C8F0544,
BD1CA7A8,
BCEA3FE0,
BD8B8308,
BD4197EC,
BD37D7AA,
3C3658A4,
BDD11D12,
BD153F10,
3B14971C,
3B4D575A,
BD1FA3FD,
BC12E88A,
3B859BE9,
BCA3E918,
3C776AD4,
3D7E863B,
BD2852CF,
BD42C7BA,
3CD93E41,
3CE08AF7,
3CBEDE2C,
BD3331AF,
3D1F3D44,
3BC5E891,
BD2CC68A,
3CCB3171,
BCE63DA7,
3C858243,
BAD6FAAF,
3BDD4280,
BD044AAF,
3D70CDCF,
3C126004,
BC119CEB,
BD09B938,
3C8A06CD,
BC4AD989,
BD2A24D8,
BC40520D,
BC2057E8,
BD696AE0,
BD13A446,
BCE04322,
BD1642EC,
BDB2A559,
BC0F2453,
BCE65A0F,
BC62D6F9,
3D06BA3C,
3CE19AE9,
BCFD9F34,
3CE6E550,
3CB72348,
3DA09AEB,
3BB2CE42,
3CF8A8B2,
3DBCF607,
3D19FB29,
BB07BE25,
BC6D726F,
3C88E652,
3D0B0890,
3DA0015F,
3BA45641,
3C053ED3,
BCA55E4A,
BDBB3A5F,
BDE27359,
3C3E36BE,
BCACADA1,
BDBD9DF1,
3CAB6CC8,
BCB07B6B,
BCBE66A0,
3BA37EC4,
3CAD68C1,
3C911053,
3D7F1787,
3D6F6029,
3D45DF13,
BD1A707A,
3D2CEC79,
3D85FD60,
BBCE81CF,
3AB26F5C,
3D19E052,
3CCB7A5E,
BC718D66,
3CB277D5,
BC461571,
BD1A5800,
BDACAB79,
BCA929E5,
BD72E8CD,
BD728137,
BD0A5D5A,
3D0C895A,
3CB32483,
3C36C971,
BCF43D6A,
BCFBF9D3,
BBBC5D5C,
BD1C5A1E,
BD2A8945,
BD3BA6EB,
BC13D1E1,
3CA85E79,
3C851053,
BD52EE07,
3B676A18,
BCAD8E68,
BD80237B,
BD97F790,
BC84D9D4,
3C1D715D,
BD451C71,
BD818BA9,
BD14EDC0,
3CCE1122,
BD97A2A9,
BDB81389,
BBDE24E3,
BD2A55A3,
BD9E28C7,
BD54EF1E,
3CE9481E,
BD775C3F,
BC8BBE87,
BC8D7F67,
BC80780F,
BD2DC632,
BD32E49B,
39E6D201,
BBCF0103,
BD0D2B5D,
BCF423CB,
BCEB2E3A,
3C836EB0,
BC597356,
BD263EC5,
3C18E619,
3D4F2F63,
BCD2E505,
3C11886A,
BD5E0F66,
3C5525DB,
BB10D4A8,
BD488D19,
3CDE01CD,
BD38589B,
BE03C483,
3D0332D9,
3D5AEA84,
3D13E0D6,
3CBB18CA,
BC966811,
BCFF7F7F,
BCC2596A,
BD906E2F,
BA8F2E96,
3B7FD081,
3BA506E0,
BD134DDF,
3D8D37DB,
BD1BA67A,
BD5488BC,
3C20F56A,
3D42ECA7,
3C83A095,
3C8BD0C7,
3D80E6DC,
3C46B47C,
BD2F813E,
3D2D211B,
BD0D1581,
3DBB9F6E,
3D286C53,
BCCED6BD,
3B25D890,
3C6B7F2A,
BC3E4EBA,
BD1BA7E1,
3CFED173,
BC45565C,
BCDC4A49,
3D07B678,
3CA4BC19,
3D01E95A,
3D1D4499,
3C599975,
3D8BD2ED,
3D1B306D,
3CF0CCE0,
BD3A62C1,
BC0A04FC,
BC7668C5,
BC48AE8A,
BC83DB72,
BB99B180,
BBA974F2,
3BF783D3,
BD562E36,
3C8ACC00,
3B9A983E,
BD64DF54,
3BB7E583,
BCD2FF34,
BCC12F87,
BD985A45,
3C821581,
3D8F0D53,
3D1AA0CC,
BCA5CDB3,
3D159650,
3CBD762E,
BD208E7D,
BD800C70,
BAD02B4D,
BDA7A259,
BE3FB6DA,
BC44298A,
BD9C7CE2,
BDA55EC4,
3CA9A3E1,
3CD45C7C,
BD8B37EC,
BCA7BA1A,
BD77CE96,
BE22C185,
BD626734,
BD0BB12F,
BC813499,
3C9CCAA9,
3BCB38B0,
BC537293,
BCF7E8E8,
BBA072B0,
BD0D06D3,
BD42D09A,
BBD6D870,
BCD2A504,
BCFB8E18,
3CBC56D7,
3B0A8848,
BCA776A2,
3D263C0D,
3D7E1924,
BD0CA559,
3C812794,
3D1D0B73,
BC7B3920,
3D106055,
BB8F573B,
BCE098A7,
3D3E44B7,
3C302FD8,
B9BFA8EE,
3D35C210,
3D388420,
BC82EEC3,
3C5ED1E2,
BD08F185,
3BCAFE3C,
BDA0ACB6,
BD4B5FFB,
BCE72DD2,
BD8119B2,
BC809FDC,
BD026CC7,
BC9E011B,
3BC8B39C,
3A56055D,
3B90A48C,
3D9B1B04,
3C45032C,
B9F57380,
3D6484B9,
3C8364DE,
3C0922AD,
BB78383A,
BBDD5C72,
3CA6E596,
3D40671A,
BC9A2B15,
BC2E1BD6,
BD547EF6,
BD464A9E,
3B56CD0D,
BA862B76,
3D2A72DA,
3C8E77C2,
BCBA65B1,
3D283CDD,
3D833561,
BAFC5E49,
3D1DF35E,
BB1F1FBC,
BCB05935,
BD135465,
3CD134E5,
BC986023,
BBD4EE01,
3C8407B7,
BD9374F7,
3D14858C,
BC3D3B82,
BD665976,
3D0ACEA7,
BD47EF24,
BDCB5E62,
BD924ABD,
BC7275E2,
BD4C03D1,
BD8F8363,
BA310B0B,
BCF78659,
3D9BB23C,
3BF40EAE,
BD31A09A,
BB9AC7BB,
3CA325A2,
B91C0814,
BD5CB686,
3D3596CB,
BCDF7119,
BD40A891,
BC5C2534,
BC690A73,
BD54287B,
3C043B58,
3CA510BF,
BCD78CAB,
BD1FE100,
BD6BF4ED,
3D2B11D6,
BD0592FC,
BD6F4975,
BCB3FCE7,
BD6B566B,
BDCFCAEA,
BD9A7FE2,
BD365024,
BC49BC84,
3C8983B7,
BCBB3FD2,
BBF3379B,
3D567BAA,
BCFA08B7,
BD757D21,
3D7F0B4D,
3C5C44E6,
BD872AD2,
BBC1AC2B,
3CB91A3E,
3C0DB3BC,
BBF6F85F,
3D1C929F,
3C97210C,
BC9DEAF3,
3CD76F5E,
3D1B646D,
BD19BB3E,
BC51005C,
3CA85C05,
BC0D595E,
BD0F2796,
BC868081,
BD628B68,
BD01F9E4,
BD9B2929,
BD153E44,
BE0A2734,
BE162F3A,
BDC56650,
BD3BCCE3,
BB1DD3C9,
3CBAC7A3,
3BE2A5AA,
3D1E5A13,
BB8016E4,
BC8BB45F,
BC4348D7,
3B87BE2A,
3D20EC36,
3C2ED633,
3A1AD25D,
BC2EBC62,
3C1847E7,
3BB7AD22,
BC80007D,
BD883305,
BD0AB157,
BD0140BF,
BD17CB1F,
BD0EB460,
3C802ED1,
3D665576,
3CB1054E,
3C978BE7,
3D396908,
3D9AA11C,
BC50910D,
3DB74226,
3CFC6AFC,
3D3F13EF,
BC8F8422,
BADE10BD,
BC66B5FC,
BC4F7D22,
3C96A274,
BD5C33E1,
3B8E7BFC,
3CFBA8F9,
BC2BFF9A,
BB29A93C,
BDACDBB4,
BB743CFC,
BD55E9E7,
BD38A329,
BC955D18,
BCB774B9,
3C346784,
3C0E2994,
3D13F1D1,
3D4B7782,
BD1FBEE0,
BD4C403B,
BB67CB4A,
3C18A72C,
BD65FCEB,
3C0F92A6,
BCFFE9DD,
BD0A6F08,
BCF68916,
3AB6E631,
BB7C1A2A,
BCFEEAEC,
BCDB7C8A,
3C3CA9EC,
BCB98FBC,
BD70122D,
BCACF9BE,
3B43FC0C,
BD3823C2,
BD765B01,
BD426EE7,
BCB6195C,
BCCC2DA2,
BD3E71A9,
BC828075,
BD153722,
BCC67B36,
3C209E76,
3CC8D202,
BC3A9F23,
3CB21F21,
BCF5066B,
3D15AEB6,
3BF494DA,
BD0D51C5,
BB4F5058,
BDA21183,
BD5760FD,
3CBEFFDE,
BD92C770,
BCF5A6EE,
BB7CA482,
3AB1973C,
BAA6D6EA,
3C80C866,
3D07112F,
3D559CDC,
BC83592E,
BB7D6A50,
3D5BD535,
3B7AAAEC,
BA208A77,
3BF35199,
3A8A609E,
3D9B74A3,
3D08344E,
3CE5AE59,
3DC6BBDB,
3D5C9960,
BC566B26,
3C5438EB,
BC7AA03C,
3D3CFF39,
3CCF4DD9,
BCB6DA72,
3D789C35,
3C1862CF,
BD3EA05F,
BC670F47,
3CED833E,
BD8330EE,
3D81A41F,
BD193ABB,
BA2804F5,
3BEB4956,
BCFB928D,
BCAB0156,
BB8C962C,
3CB9B2C1,
BD1D96D8,
3D01FC01,
BB975603,
BD81D9BA,
3C16534C,
BC02A0A6,
BD9C0D7F,
BD29C444,
3AB830BD,
3D525E10,
3D82E62E,
BC8D41C0,
BD1ABCDB,
BCEC1052,
BD5011F4,
BD634666,
BD77FBDA,
3C7215CF,
BD5C0E9C,
3B34731A,
BC818CDC,
BD35E74C,
3CB0315B,
3CA122EF,
BC4F0440,
3D918A19,
3DB4DCB9,
3CEB48AB,
3CF9B28F,
3CED39CE,
3C8B35B2,
3CAA4790,
3CD02BFB,
BC7CE6C8,
3CCE8231,
3D19C309,
3AFC6715,
BD10E18D,
3C29E272,
BBD490AB,
BD29608F,
3CFD0874,
3BB5AC95,
BCFC3DDA,
3C1DB691,
BC847CE4,
3D1C3E52,
BD42A1B0,
BD951CA3,
BCEE43E3,
BD5A11A8,
BD112A32,
BCF3B127,
BD297862,
BD8424D8,
3C9E1283,
3C6951E4,
BD39027B,
BCB4F2A2,
3C3570BA,
BD057A00,
3C8A409D,
BD9C5405,
BDA9F603,
3C40B13B,
BD76CA39,
BCF41004,
BC67EADC,
3C8FB289,
3CFFBBE2,
3CA9C687,
BC58ADAF,
BCC9449D,
BAD6C92D,
3C1C2EFD,
BD33679D,
3C82913B,
BC96A118,
BD075B9C,
BD835699,
3D8D6B14,
BD59D1DA,
BD789CB8,
BBD897CC,
3B1C0316,
BCAB9E99,
BC4F694A,
3B093BAC,
3D824572,
3D04E678,
3D4680AE,
3B55AE1E,
3D026D51,
BCCDAC07,
BCC18DAF,
BD9F830F,
BDB647B0,
BDA71D6B,
3D3A25B5,
3C0C5FC1,
3CC1BCC7,
3CB882B8,
BDBFDB20,
3C9B91B9,
BBB2840A,
BDA2DC3B,
3C0ED4FB,
BAF6C64B,
BD0A200A,
BD9E1193,
BD5B554C,
BD610C6C,
BDFC5BCE,
BD58AE86,
39A9410A,
BC431DC3,
BC4278A1,
3CE13A98,
3CC51E55,
BD2E2E8C,
3B2D6F8F,
3C149A9C,
BC8AE045,
3CB6D8A5,
3B9AED10,
3D1D1C64,
3D88DF57,
3B5C0D58,
3BAB3134,
3D0C3132,
BC8CF0F9,
BB8A2D46,
3C956673,
BC7B12BD,
BC91D06B,
BC9E8DB7,
BA7FFA29,
BCB99449,
3D3A8F38,
BD0298B1,
3D5F7276,
B9F71B3E,
BC48577A,
3D47E6EA,
3D12F1B6,
3D5F360B,
BCF75DC3,
BD30E908,
3C120B04,
BCDA9991,
BCD0CA8A,
BC9AB67A,
3C4A8399,
3CD2D198,
3D131B95,
BD472306,
BC9A44E2,
3B1867A1,
BCE5B6F5,
BAADC66C,
3B2DB726,
3B1E1349,
BC8E053C,
3CB3531F,
BD919F70,
BCE45CE7,
BC9EE2A1,
BCBBD5BE,
BC2E01CA,
3C360416,
3D1C5C1B,
3AC0E160,
3D6172AF,
3CC7D047,
3BF56A02,
3D8944C5,
BC51563C,
3D0300B8,
3D4C4F90,
BC3821C7,
3C4EF199,
3CCC3E96,
3C021487,
3C84FEF2,
3C18029B,
3D2B655F,
BB25DCF0,
BD0A266D,
BC374471,
BC450946,
BA26F7F0,
3D167063,
39B67D48,
BC156266,
3CA43EFF,
3B18A74E,
BD51D558,
BD83AF2B,
BC6839C3,
BCA853C5,
BD99DC02,
BD413BB6,
3D09A6F6,
BCAC31BD,
BCC8CCC9,
3CB550F7,
BA40CFDB,
3CED03D0,
3D1C78CA,
BAB6385E,
BC85E1A4,
3CBE19D6,
BCFEA3B9,
BC20AA86,
3AC894DA,
3C8E7548,
BA3841EE,
BC7FC463,
3B643C28,
BC3FA1A8,
BCE7C5B3,
3BCA1509,
3D0861EE,
3CB9423E,
BD08A7A8,
BCA7D2FF,
BC13F844,
BA44E8C0,
BB09DF5A,
3D2E918C,
3D7CF315,
3C2AE359,
BCA3CFEC,
BBE09D1C,
BBF3FCF7,
3B806E51,
3D15295A,
BC35E735,
BD2EAEB5,
3C920A72,
3BD91FDF,
BC3F82BE,
3BA41E82,
3BECF150,
BBBCE832,
BCB037A0,
BD525092,
BD659C9C,
BCBE2831,
BC607854,
BD2DD76D,
BBC8E69F,
BBE2BECE,
BCC9C75A,
BC1E054D,
3C11302F,
BCE6EBF0,
BD3F8AFB,
BCE2751B,
BD263384,
BCD11A6F,
BD4CDE44,
3C4DCECA,
BBB94D4B,
3C1A5A79,
3D181D84,
3CEE04A4,
3CA9C5B0,
3D1D6FE7,
3BFD1CBD,
BC8EE64B,
BD57E4E5,
BD04EB39,
BD77B60E,
BD4C0C71,
BD012823,
BCAFAC60,
BD4C78BC,
3D6C66EA,
3D2F5536,
3B29A585,
3D5A219B,
3D0DFF89,
BCF8D2DE,
3D3BE299,
3D72A46E,
BC1229FE,
3CE69EF2,
BC8B0EBE,
3C48E89E,
BC9A2EF3,
3CE91178,
3D0220FB,
3C82B908,
3CA7A601,
BBBD1C90,
BD777A7B,
BD8943F9,
BD42CD8D,
BCCBB9CD,
BCAA77A7,
3D380D23,
3CAD95A8,
3B1B8C98,
3D203E6C,
3BA9137B,
3AE9CFCB,
3D0E0BCB,
BC6B20CD,
BC14BC22,
3BF7F00E,
BC87573A,
3C6F38A2,
3BF57708,
BCAD2D1C,
BD8C95FF,
BB91F388,
BD342D65,
BD21BF65,
3C8B2BA3,
BD814C08,
BCB11BDB,
3BD253FA,
3BDEBCD5,
3CCCE092,
3B07C77F,
3CCB501D,
BC25510E,
BD580675,
3CB12F20,
3A9BC654,
BC580CFE,
BC74EC85,
BCEC7CFA,
BCB09ACE,
BD7814D1,
BD377576,
BC2C2001,
3CA75ADD,
BCF07E77,
BC8A73D2,
3CB5A581,
3C4E061F,
3CA11463,
BD12DA00,
BC62C2A7,
BBB7DFF4,
BC0CB73D,
BCAFD4AB,
3C578ED3,
BC237232,
3B1D8B7F,
BC18A545,
BC86388F,
BD424640,
BCB39D10,
3C23A673,
3ABA5BB6,
BCCADAA8,
BCB4031A,
BB78406D,
3D114BAF,
BC375F47,
BD2DB927,
BC3EAE0E,
BBA30B49,
BC7F5C2C,
BC1CB216,
3C832017,
BD1252A5,
3A08653C,
BC85D89F,
BCA72D21,
BD48E50E,
BD0CACC3,
3C305557,
3C6F8454,
BBBF5BEE,
BBDF9071,
3C90A244,
3ABFEED4,
BC458D54,
BD6B433C,
3D732015,
3CD8F75E,
BD6AFECF,
3D178F86,
3C5255A3,
3D4F16FD,
3C2CC521,
BC132457,
BC59D607,
BCADBCA8,
BD2ADEBF,
BCB961E3,
BD6D1A20,
BD85D953,
BD301564,
BD14E8F7,
BDA372E5,
BC95F0A8,
BD1FDAA6,
BDDE8383,
39A1925F,
BCE3ED76,
BD80DED9,
3B9297EF,
BD2A38C4,
BCC8E4F3,
3CBB9869,
3CCDBA9A,
39ED732A,
3C3273FE,
BC9D14E3,
BC3AAC6C,
BCACFF30,
3CE3927F,
BBF23963,
BCB753A9,
3C315224,
3BDE715A,
BCC58BF0,
BD23F954,
BD02CE9E,
BCC1F800,
BD42F4FE,
BC9B3A11,
BCA0F72D,
3C769B75,
BBA7CA41,
BD912C50,
3D70787F,
3B27194F,
BCBF92FF,
3CD90110,
BBBAD43C,
BAFEBA49,
BC72464C,
BA3CBE65,
BC173532,
3CBA2EAC,
3D2D4226,
3A9161BA,
BADC7493,
3B68ECD6,
BC82C818,
BC71981E,
3C4687CC,
BD044B19,
3D9AC6CD,
3BBA78BA,
BC2B65E5,
BCA7EB74,
BD235358,
BD3A80ED,
3C3ADB9C,
BCB9DAFA,
BC9315B8,
BD07BEE6,
BCBDE932,
3D3050B2,
BDA23126,
BD4E682A,
3C261E88,
BD9A2577,
BD65504D,
BCE6BA67,
3C1AD7FC,
3B2D14B8,
BD25DC8F,
3C844209,
BA32A6CF,
BCAF41D4,
3C86E07C,
3D614E83,
3CE0BA8E,
BCD215C5,
BC3D9B86,
3D1FADBB,
BD10F70D,
BB2BC7A2,
3CEC1103,
BD276498,
3C25C631,
3D532A03,
BBC8A0E1,
BCDAE3E7,
3C531D16,
BC3A48FF,
BD1C53EE,
3D39EEE8,
3C8FA9A5,
3D116570,
3D3D8227,
BC960ADD,
3D25CCF6,
BD266EA6,
BD1440B7,
BCC54AF3,
BD0B4A4B,
BB99C11C,
3D184D33,
3CCF6A58,
3D7DB414,
3CA35667,
3CEC03B4,
BAA4639F,
BCE91054,
3C1BE482,
BD49529F,
38B1D64C,
3D0EEEB5,
BDBA6C55,
BCB61CFB,
BC4B55FE,
3C50D83E,
3C889DF8,
3CF85C4F,
3D1E6673,
3C72C206,
3D2B1BC7,
BD72A88F,
BB8183A9,
3C9E4B09,
BD1D3A0F,
3B1B2648,
3D5B1BA9,
3D31FCD0,
3CB57289,
3D23CC43,
3C0AF0CD,
BD5FA07E,
BC54C42A,
3C33963D,
BC24BAB3,
3BBD4FE1,
BD057ACD,
3C6FA40B,
BD4562CB,
3AB108B2,
3CA0EAD3,
BC8DBE43,
BAB8C21E,
3B5D7489,
BB411ADB,
BC8A5609,
3D0A9FEE,
3D026E59,
3D0DB515,
3CD4E1BF,
3D54B0B3,
BBAA209E,
3C8E2446,
3CB23B90,
3CA9BFDF,
3CBEA8B1,
3D4BE7CA,
3A49B744,
3CC13C92,
3D2906F0,
BCDF374F,
BC75AE87,
3D5AACF4,
BC2FD74E,
BD1A6583,
3C840F19,
BB4DE047,
B97ACEB1,
3C55256C,
3BA3F980,
BB7E2F86,
BB231EBF,
39D8E3C3,
BC8BFB1B,
BC10C048,
BCA12BE0,
BD3C01DA,
3C940981,
BACF9E8B,
BD8FC001,
3C319C1B,
BD1B9D45,
BCCF7A4E,
3D0BBC1F,
3C92D3D1,
3D581943,
BC33A82E,
3CA2124E,
393F871D,
BD9BC4F4,
3D1F94EA,
3C95FCA2,
BC35DEB1,
BAC617A7,
BCD4A9F3,
BC412E7E,
BCC64DA5,
BD027B9D,
3CC481CE,
3B5CE1F3,
BBBB60B6,
3C864DAE,
BC3077DC,
BD349650,
BC1A1B57,
BD903A2E,
BCDFD689,
3ACCD445,
BD05B5E8,
BCA0D853,
3D543BD5,
BC2D210B,
3C960B46,
3BE3E843,
BD65DD3C,
BD70C1D3,
3BCB63D5,
BD52748B,
BD7C2496,
BD29BA61,
BC861EB5,
BC90FDCD,
3CE0B0A8,
BD2D15CD,
BCE5998F,
3D1AEC6E,
BD93E099,
3CB6FA35,
3D72CC0B,
BBC76DA4,
BD1704E3,
3CB9CD12,
3996A9CB,
BC7D5BBE,
3C750666,
BC7EAB1E,
BC826281,
BC78BA2B,
BCCE3485,
BC1EAE40,
BC566055,
BBDD1BFD,
391174EE,
BC6D3393,
BC1A8B1F,
BD3371A2,
BC855E5D,
BD3905E0,
BD07F84C,
BD3B7CA5,
BCABA19D,
BD297CB1,
BC6202C1,
B9FD9322,
BC5C9493,
BD171B05,
3CF99DAA,
3CCA6D29,
3C9F1A18,
3CF5FBA0,
3B43C87B,
BC8A3AAC,
3C8D1FF7,
BB77587E,
BC9B37B2,
3C836D4D,
BA480B11,
3CE449E4,
3B375104,
3BEE8B92,
3B2A5DB1,
3B8CBAE6,
3CA8679C,
3B882E46,
3CAF89A2,
BCB49916,
3C89EE33,
BD16EB40,
BCB60ACF,
3CF4E564,
BD7E6335,
BD8357A7,
BC85A7D4,
BD2D426B,
BD01C71B,
BCE5FA7F,
3C266EDE,
3D07B42D,
3D0E989F,
BCB1B292,
3D0A6325,
3CCCD2A1,
3D450387,
3C5568D1,
3B14FEA8,
3CB6B2DB,
3BF0BD8E,
BC7DAFA2,
3CD8674F,
3C56D65A,
BD077616,
BCAB23D6,
BD2FCB26,
3CC6932B,
3C76A977,
3BD79CD6,
BC67AAEA,
3DA5E70D,
3C5B55E7,
BCE18951,
3BEC6BC4,
BC9AD5A1,
BCC9D723,
3C85E55B,
3CD48D50,
3DB2F881,
BC6E81AE,
BD84AB92,
BD4A284B,
3CAD1239,
3D132AD3,
3D173E0A,
3D81CE0E,
BCD4EB38,
BC2BA736,
3D8EAE7A,
3AD5D487,
3C0A6977,
BC3C44DD,
BDB1EE15,
3D1FD8F0,
BD7A10F5,
BDCA472C,
3C705A5A,
3D244D3A,
BD15D3B4,
BCC9AC9B,
BCE778DE,
BCC5A403,
BD202776,
B9CF179D,
39F0B04B,
3C45CC5D,
3D8A525B,
3D56B768,
BC00F6B7,
BD80F4A0,
BB73D5B0,
BD4F41C8,
3D073491,
BC52E09E,
3D05D8CB,
3D93792A,
3C7AA0BB,
BBCB945B,
BC9619AF,
3D3091F0,
3CA716E2,
BD68FCE9,
BC138B32,
BC6CB278,
3CDC2F69,
3A7344F8,
3D0C7E98,
3D80A193,
3CA06D7D,
3CB5233F,
3C635D87,
BC51E21D,
3CC9A8E7,
3D1F5B01,
BD1D8470,
3D1AC12B,
3CDC1914,
3D2B9817,
3C9BAB10,
3CCB6AC5,
BCDE248D,
3D1E20A0,
3BDE8EB2,
3BB8D8B3,
3CBEE774,
3D398A4D,
3D99E88C,
3D420A6C,
BDA41431,
BD8CA0FF,
BC0911F3,
BCC97BDB,
BBC2CC9A,
BC619DD3,
3BD146AB,
BCF34C69,
BB0D65D0,
BC407939,
BCA18243,
3CA3F726,
3D11C36F,
3B6C0C03,
3D353448,
3C805156,
BC57F3E0,
BC5FF70D,
BD0C5529,
3C266D5E,
BBB36E7D,
3C502B82,
3CD432BD,
3B7DA350,
3D4C1AAA,
3C9BFF20,
BD3D7418,
BCCB7AAF,
BCCE2F31,
3C362B6D,
BC9217B3,
BD3E4E43,
BB3041BF,
3D9ABD34,
BCA06F5E,
BC95E3C0,
BC19738B,
3C8DE0B1,
3CD9E4E4,
BC38A8F7,
BD0B7B78,
BD5C4AE5,
3D88B299,
BC82E792,
3E0A9C2A,
BC8F1AD6,
BD7FCCB1,
3CA22356,
BDDC4D75,
BD93ADEB,
BB623296,
BCFF4BEA,
BC739D18,
BD7154E0,
BD036860,
3BF1890F,
3CBE0625,
3BA94B61,
BD0973F0,
3D161987,
3D395866,
BDD147D2,
BDB12C56,
BD8A18EB,
BD8A4730,
3CAEA991,
BD89C29A,
BC3A7A96,
3D12EEBF,
3D2CFD69,
3CB78C28,
3BA0E10C,
BD04813F,
BC87BEFC,
BD4FAF16,
BC2654CA,
3C300041,
3D5A31FC,
BDB0212F,
BDC50D51,
BC9B82DC,
BC02CAB4,
BCD18ACA,
3C862D06,
3CF664EB,
BCC2ABB4,
BC639A7E,
3D871739,
3DA895CD,
3D6E30E5,
3DB64AE4,
3CEE42FE,
3D447084,
3C0F8CB3,
3D686DC5,
BD4E8309,
BCF44883,
BD148893,
3A81F468,
BD2A1D75,
BD6AA36F,
BB0FF692,
3D3B08D2,
BC5EFA2A,
3C797684,
3D9CF8EC,
BC85DC6B,
3D2CACE3,
3D4ECCE1,
3B8FEAE3,
3D581FE0,
BC03FFB7,
BC272AE2,
BCC1D30D,
BCA537AF,
BD580366,
BD03C28E,
3D47B5B9,
3C209581,
3CBB0E31,
3C4A21AF,
3D7B3EFA,
3D199486,
BCE37FD3,
3C02171D,
BCAD6717,
3C993D97,
BBFB162D,
BC5ADF7A,
3D7CA61A,
3D1B2712,
3B7C4686,
3CC91880,
BCDA6925,
BD20A6E6,
BDB063D1,
BDAF90B0,
BDA1204F,
BCD57273,
BD8A1C6C,
BDB52271,
BCE6FCAA,
BD64094C,
BD51FE2A,
BCA5A301,
BD8F7A95,
BD86BC9E,
B9B17302,
BC01162E,
3D69D657,
3D075F56,
3CA2B33F,
3D383CE5,
BCEFFE27,
BD29DEC3,
BD57080D,
BC724388,
3D88DB72,
BD31B953,
3CB926A6,
B8FF9A30,
3C843C48,
BB92489C,
3BECBA66,
3C2ADD74,
3DA72855,
3CC15D9A,
3D02DE49,
3BFAFCE6,
BDA661EA,
BCC1779F,
3C2C2FB9,
3C35722B,
3D465484,
BCE928F1,
BC3E2D12,
3DB79680,
BD0BA51C,
BC0DAA13,
3CA4BE49,
BD5E9F38,
BD31E0E9,
BD5F5347,
BCC5499C,
BD41980E,
3C1A96A3,
3D20CC7A,
BC78EA4E,
3D7D3A63,
BC9F944F,
BC1CE39E,
3D5A0084,
BD8062CD,
BDA37649,
BD645222,
BCD9A3F8,
3D179BAB,
3C7F6EEA,
BD0A64CB,
BAB729CA,
BCF82D1F,
BD89A835,
BCA595F3,
BD4F07F9,
BD58AFC7,
BD00A633,
BDC85D38,
BC34143D,
3CF4A875,
BCB9E93F,
3D1F01CB,
BC6EE0CE,
3DCF4398,
3D117203,
BDA6FD9B,
BD680870,
BD9BDDEA,
BCAF0697,
BD2D6990,
BD33F62F,
3D300A0C,
3CB8A722,
BC018B46,
BC350B08,
3D50A5EA,
3C8BD769,
3C3C96A9,
3D771BDC,
3C482AC3,
BC47E1FE,
3D069D59,
3C95E2D4,
3D6CA584,
3C99BC9A,
BD3BAE5D,
3B1D55A3,
BCDFF926,
3C97DF67,
BC46E34A,
BD041322,
BC84052A,
BD97B6ED,
BD8C5ADA,
BD2E93FD,
BD2B9354,
3C29423A,
BD3C90A7,
BDDBA26D,
BD02C282,
3CA8BAFC,
BC8AF496,
BC463052,
BD01459D,
BD7C1400,
BC9F59CC,
BD1FD685,
BD9BBD27,
BC0D2E8B,
3D2CF195,
3A3B2ADB,
3D613CC3,
3D1EB33D,
3D7BD40C,
3D880C20,
3CB48868,
BCBC8D40,
3C7A2E5A,
3D1E5ABF,
BD2FEEFD,
3C10F738,
3C87D129,
BD800CD2,
BCBB333A,
BBB91A5D,
BD0B3448,
BD4C3B5B,
BCDCC746,
3B01A366,
3C514256,
BC9273F7,
3B94BC2A,
BD6B54F3,
3CFC6210,
3CE8DDED,
3CC27CF9,
3DB600EF,
BDAAC660,
BD1E5D78,
3D2B5F0B,
BD865ADE,
3CB10C0B,
BD123662,
BDB00A89,
3D04242E,
BDDB0C53,
BDAC1E93,
BCABCD94,
BBA6B928,
BCF3EB28,
BC4BF72F,
3C5B4C84,
BCF50BD4,
3B1B9491,
BD06D033,
BC547A85,
BD8B5265,
BC8098E0,
BAAD15A9,
BDD28925,
3D3448FB,
3D140444,
3CD35E2C,
BDC8E113,
BD25B656,
BDAE8EDC,
BCD2D3A6,
3CE15AA5,
BADB9377,
BD3F91F1,
BCEB16D8,
3BC31BCF,
3D37859A,
3D1F514C,
3CFD4CD0,
BC86FCBB,
BCA6D0D4,
BD6C7F95,
BBC3F069,
3CF17F55,
BB2D2EB0,
3DE155DC,
3DA543DB,
3D9CD8BF,
3DBD8233,
3D3F888B,
3D8417CA,
3D0944BD,
3B8CB2C4,
BC88B592,
BC0BC93D,
BBBB4D77,
3DD84DBB,
3D87DD9C,
3BAAFD82,
3D415E9B,
3CD555B1,
BC9B61DA,
3C15A250,
3D274C0C,
BCE238F7,
BCAC3D89,
BD04B297,
BD9332B3,
BE0924B8,
3CFEB9A2,
BC817D72,
BBA0FC2D,
BD97656F,
BD962AF1,
BC272DFE,
BD724274,
BDBD988D,
BD2EDEAE,
3CEB7AC5,
BC8CB713,
3B44D595,
3D9F8A55,
3C29B118,
BBE3A745,
3C365F72,
BDAEE477,
BD068DDE,
3CA2B8F2,
BD80FCB4,
BD8BDC12,
3BE96EAF,
BAABA776,
3CAB14ED,
BB45058A,
3D314C78,
3D6D025E,
3D200604,
BC99B2AB,
3D1D1A59,
BCD349F0,
BD985F1C,
BD3E6C1D,
3C9D9AA6,
3C1CA5A3,
BD11275D,
BD1803C3,
3B139CDF,
3CAE638D,
3D2CE11E,
3CEBE071,
3D56F545,
3D4DD1C3,
3D8EDEDD,
3C4BE9E3,
BCC12059,
BD0D6D36,
BD1B262D,
BC8FDFF1,
3C66F6E3,
3D2568F4,
BC77EF6F,
BC996727,
BC470E38,
BBBB505B,
3CF3E66C,
BCE957F8,
BC955932,
BCEAC734,
BD1508B4,
BC1B8E1F,
3B1BFD65,
3CFCCD82,
3C6BAEF5,
3B427153,
BDAB2CCD,
3E0E454E,
3DA527EA,
3D96B321,
BD57E620,
BD5EBA6B,
BDAD0154,
BD734632,
BDBC43E2,
BD80221B,
3A77D350,
3D8BA7CD,
3BDAB3E6,
BD7594AE,
BD9F2B28,
3CB73974,
BD9598F5,
BD5A06CA,
BDA9BEA7,
3C6294CB,
3CF1157B,
BC421458,
BDAFBB41,
BCE00943,
BDE2A0E8,
3D2AED28,
3DC408B4,
3DA45E90,
3D81FDF2,
3CE5C490,
3D5EC476,
3D1A83EE,
3C124927,
BC2E7768,
BD123BBC,
BD836A03,
BC90CB8D,
3C82B8C4,
BD0FD446,
BC23170B,
BBE67FDF,
3C102A5B,
BD0916BA,
BD4840DC,
3C9E9C58,
BD1C38CD,
BBF72EA9,
BBC259FA,
3CAA9F4B,
BD165325,
BD2CBC16,
BDA80CDA,
BD26DF72,
BDB37DB4,
BDA51BCF,
BD145F55,
3B985B0F,
BD0B06C3,
BCACA866,
3D32D03C,
BC9D3A48,
BA0551BF,
BC99819F,
BCD1016E,
BC79C7F2,
BD8ED4BC,
BB95A0C3,
BC83C85A,
BD302077,
BC9E1B8F,
BD788E9A,
BD5D8521,
BD19CFF5,
3D8769C2,
3D637238,
3BF58E87,
3D154592,
3D959662,
3D34767F,
3D0DB409,
3C0B468F,
3DC34C9D,
3D7C4A7D,
3CD647FF,
BB6AF995,
BD8D0005,
BCF31FA3,
BCFFD55E,
BCA9EB21,
BDB1CBE8,
3D1E106D,
3C6C8BEE,
BB8123A7,
3CC3836A,
BC9D7D75,
BCE33DB0,
3D8F482E,
3D0EB0BA,
3B8C30CD,
3C9F3E8F,
3D4E1416,
BC85840F,
BCC3AB6E,
BD2ABE88,
BCA6B7B9,
BD02BCDC,
BCD4485F,
3C0DB333,
3BCFB11B,
BBC2D993,
BBE6E381,
3C9CF8C0,
BC1A2C4B,
BD90F993,
BC62AC83,
3C33C94F,
BCD5FEF6,
BBB31B5B,
3B54111E,
3B91FF00,
BD060DE7,
BC20F9BD,
3CDDF95B,
3D8A325B,
BB55CCC0,
3D2BA152,
3CD6CA47,
BD323148,
BC7DBA3E,
3CC785A0,
3BB2EEA6,
BC5D5F98,
3D436CB1,
BA9D9E7A,
3D006BA4,
3D2C0A29,
3C3C4EC9,
3C37723A,
3D92CA8B,
BD10B251,
BCC72507,
BC6D9A21,
BDA329BC,
3CAD5256,
3BCF6937,
BBF4647F,
3C6E8019,
BD3EA6E5,
BD51149B,
BC2CACFF,
BB25A20F,
BD4005F5,
BC8A9064,
3B34B0A4,
BAA12C2C,
3C011869,
BC8C924C,
BCFC6E3C,
BDB58B52,
BDEA286F,
3ACC2F11,
BC63D7B2,
3D186577,
3C14559B,
BD41BA68,
3CFC2546,
BC00D5F7,
BC3CEEBA,
3D360630,
3C59D8C2,
3D4E474D,
3D33019C,
BD51B999,
BC2E5044,
3D34D1E7,
BD057616,
3D34ED98,
3D4B8733,
3B4C03EB,
BC922991,
3CAB387B,
BD01D497,
BCC00275,
BCC7BF1A,
BBF96210,
BD3B1402,
BD1BA037,
3C2C79D5,
BAD49EC5,
BB9E360C,
3D7321D7,
BC66B624,
BBCC7D76,
BC21E511,
BBEEC53F,
3D00B80A,
3D277915,
3D121928,
3D6A434D,
3B773C75,
BC9E4D1A,
3B6A0B0C,
BCF737D4,
BC508FFB,
BB53266C,
3CD6A4AE,
BC78C30F,
BC0D257E,
BD0B81BC,
3CCAB8BA,
3DBD9F04,
3BE5F35D,
3BDC0713,
3DD45BE6,
BCD406DA,
BCDA3BBB,
BCF30BFD,
BD8BD9FB,
BD19D54D,
BCC130BC,
BD0582E1,
BCB67D60,
3CBCDC76,
3CA238FF,
BBFC0476,
3BBF80F0,
3C3E89F9,
BB57B9D4,
BDB7C451,
3D3179E5,
3DB73DFC,
BB1B2808,
3D96A219,
3D857C29,
3BF7AF35,
BC8D96A3,
BC97772F,
3DB6CB09,
BDEBCEB6,
BD8FF591,
BB0BB489,
BDCB5378,
BD62BF60,
BD0ED69B,
BC9E0273,
BDB2BCD5,
BBB15269,
BDC4B387,
BCDA0398,
BC7A8BA4,
BD0D4A1C,
3C0B5019,
BD680716,
3D925D20,
3CF26DF9,
3D285732,
BD0ED97B,
BCF649CF,
3B134A00,
BCDCAACF,
BCA826C0,
BD3C1DBB,
3DE9387F,
BD437C78,
BCCB8DA5,
BCA590D3,
BD4C77BA,
BC4FD3FE,
BD444D9B,
BD86A9A5,
BDB622F1,
3C75B559,
BC755F68,
BCE07076,
BC711934,
3D1C4243,
3D218B3D,
BB1E2DF6,
BCF4DB1E,
3D168B6B,
BCA1AD30,
3CC57A15,
3CCA0882,
3CCC32A1,
BCB6884D,
3BE3650F,
BBE0E047,
BAE7F1D6,
BC1F5731,
BD0E0F6F,
3C855A25,
BD100ED1,
BD1BF5D0,
3C17DE11,
BCCFFCD0,
BCCD02E7,
3C71060A,
3C8B5FD2,
BCADED77,
3D223F58,
BCEDE068,
BC484825,
3CEE828F,
3D52BC60,
3D43415F,
3BC44D44,
3D5E8EC9,
BC2221EB,
BC618AD9,
3C41F410,
3C98C95C,
BB673C10,
BBD6441E,
BCCD511C,
3D21F405,
3B2BAF4C,
BD487390,
BCE628A1,
3AEA4436,
BC7A20E5,
3C46A866,
BCADE954,
BD85C3AC,
BD81FD9D,
3D2383E2,
BCB2A2EE,
BDBBBC3E,
3D2421DD,
BD167EE4,
BD4D423B,
BC2DB55C,
BD044BE3,
BD92D11C,
BD20FCBE,
BC9E935D,
3C94DB83,
3D26D4EA,
BCD43975,
BC0A475A,
BCB7000F,
3D553531,
3D1B4382,
3BAAFE89,
BD260C83,
BDF1DA61,
BD44FABC,
BD1F7254,
BDBD4F26,
BC9FDE40,
BC8F6991,
BB4995BA,
BAEF650E,
BD6C7C56,
BDA7437F,
3C488EB0,
BD293EC7,
BDBD5EEB,
BC653B8B,
BDAA0F56,
BD1A0890,
BCE554C8,
BC9529B0,
3D26809A,
3D211684,
BD9CCA4A,
BD9DB4E3,
BCEF69EF,
3D4A66EA,
3C9760A0,
3D340AE7,
3C70E3BB,
BC289922,
BD42AC0C,
3CC12EF1,
3D48F6F3,
3D2D3361,
3D6A01D4,
3D65C8F4,
3CB92BAA,
3D99EB09,
3DA140D7,
BC4DF594,
3DA28FA4,
3CF327E0,
BD3A1BC9,
3CD39ED5,
BC25F95C,
BC9B2502,
BD0E3927,
BD21EC1A,
BD41BDDB,
BD354186,
BD905A50,
BD7FEAD4,
3C0C9313,
BCA0010C,
BBC2357F,
3C72775A,
BB8C29AC,
BC84737C,
3D491B03,
BC9B598A,
BD228152,
3B99D7B6,
BC7AD569,
BBAD43FF,
BD849C6C,
BDE8C745,
BCE80C70,
BDA18310,
BDACA5C3,
3C83C52C,
BD4D572E,
BCFF48B4,
3B9D9974,
3CA62A41,
3CBE2FA7,
3D2F6A9B,
BC3FFC5A,
3D3F6044,
3D245508,
3BA52C68,
3D3695B1,
BD168774,
3D7AE3FA,
BD5045CB,
3D3EDA0D,
BD6EAE50,
BC8FACDE,
BD35C8FD,
BD71CF75,
BD7C944B,
3C198A26,
3D0EA6D3,
BD8DD3BD,
BD2AA17C,
BD0ED245,
BD21DE3E,
BA2B0133,
BD3FFB65,
3C896B57,
3D81FFB3,
3D19556C,
3CAF0B21,
BD27FB5F,
BD7E0F54,
BDAD5158,
BD82E6A8,
3D1BD0F9,
BC83523F,
BC916148,
3C4C3998,
3D671CB1,
BCE0CAC1,
BCB94B30,
3D3BB59C,
BCD0BCB6,
BD07C476,
BCD2F0C6,
3C39AEAF,
3CDF3610,
BD8A62F2,
BD39EC0F,
BD877914,
BDCD95D2,
BD45EEB5,
3C4EF080,
3BE48FA5,
3C35F5BE,
3C410159,
BC957121,
BCA903CC,
3D1AC4AA,
BC954B56,
3BB1FB0D,
3C94B006,
BBD2545D,
BD5D261F,
BD6EEECF,
BD6BEB03,
BBCE865C,
BD5CD44D,
BC9959D1,
3D310692,
BBD558EE,
3BF816D4,
BC7EABBC,
3D918CF3,
3D3456CC,
3DA6C745,
3CFB0A28,
3D73D191,
BCF56FBA,
BCD6060F,
3A6BC4E3,
BCFA49FD,
BC4A4026,
BC0BA12C,
3D452750,
3D7ED849,
BC95D918,
3D1DBD69,
3D2A458E,
3C9DC39F,
BC6F44A6,
3BF4EFE7,
BCFC3917,
3D1B1472,
BC53F2BA,
BBEAE855,
3D1E67B4,
3CA4C967,
3DC9D831,
3D2D9A09,
3CB1DD84,
BCE21C96,
3CD9D7D6,
3C8496D3,
3B88B6CC,
BC9EB26A,
BD0BB035,
BD263A78,
3C5D0B32,
3CA7BD7D,
3D7A08B1,
BC290C9A,
BC987396,
BD8DADC9,
BD2C4778,
BD148FBA,
BD3E012D,
BD856523,
BBFF1A21,
BCC840E3,
3B40EE2A,
BD99216C,
BDCF2383,
BD785C14,
BD5B1981,
BC5A8C2D,
3BA4DA04,
BBA3B4B0,
BC0DAA06,
BB65EC45,
BDC45E18,
BCE364F1,
3D9AB7A3,
BD750F94,
BC5B967E,
3D693506,
3DCF2855,
3CDD2B07,
BD837426,
BCE825EB,
3A2BFB65,
BD478A55,
3CE418ED,
BB4099C3,
BC52E042,
3D0ED21B,
BD0DCE23,
BD2CC334,
BD5E53F3,
BCD8AECD,
BD277759,
3CAB7631,
BD04908C,
BAF62C48,
BBCF1A6F,
3BA5FD18,
3D2E0A53,
BD3DA414,
BBF7FE44,
BC3F2015,
BD9FF069,
BD0895D2,
BC1C2E53,
BD0B7D4D,
3CD47A15,
3D8A7BC8,
BDABB4FE,
BCF3C4C2,
B9086D65,
BD8EB723,
3D4C9073,
3C6BC912,
3B9219D4,
BD01F176,
3C41B2A3,
BBA73695,
BD72E4DD,
BD5C9027,
3D0CF1E8,
BA85A014,
3C706005,
BC2979E4,
BD1DA231,
BD09913C,
BDC779CD,
BD3FD258,
3C83F460,
3C4D0D72,
BDA131C8,
BDA3E8F7,
3D1553A1,
3C681E8F,
3CD298A2,
3D049D84,
BC167628,
3CB7D718,
BD56E5E2,
BCDD20D5,
3D8206F7,
BD1B4D6E,
BC0CA4DD,
BD91C7FF,
BC11A36D,
BC219B63,
BCA22EA3,
BCC597DC,
3BD21EEA,
BAC26055,
BB398719,
BC16358C,
3D47C118,
BCAA2DCF,
3AAC15DF,
3D1C1994,
BAF6112C,
3C292CAA,
BCCEA1CD,
BB097F20,
3CE24614,
BC0BD008,
BD419BE1,
BCA59FE2,
3D069BF7,
BD5FB467,
BC0B796A,
BA9E8053,
3D2934CA,
3B5E3040,
3C1FAF3D,
3D25B889,
3D35DEA3,
BD25A036,
3B81304A,
3CEF1687,
BD08BA3B,
BC28E61F,
BAE9567F,
3C01FB5C,
3C8BD084,
3CAD413F,
3BDF06F1,
BCAB9A4A,
3D10A89D,
3D5B3E93,
3BA1F3BC,
BC94F3BE,
3CB2D748,
BCD8A27A,
3C20F29D,
3D031A86,
BD08E14B,
3AD78E21,
3C91DB5A,
3D432FF4,
3D1BF795,
3DA227E0,
3D561D5B,
3C285A2F,
3B886275,
BCD860E0,
BCD64026,
BD2C5C8D,
BAFC68E5,
3C85FA9A,
BC23A887,
BD663CD7,
BD69A6F5,
BBF9758F,
3DAA9012,
3D83A5DF,
3C2E78D2,
3C64271B,
BD7FFC3B,
BCE91C02,
3C479FA1,
3C943BD9,
BC6EA5B7,
BCCB0F51,
3BEF73BA,
BBBC9924,
BDA41CE6,
BB50B551,
BCADC3BC,
BD141634,
BD1E0622,
BC99AF1B,
BD471347,
BD077E2F,
3D17E115,
3CF44364,
BCBC5090,
BD61B51A,
3D6508DA,
BB8B6080,
BC97642E,
3C3B4FD4,
BC41252A,
BC897B85,
3CC8908D,
3B9060CB,
3B4229CE,
BB6B728E,
3C04F28D,
BD48EFE3,
3C974865,
3D44C740,
BC83B3CF,
3CC1D74B,
BCE0BE24,
BCF89631,
3C3EF7BF,
3CDF5E6B,
BD01FDEE,
3D4AA2EF,
3D900588,
BC079F13,
BC710AA2,
BD5BFAE1,
BBE2BEE4,
BCDDA038,
BC7D9D3B,
BD082A12,
BCC451DF,
3BBA15EC,
BD7BFE22,
3BF36C78,
3D4C9EBE,
3D040251,
3C56FE35,
3BAA7378,
3D22A0B1,
3CAF80F3,
3931571F,
BD017206,
BC2CCD4E,
3B33DFD0,
BD58DB54,
3A0D5D7D,
3D5CCB21,
3D14DEA2,
BB6447C2,
3D343A30,
3CE3B0A8,
3CFEE433,
3CD32F64,
BC4F3AEF,
BB948852,
BD5AEC31,
BD440F2D,
BC83EC05,
BCD911DF,
3CA1D893,
3D50473F,
3D003C44,
3C8F55AA,
BC82A841,
BC1660BE,
BC18BADA,
BC91B0CF,
BD45C7A8,
3C219824,
BD0FA09A,
BD1A2176,
BC9B55E3,
BA86D1B6,
BCA5EADB,
BD1796F5,
BCC74523,
3C9A8880,
BB140E8E,
BC66784F,
BCC2B4FB,
BC5FDEE3,
BD0EAFAE,
BCEB1583,
BD2C4324,
BC85ACBA,
BC4A7372,
3C4E9533,
3C616BC9,
3C47AE25,
3CF763E4,
3AE53653,
BA167BA4,
3CC66DA1,
3CD91C7E,
3CCC93DA,
BD1070D0,
3C62426C,
3C37F97D,
3BB9BB3B,
BC98C393,
3C4338B7,
3C5D5FC1,
BCCEDEB3,
3D01CE5C,
3D316893,
BD29C82D,
BC033D5B,
3BE0FAD6,
BCAD87E1,
BC6EE5DB,
BCE4FE40,
BBE8C8D4,
BD394CB7,
BD318E3E,
BD175C37,
BC814C6F,
3BFBDD79,
BCD16110,
BD13D4F8,
3C6FE5BE,
BD2CBB5F,
3DAA9A72,
3D90E835,
BD14A01B,
BCEAC546,
BDB864A0,
BDEDDC30,
BDB686C7,
BDAC5271,
B9FFB3F3,
BBD039E1,
3C2F0131,
BD23FB34,
3CC47933,
BD54F2FB,
BD158CE9,
BD1A8C75,
BD9102B2,
BCA8791A,
BC638226,
BCCA87EE,
3CA2C1B1,
BCD1BB0D,
BCE4C3FC,
3C37DB35,
3C9E2CCF,
3CF93AD6,
3CBCC3FD,
3CE3BC86,
3C74A6CF,
3CC5662E,
3D15B242,
BC710979,
BC94E896,
3C81848E,
BBAF1503,
3CC49ECF,
BAD05899,
BCC06DD1,
3CC81EE7,
BC850066,
BD62A7DB,
BD558CC3,
BC7AD06C,
BDC93C79,
3CEBCD99,
3D207961,
3D1A4CE5,
3BC6D004,
3C94645B,
3CE577DD,
3D09512D,
B9C45200,
3CFE23E9,
3D080EB6,
3C2527E4,
BC48E83F,
BBD2B892,
BB47FE40,
3C4D8DEF,
BDA64F11,
BD302027,
3CC91EDA,
3D80D75C,
3D035EAD,
3CB51D56,
BD1B8EFC,
BD1263A4,
BBB94DCA,
BDD3E316,
BD4020D9,
BD4FAEA8,
3B1BC76C,
BD68C7FA,
3C102602,
BB288C92,
BA195199,
BA110238,
3CC72FE3,
3D831DE9,
3CCF29B7,
3D2AC735,
3D09CE72,
BBF63FD2,
3D466910,
3B841B01,
3B04AA4B,
3C2DF3F1,
BCE8A5D1,
BCE56805,
BCF5F0BD,
3D2F9B52,
3D476B95,
3BEFFE1A,
BCCDA4B7,
3D2F2FBA,
3C1EA83F,
BCACE0B4,
B612D3BB,
BCA5275F,
3B999577,
BC5E874B,
B9A8C445,
3CE57582,
3C04F772,
3CD43138,
BCC08144,
BC541652,
BCB68C60,
BC54772F,
3CA9CD77,
BD4C5986,
3BD861EC,
3CBA2DDE,
3CD1A597,
3CC17150,
3D9CEDB8,
3D596D5B,
3C8CCA31,
BC0A9322,
3CAC01F1,
BB8B2C24,
3C8E76DA,
3CC10215,
3C0A23A6,
3CFA767F,
3C5EBE6D,
3D1D3D8F,
BC31E0F3,
3C76D109,
BD7028F7,
BD383A37,
3CDAB283,
BC9D50F7,
3C2EFCD2,
3D85BDF1,
3B5BCABD,
3CABF574,
3C9D7EB5,
3D079FD9,
3C25587F,
3D86E2E4,
3C9AF3DD,
3B3594E2,
3C985FF1,
BD3FCDBD,
BD72868B,
3CC1D58A,
3C5F0BCF,
3CF863B4,
BC8ADB45,
3BC2AA4A,
BB9CE1FB,
BC021850,
BBFD7247,
BBD38CAC,
3C1E730F,
BD2BA2FF,
BD4A56A9,
BD6CFEA3,
BD5F7C19,
BD8732A7,
BCB30F68,
BCEAD96D,
BD1BE639,
BCE09487,
BCF3EB71,
BC0A1ADB,
BD7D9946,
BD5F5824,
BD00412E,
BD69EC30,
BD95B2E9,
3BA1B666,
BBE819D4,
3C9D2DED,
BCD436C2,
BD4152E2,
BD17F633,
3D269CBD,
3B846E59,
3D165DE9,
3D2EF030,
BB341BAB,
BBDF557D,
BB8A8AA9,
BD882332,
BD647E11,
3BC4EA73,
BD5A36C8,
BD1F835E,
3CCA18B0,
BBA9FA2C,
3D296971,
3C421215,
BC4EB0E1,
3C77D48A,
3ADF8232,
3D3BC7F5,
BC974FAA,
BCD83495,
BBE20B33,
BC6FFAF0,
BD8CE74C,
3B179056,
BCE8F8ED,
BD052F9B,
3C7E8896,
BBC29BA7,
3B3829FD,
3C455C03,
BD043762,
BD31393C,
BD0658BA,
BD51CC06,
BD58B77E,
BC3234AD,
BC9384D7,
BC3812AD,
BC67BE81,
BCE026E2,
BD2BAC27,
BB1C61CA,
BD11999B,
BD13076F,
3B02845C,
BB9D5FCA,
BC81CAD2,
3D6B4C4D,
BB118EBF,
3AA8A81A,
39E4618B,
BBAF2D29,
3CF065FE,
3CEC8B5D,
3C57B9ED,
3D2BB3A3,
3A2E685E,
BD0B37B2,
3BAB9975,
BBE7ED9E,
3C4170DB,
3BF62021,
3CF02EE6,
37BF7372,
3CCC9863,
BD5BB741,
BDBACFC3,
BD45683C,
BC1E98B1,
BD4AA541,
BBE1412C,
3D156085,
BD18EB16,
BD13F88B,
3D6F1DA3,
BBBE1CB1,
BD7233F0,
3D4EC843,
BCADF791,
BDD65C7F,
3D842212,
3BC649A9,
BDA0BA6A,
BCA0B8E6,
BD0DFC10,
BD42FB76,
BDA11B25,
BCEABCEC,
BC09C966,
BA65D519,
BCCCC76F,
BCB87644,
3CAC8C42,
BCC1549B,
3C1D5AFA,
3CB05048,
BD795BF1,
BD4D2239,
3A8ECA79,
BCD2D35D,
BD14DFFC,
BCEB5F86,
BC8BD7F7,
3D065300,
BCEAE077,
BC6133CA,
3B630BF9,
BCAF47B7,
3CE09FEE,
3C7BC6D3,
3CD10200,
BD1120CE,
3AF8A25E,
B9C4F234,
BCD2E7C5,
BC863C43,
BC6F8BFA,
BC214EC0,
BCF24A6B,
3D2AB3DA,
BADE7CE3,
3B986D9A,
BC4FCBF8,
3D142934,
3D90C949,
BC56EDAF,
3CD9B0BB,
3B1FC5AE,
BCAE3BAC,
3D076610,
BB9F7467,
BC8BEE14,
BCD8E3EC,
3C91E8E1,
3CEDDF6E,
3D32A0BB,
3D55BA5D,
3D2C2F34,
BCA80426,
BD674ED3,
BD8D9956,
BD8EC5AE,
BD9B88B3,
3C76B3AD,
BBA2DA19,
3D0FAE33,
BCBCB6B9,
3B716AA8,
BC696953,
BC15D3C3,
3C7EEDDF,
3D376744,
3D644650,
3D3D1F06,
3D341737,
3DB88D7A,
BC537BBD,
3D0AE2D0,
3C8FA228,
BB951CF9,
BCB5749B,
3C602909,
3CB63EEA,
BBED8DC8,
BD26D57C,
BD48EEF1,
3C3C88D8,
3CB56427,
BBF10AFB,
3CD0443B,
3CBEE9AD,
3D446CDE,
BC01E1F7,
BDB61537,
BCB650A8,
BD16B8D0,
BD8C3E99,
BCA79F8C,
3C3B96B4,
3D0460A1,
3CB9E60B,
3D3C27EA,
3D6711CC,
3CC15CA0,
BD07CAAA,
3B8AA8B6,
BC9821F5,
BC8471BC,
BC817846,
BCA2B490,
3CB01CB6,
3C05B10D,
3D236788,
3D29077B,
BAEF032B,
BC8812E0,
BBBE2563,
BC25F98E,
BCEA4E65,
BD52C2EA,
BD2DC8E8,
BCC6EB6D,
BD3D3E49,
BCF3B8BD,
BD2C2EE1,
BC57A483,
3CA05B1F,
3CCED444,
3D6F7DAD,
3D3A6D21,
3D34BEF0,
BBEF90E2,
BCEB8BCD,
3D034EBF,
B92B368C,
BCF52510,
3C9FC5F3,
3CDAA73E,
3D32B8A1,
BD8F9F74,
3C9DC105,
3D72087E,
BC313E25,
BD4C9585,
3D17E9B5,
BCBD29BF,
3C3CE8FB,
BDD7413A,
BC26AB22,
BD0E3530,
BDB6A4D6,
BD18E5C0,
BD483E86,
BB969951,
BD06CCA2,
3C4860FC,
3D216217,
BC6704F0,
BC6BB2E8,
3D90F3B0,
3C9CC762,
3C230E7A,
3CDABA34,
BC948EC2,
3AD7A094,
BD67B0CE,
BCBDB488,
BC9B1FFD,
BDEE80E1,
BD4B4BA4,
BBBFED41,
BD9FBBE1,
BCC67F15,
BC66A9D0,
3CC25CD7,
3B596E65,
BCCA00F1,
BCD2A91C,
BCEE9813,
3C8D3B5D,
BC6D94ED,
3CAA26DE,
3D8E1470,
BCCEBB66,
BD511D69,
BCFDBE4F,
BD3A03FD,
BD271FC5,
BD43B201,
BDA50573,
BDAE0EBF,
BCCFC0E8,
BD1E70EF,
3D23EBDD,
BCAC50BF,
BA031879,
3D7ED5EF,
BB71F9AC,
BD01E49F,
3D47DF41,
3C6D837B,
BD0D87E9,
3AFBD63E,
BD60F2C8,
3D788461,
3D6DB361,
BB8976FC,
3DA6A86E,
BB7EE41B,
3B4ECD97,
BD2A3720,
BCF6751C,
3CAEAB67,
BC8CBC06,
BCD6E2A7,
BD312697,
3CEF009B,
3C1E8B23,
BCB28D18,
BD76AC81,
3AE73BA8,
BD4BDE9C,
3D07FA43,
BD1A3E06,
BBD7D28F,
BC89FDA3,
3D1B5D56,
3D9F6851,
3C6381B7,
BD5CEB1F,
3CDC8F72,
BD7DDA3D,
BE01EC50,
BCB72742,
BC5708A6,
BD983BC1,
BD005D77,
3CF76D0B,
3CFE60EC,
BCCEF28A,
3DA77713,
3CCEAB47,
BCF65758,
3D10426A,
3CF30B43,
BBD33A69,
BB595F86,
3D0B1949,
BD7939E4,
BCA9B682,
3BD15467,
BD823B0C,
BBB7FC80,
3DA559D8,
BBCFAE2F,
BD735F49,
BBABC1BF,
3E0B1621,
BD653F22,
BD0E2A94,
3D457217,
3B65A214,
3BDF9E63,
3BB46C5F,
3D291239,
BB144AEF,
3B4F4FD2,
3CB39BF8,
BD34F026,
BD6B2FE6,
3D1EBEE4,
BD1CD0CA,
3D687ED0,
3CAEAE40,
3D4E5204,
3D0A03BA,
3B18F78A,
3D32AFD7,
BCD1E43D,
BDA6AC7F,
BCFB4495,
BD434BE7,
BD26A4D3,
BD4A7970,
BCA1056D,
3C1D6725,
3CB5B51B,
3B9E39D9,
3CD78F9A,
3BE1C03E,
3BF53AB2,
3C57DE58,
BC6CFCDD,
3CECE457,
3BD3E81F,
3D11381C,
3C502A2C,
BD9E7EFF,
BD62BA24,
BD35B9C4,
BBCFB681,
3C27A71D,
3C244375,
BD9180F2,
BDB7AFF9,
BCD8FBA3,
3B1A4572,
BD14F2EB,
BD7F2C41,
3D2F8DB8,
3D82A223,
3D5EF13D,
3CE6704C,
BCBBAD25,
BCCC39A2,
3D1F201A,
3D8B4A7A,
3C6CB970,
3D29ABB0,
3BA1C9B5,
BC898DF7,
3BEBBED5,
BC9A2114,
3B4582A6,
3CA0E1E7,
BCC64DDD,
3D389B6E,
BB294C85,
BCD3B48C,
BCBA2638,
3C78C190,
BCC98315,
BDAD331D,
3D1C4418,
BCF35289,
BB29025A,
3CC3D5E0,
3D9A5CC4,
3D61C843,
BCA28240,
BCFDD571,
BD3CDFBD,
BC4E5C8F,
BCDD26C9,
3B8D1476,
3D5667F7,
3DB3EA28,
3D45DEE0,
BD6D5E19,
3CC27391,
3D63FCD9,
BCA95FE8,
3DCD2C43,
3D3B21C2,
3D08701A,
BC8544AB,
3CC9A38F,
BD11850C,
BC959CFE,
BC93FEB1,
BC8909CA,
BC9DD82B,
BD102F25,
3C066895,
3CDEB043,
BC5A3216,
BD145FA7,
BDC88220,
BDEB1EB9,
3D6D95AB,
3C4943D9,
3D15DD0D,
BDB2F23D,
3C8DF8EB,
3DCC8E23,
BB5F0B04,
3C7486D0,
3DBC0CFF,
3D4AABA5,
3D23F15E,
3DE464B3,
3E160238,
BCE0D00B,
3C9DD95D,
3D4DC05A,
BDAE08FE,
BD07020C,
BCAA3575,
BD8F144B,
BCD1B12C,
BCBF018E,
3D7DB3D3,
BB3A7C27,
BD624D23,
BD029294,
3C80F548,
BCFDD1C4,
3D073EA1,
3D32C9B6,
3D2A060F,
3D85FC8E,
BC5D4DA9,
3D1F69C4,
BC60F0D6,
BD630327,
3C284189,
3CD9A10C,
3D07D5C7,
3A19C376,
3CD7431C,
3D453278,
BAEDFDD7,
BB5D209D,
3CB77183,
3D066A50,
3CBCBFE5,
3D4830C3,
3B9E2F5D,
3D653158,
3D76154E,
BCB2E1F6,
BD5433F7,
BD295BDA,
3CBFCB74,
BCD1F662,
3C483797,
BD7D0EE3,
BCFE73C5,
3D0436B1,
BD6201E2,
BDCCD930,
BD0846EF,
BD7388C1,
BD945FF6,
BCF9B1D6,
BD267FE8,
3C85966F,
BD324A12,
BD4E9719,
3CE4C550,
BD19FDA0,
BCB6D158,
BCA4189F,
3C8B678F,
BCF05C7D,
3D59DD7E,
BAD4E8C4,
3BA5A265,
3C52107C,
3D97D821,
BAD75BE7,
3CE026FC,
3CF5FAC0,
3C745B9E,
3D6D25A4,
BCEF3942,
BAE34431,
3BBE27A7,
BD0823D0,
BBD014AA,
BC71C64D,
BDD307DC,
3D6798BC,
3B8B252E,
3CF63827,
BC09B068,
3CC5E004,
3C8ACA90,
3C09CC44,
BD0F12E6,
3C5F3E9E,
3AF6911C,
BD860682,
3CD9827A,
BC4E0119,
BD141942,
BD15CBDC,
3CC8C989,
BC810ACA,
BD31984E,
3B721F58,
3C32A304,
BD348C2C,
BD04EF59,
3C2119D9,
3D39C514,
3D1C749E,
BB896B55,
3DA99B56,
3C116CDF,
BC5B9435,
3DAB5960,
3CA3EE6A,
BDBEADD6,
BB8BA976,
BC7F423F,
BC548866,
3CAB0B48,
BC5E6725,
3D74A940,
BD83FC20,
BB849E68,
BBC67CF3,
BD4529E9,
BD41D0AA,
BD00D614,
BD8E2AF5,
BDA4B3E1,
BCE5884E,
3D342ABC,
BD896CA0,
BD232C7F,
BCB7CEBE,
3DA80274,
3CFE5E82,
BD2809A4,
BC0FAFFF,
BD073F21,
BD1ACC72,
3B50BEE7,
BD909F01,
BD71EF5D,
BC5615FE,
3D176DF3,
BD05302A,
3C675B0A,
3D62151C,
3D098D45,
3C0939C4,
3C281934,
BD438227,
BC178358,
BCE86941,
3C816E81,
3DAEE40A,
3D189925,
3D2E121A,
3DB6C8E5,
BDA34B94,
3BFED0A6,
BC6B17BE,
BDB16C21,
BCC603E1,
BCE804FC,
3D7249E6,
3DAA7B38,
BD2924A6,
3B05FFD5,
3D012D1F,
BB455733,
3D204BAF,
3D1EABF8,
BD1A8BBA,
BCC8CA41,
3D776D34,
3D551472,
BC06473B,
3C92E8BC,
3C06AE9B,
BD3FE6AA,
3D0A458B,
BC1BE416,
3C1C5C34,
3B8D4707,
3C7A5D0A,
BD64B8C1,
BD4B0132,
3D31C28A,
BD449027,
BD4F9050,
3CD551B5,
BD443C37,
3D3A18D8,
3D33DCEF,
BD611040,
BD37980D,
3D965C6B,
BCC476DE,
3A34B3A8,
3CC94A72,
BDA35075,
3D1A29CB,
3C77FD2B,
BD463E50,
BD4F1DF4,
3D3571F9,
3CCA9E30,
3B24FF98,
BD328C5D,
3C522390,
BC215826,
3D387289,
3CDBD416,
BC552ACE,
3D844264,
BD0A1316,
BCEAE882,
BB36D924,
BC2311BD,
3C15227D,
BD605945,
BD8B9559,
BC0B4FFC,
BC81783F,
BDA4BDB2,
BDB6CD89,
BD766B55,
BB038DCD,
BD24BBD4,
BD82D5F4,
BD6CA52C,
BDE8B18D,
BC5217ED,
BDA26D84,
BE0EE807,
BD095F66,
BD2E6476,
BD523A34,
BD24826A,
BD322D3E,
3CB99EB7,
3C6AEA3D,
BD3FFDAF,
BC267617,
3D6B6464,
3BBD0364,
BCF4F949,
BC55E5A5,
3D81FC4F,
3CD01CF9,
3C9C840C,
BCFC5C9C,
BC82D712,
BD54C882,
BD25F726,
BD47BB9B,
BBF30EEC,
BCCAECD1,
BDD04C9E,
3D030F07,
3C32093E,
BC017174,
BC26EA76,
3CB4EF5E,
3BCCFE8B,
BD46826A,
BBD5ACDE,
3D46E78B,
3C906F29,
BCA744EE,
BD0CB3B9,
BC8A72FD,
3D4E1BD3,
3BB5274F,
3D079404,
BC7EBB51,
BC059383,
3D67FB8F,
3D4A1CDA,
BD3D8694,
3AC2A2B9,
BB481743,
3CBA184F,
BCC71EDA,
BCC8F32D,
3CB68044,
B999B257,
BA41989E,
3D59D19F,
BB82710B,
BDBDB9F6,
3D8CA055,
3D478422,
3C123B2B,
3D738580,
3D0A670D,
3B99A236,
3D7D4CF9,
3B2248D3,
3DB47EB7,
3D06777F,
BD4CB483,
3B02E112,
3D2C41F6,
3D5782AB,
3CD44077,
3CC5D3D0,
BCBBDE27,
BD2F9965,
BC18EE16,
3D59792A,
BCFA2116,
3C2BBDB0,
3D3E3895,
3CC083A8,
BD985D90,
3C85E4D5,
3CD620BD,
BD01AC3D,
BCE5D7E5,
3CC5145E,
3C85D2A8,
BD13A961,
3A42F790,
BC932CC5,
BDA850E9,
BD60A548,
BD1C76D0,
BDFA6180,
BD4DE512,
BD652C65,
BD753CD6,
3CDCAB08,
3D3AF40B,
BB8C047C,
BCE41016,
3D9D7F1E,
BCB6EC9E,
BC5BF33B,
3BF1A2BE,
3CE27A0B,
3BCC4A1A,
3C8B8DFD,
3D7064C4,
3CB8CD14,
BBC5DAB4,
3ACA35A1,
3D7EC902,
3DA92661,
BC5E283A,
BD089A84,
3B895F80,
B9F8BD29,
BBE2EDAD,
3D6FF14F,
BCA0FB33,
3C4083F6,
BDA1A826,
3DA789CE,
3C709D0D,
3AD6BE4B,
3D2A3B26,
3D082BAE,
BCCE9E1C,
3D03403E,
3DA6FB1C,
BCA18C09,
3D824949,
3CE125E5,
3A465115,
BC4A163E,
BDB13609,
BD100858,
BD942BA2,
BD8367A6,
BD40280F,
BB760866,
BCADD771,
BD19096F,
3C92B94D,
3D16FAC9,
3CDDB9ED,
3CF419E9,
3D99B46C,
BB81628A,
3D16D985,
3C4BC388,
BD4392EB,
BD89D389,
BB3452CF,
3D3A1AF6,
BD99F5A0,
3C27E09E,
3E05C524,
BD938F65,
BC9A6C8C,
3D7983C5,
BD6AEFBB,
3C74E934,
3C29C407,
BD501E0C,
BCCDA0E1,
3B539DDB,
BDF69837,
BD4FC7A0,
3D4C122B,
BD8AA507,
BD7149CC,
3CCC1003,
BDA9E9CD,
3BD32F78,
3D96516E,
BD40FF18,
BB2EAB00,
3C2EE485,
BD93CA62,
BC622FF2,
BC6C52EC,
BDAD6667,
3CF01C1C,
3DD0032E,
BC7B82E5,
BCE8AD5C,
BCFBE5D1,
3B035145,
BCC9627D,
3D6BA4FD,
3D8A3777,
BD331758,
BA0C904B,
3C9DA823,
BD8ECBE9,
BC805899,
3D4BAEDC,
3CBB8714,
3CE149E6,
3BD89761,
3D4B288E,
3C90E72E,
BCD79C2E,
BC87CBC1,
BD69B536,
BCFE25DA,
BC15F8E5,
3B8D3730,
BC6254F8,
BD1F410F,
BD759D4A,
3D2E8C87,
BD0C42C2,
BDB450C4,
BC6A84C0,
BBDAE57F,
BD228931,
3D2C6253,
BD1CEBF7,
BC8DCCFF,
BC845A99,
3C7D5314,
BC68AA37,
3B87DAE8,
BCA94995,
BD9CF62D,
BBB53D29,
BCCCEEF7,
3BBAAC7A,
BD5AC7DF,
BC927920,
BC7146C7,
BCE9937A,
BCC7C5AE,
3C89A021,
3C0B269F,
39E420AF,
3D57E252,
BD0BDC63,
3D49445E,
3DC099C7,
3CCF3611,
3D280CB9,
3C91C356,
BD95A6BE,
3B7FDD65,
3D238806,
BCBCB35E,
3D0497FF,
3D766BC1,
3DA992CD,
3CDCDEE7,
BC022D4F,
3D5FB7F0,
BB7F66D6,
BC9161FD,
3CC47843,
3C0008CC,
BD2B2A04,
BDEACAEC,
BD38BE8B,
3CAECD8D,
BBA7097B,
BD982E0C,
3CC11FC6,
3D3053FF,
BD55E815,
3D64B6AD,
3C4BAF3B,
3BBBEE55,
3D60D8B6,
BD12B12C,
3D498ABE,
3D889E06,
3D52F5C2,
3D8EBC9F,
BC96A8B0,
3C2C65DD,
3A47D1F0,
BD607BFE,
BCE9B89C,
3A274E0A,
3C28359E,
3D570F81,
3D67D849,
3D0BD571,
BD091139,
BC813F91,
BCCED78E,
3CD7FB5D,
BDCE0E98,
BD553715,
3C9B420D,
BC48770A,
BD90FA1D,
3A5A7C2A,
BD600547,
BB6B8A4C,
BD352705,
3D489DE6,
BB38C716,
BD5DE5F8,
3C8B9B22,
3D2F5FD2,
BB64A4D6,
3C4A551C,
3D274071,
BD734127,
3D02517A,
3DB2C14A,
BDF1E28B,
3C5162F8,
3DD7442A,
BC4C144A,
3D2367DA,
BBD899C1,
BB150B72,
3AA7FAE4,
BC427313,
BD989C7C,
BD3227D8,
3D7C51B9,
3D41A445,
3A23F244,
BD4C9951,
3CFA81DC,
3C101868,
BD2AD26C,
BCEB9A29,
BD52CD47,
BC542FA9,
3C90BACA,
BC85C30E,
3CAF9F41,
BD2D3281,
3D8B650F,
3CDA6D08,
BCBD30BC,
3D60AC05,
3CAC251B,
3C9B20D2,
3C4457CE,
3CC4F8D9,
3D3CC77B,
3C20CB96,
3AC55D84,
BBF4A07E,
3CBFA5CD,
BD2F58C2,
3D1CC4A6,
3D69E26D,
BCA358B2,
3D8B3D8B,
3DB055CB,
3D8DB49F,
3BDC5711,
BD1A46EE,
3DA14A57,
B97024D9,
BD211A2D,
BD5046A4,
BD17910C,
BCFDBF99,
BD7EC6D7,
3B31E5BB,
3D291AB4,
BD26BBE7,
BB78F3DE,
BD92CCA4,
3A447C7D,
BC826FC4,
3C29B976,
BD190E67,
3D60A4BF,
3D58B00B,
BD80C752,
BD18F2C0,
BC1390A1,
3D099D1D,
BD442B1C,
BD27A5A6,
BD3F4195,
BCE53ECF,
BC6B8901,
BA2AF387,
3D94D9F3,
3D3D12C8,
3C037975,
3D4E470F,
BBFF8E4A,
3C76F356,
3DC3CC84,
BC000A7E,
BAD1D233,
3D0DC293,
3CDCD724,
BD8CD3CF,
BD024A19,
3D17C43B,
BC42C00E,
BD659DE7,
BC0B2038,
3CE57A30,
BC3FFBE9,
BD930ABA,
BD65EAB1,
BCFCFF04,
BC635BB9,
3D492B5D,
BCEC2026,
BCD4C6A9,
3D199CAD,
BCA608B9,
BC531A78,
BCB29C21,
3D167962,
BCFBC19C,
BD781E4F,
3CC9F0E3,
3D0FD847,
BDA5F071,
3CE5A67C,
BD1A8341,
3BD351FB,
BD02D736,
BD6F7247,
BD239B47,
BD1E950B,
BD80A0D2,
BD882DB3,
BD49EA9E,
BD9568D5,
BCB69CAF,
BDA97B1A,
BDD6C8D4,
3C3252DF,
BD2476F2,
BC9BD14A,
BC9AE2EB,
3CAB96F4,
BC3A28EC,
BD188918,
3CA7E8F2,
39901AD9,
BD3023BF,
3C3ADE33,
BD453A9F,
3A51E600,
BDA9C21B,
BC28B23F,
3C00C9F2,
3B3C9461,
BD750F63,
BCC64E71,
3D861D15,
BCAA1492,
3D249F37,
3D124304,
BD1D75D4,
3BDC06A8,
3D838182,
BCED36EF,
BCA7C346,
3D979BDD,
BCD63CF2,
BCD6A898,
3D01DBFB,
3B8CCBA7,
3D35C113,
3C629819,
3D17487E,
3D2A91FE,
3CF9E758,
3D428637,
3C8F082A,
BCD8CB53,
3C66F975,
3D4594FA,
3C5C67ED,
3D1860AC,
3D88152B,
BCAA1169,
BC3B982F,
3D105C01,
BD866E11,
BCCED9C3,
3C8095DE,
3D10081C,
3D03BCCA,
3D9CA327,
3D042143,
3CF92F45,
3A9B0050,
BCEC1D33,
BD88506C,
3D4A1501,
3CE8FADE,
BB140A51,
3D0A439C,
3BF19B93,
BD73AD4F,
BCBDB851,
3C61FABA,
3D16C0F6,
3D2BF6B3,
BB6DB6C0,
BC29D09C,
3C7A5A92,
3B90127D,
BD02AF46,
BC8304A3,
BB8B2C77,
3D3CB1FF,
BCAB2EAF,
BC07FCED,
3CD787E2,
3D63B7DB,
3BA92AA9,
3D9C515C,
BC8EDD36,
BB14E729,
3D6DC143,
3C09B7BD,
3D954323,
3BC3301E,
BCDF7B0D,
3DB51AF6,
3C73C050,
3CA22D97,
BDB348D1,
BC39EAE4,
3C21FE9B,
BD49FC49,
BBF4F33F,
3D73A6E4,
BDB0BACA,
BBD99B87,
3DA06D43,
BBAC7D11,
3C838D63,
3C707CAE,
3D39A838,
3CD279AF,
3CAACD46,
3CF341CD,
3C1AFE84,
3C7192A3,
BDBE9F91,
3B762135,
3D4398C0,
BDC369C8,
3DBBA7DA,
3DCF9CF5,
BDC9DA3B,
3D384E00,
3DD57839,
3D2535CF,
3CD79514,
BDA1EB61,
3D113A5E,
BCBD6D83,
BD768614,
3D5D3652,
BD59F7F7,
BD685F38,
3C2E6AA8,
3D625E77,
3C5B9B5F,
BCA5E3C5,
3CEC2FCE,
3C89D5DF,
3D91615F,
BC3CF058,
3BBE178B,
3BB01008,
3C2D1A89,
BD4420C6,
3CDE8C9B,
3D4B4D6E,
BD06F07F,
BC7CE153,
BBE70398,
3CBBB445,
BC3AF2B3,
BDB02335,
39585130,
3D36D279,
BCB9479E,
3CC144C2,
BD256C55,
3D448357,
3D1ADAC4,
BD9ADDC8,
BD639096,
BC8F0EF4,
BD8D3C2C,
BCE5517E,
3D0CF8E3,
3C826657,
BCEB44F6,
3D5B9794,
BCA6C6A3,
BCAFC2B8,
3D89007B,
BCB4EBA6,
BDC23927,
3D0CE977,
BC992F3E,
BD9E6459,
BD2EF14F,
BCDD107C,
3D2F7D8B,
3C318E5A,
BD0441AB,
BC9F1401,
3CEFA59A,
BD63D5FF,
BC527347,
3C8631E6,
3BD6FB9B,
BCFDB639,
3C1AC293,
BD356919,
BBFB0D01,
3CB20EF5,
BC1CE175,
BD2C609F,
3CAFF05F,
3C92837D,
3CE0073D,
3BB7E3A4,
3DD96C49,
3D2C95D6,
BCAB630F,
3C4468E5,
3D020C42,
3CBEB121,
BC0E8D98,
3CA95330,
3CA45DEF,
3B0BF084,
BD66C999,
BD3F6214,
3CEAF188,
3D407310,
BBE9A3C5,
3BB12DC8,
BD086AC8,
3DA2090B,
BD3B0CDD,
BDA0148F,
BC3643D4,
3BEB0A83,
BD9B7571,
3BFDEA2B,
BC556991,
BCB138B5,
3D0C7D26,
BCF4EEFD,
3B6841FF,
BCAF62E2,
BD1745CD,
3D0E8165,
BC308354,
3C319E4E,
3CC8E3EF,
BDE06258,
3C694A6C,
3C4216DF,
BDD73056,
3C0E10B8,
BD10EF95,
BDBD12DF,
3C8E3C95,
3CD5C4F2,
3DA38E76,
BCC2C1F4,
3D2C591E,
BC872EB5,
3CC2ADAA,
3CB46DD7,
3C565185,
38B97D32,
3C127443,
BCB08899,
3CDFBB0D,
BB8C77C7,
BB300AE1,
3C84FCE2,
BDEF4909,
3D0D57CE,
3D376809,
3D52D6BB,
3D949ECE,
3D185B86,
3CB40589,
BBD04CA9,
BC38F4BE,
BD8AD677,
BB15E2FA,
39FAE2FD,
3C82E352,
3CE1C1CC,
BC895B24,
BD7CDCB6,
BC5369E2,
3CC17904,
3DAAA2ED,
3D680428,
BC45C555,
3CFA2481,
3C295AAC,
3D850F7A,
3D8A7046,
3B1E4392,
3DA6A827,
BC9CE919,
3C83DE1A,
3D7BFBFC,
3D9897A4,
3CB99EF5,
BCFE3EFC,
BC0C08F5,
3C73ACEF,
BB4C318A,
3CD072C0,
BBEECE16,
BBE3C9E1,
BC5376F0,
3D060AE2,
3C1C9A80,
3C8AF3E0,
BCF2F402,
3C2425E4,
39CAC203,
3D6D5EBA,
3C7B3168,
BCBBA8C5,
BC822A61,
3D1F9052,
BCC842FA,
3C19B4E2,
BC80C81B,
3D832210,
3DA21362,
3CF2FC22,
BCE4723C,
BCD8BADE,
3BC2E47E,
BD92CCFA,
3C5D332E,
BCD5746D,
BA0679EC,
BCC85BC1,
BD149C3B,
BD862716,
BC8CB93E,
3C4150C1,
BD20B762,
3C612C22,
3BBC2168,
BC7C9388,
3D3DE107,
BCEE9349,
BCBDDDCE,
BDBFACCC,
BDF0521D,
BD8E34FF,
BDA8EE24,
BD8CF3FF,
BC8852BA,
3B1F0BF6,
BD5B53FE,
BCB48C79,
BD0592F3,
BD4316F3,
BC198895,
3C0C8861,
3D11AB42,
BC6B347C,
BD299765,
3BA12FDF,
BCEFD6D3,
BD3FCB6D,
BD8C202C,
BDAAE1F1,
BDC2A5CF,
BD4EF6D3,
3A9B6F00,
BCC08914,
BD6901B3,
BD77841E,
BD454BA0,
BD6B52F8,
BD81146A,
BD52D2A5,
BC307704,
3D1B291F,
BB95C3BC,
BA02AAEE,
3CEF6CA7,
3D4C87E3,
BD439EA7,
BD889101,
3A41875B,
3C26433E,
BD3992FD,
3AB3659D,
BD20E0DC,
BCD22FC8,
BBD32AA7,
3CE58D53,
3D235A60,
3D20376C,
BD12B0E9,
BC9A134D,
BCC4A6E7,
BD6E25D5,
BC512EB6,
BD08DA27,
BCDDD8B7,
BD4F5B49,
BC68D3D9,
3D03358F,
BCB33FDB,
3CBE6CD7,
BBA43ED8,
3D1370B3,
BB990F04,
3D7B3801,
BC8B41ED,
BC7F9132,
3D59D779,
3D9496DE,
3C9B7987,
3D716F96,
3D716600,
BB99BFA1,
BD73942B,
BDC38B55,
BD575E04,
BDBCE949,
BDC1F875,
3C6AD73D,
3C77714E,
BC86235F,
BAA5D721,
BD05D937,
BD5001FC,
3D28420E,
BCD90E32,
BBC29720,
3D215F4B,
3D14C1E2,
3D74EA81,
BD21DCF4,
BCCB8250,
BD375F7F,
BC59EDFA,
3BB66474,
3D014828,
3CE119A2,
3CAC4B59,
3D4055CF,
BD1968D1,
3B69E49B,
BD38B0F9,
BD38847D,
BC7A1476,
BD86B66E,
BD0B753C,
3DA75337,
3D59DBC0,
3CDDCC70,
