memory_initialization_radix=16;
memory_initialization_vector=
BD27C4D7,
BD54F807,
BD07D8F8,
BE28565F,
BD8115F8,
3C5556CE,
BD9AC09C,
BBA2D25B,
3D5BEBE7,
BCC00846,
BBB00C43,
3C7CC931,
BBDB49B8,
BC1F00E2,
3C426283,
BD2C1DCA,
BD2959B6,
BC947DCC,
3D63D31B,
3D2666A7,
BCB026A8,
3CED5299,
BD6B1949,
BD458F49,
BCF5416C,
BD25CC57,
3D21C741,
BD1FEC31,
BB29ECD4,
3BB89F36,
BC80B87A,
BD42B8B6,
3CC6BAE0,
BC075ED0,
BBE2C86F,
BD26AD29,
BDAD5685,
BD40AA0A,
3BC0C825,
BD8D061B,
BD69B9E9,
3BD2A5FA,
BD297430,
BD6166F6,
BDED8CBB,
BDAD4C9C,
BC439C01,
3CE147BA,
BB5D1FF8,
3D1CCD6E,
3C352BF3,
BD1422C9,
BD4618CA,
BE0C2C26,
BD83AA20,
BCCA6E21,
BD8078E6,
BD03DF1C,
BDCA58CB,
BDF36DEB,
BC9CC035,
3D8CFDE1,
3CD88B92,
3D24864D,
3D07F63C,
BD994C65,
BD3622AD,
3C777E14,
3C3E33BF,
3C972F8B,
3D9EE636,
3D250582,
BD5E0829,
BD2B85F8,
BD078CB8,
BC6DF415,
3D34C3BC,
3D3D9E7C,
3B8AA46D,
BCBCE354,
BC84F10C,
3CC0836A,
BC924AA9,
BA70E2FC,
BD56D279,
BD33C048,
3CF9AE0A,
BDCB9659,
3C576021,
3D6FAFE8,
3DDD3199,
3DE1A04D,
BD1847A8,
3E2D2C9B,
3DA93828,
BDE39590,
3D408105,
BD24957E,
BE36ABC2,
3D4290F3,
BD202B43,
3CB3456F,
BAFECF4F,
BD711759,
3A69E7B8,
BD138BA8,
3D8615B1,
3D9C0ACE,
BD3BA0D2,
BD19CA30,
BCDCE1AE,
3CB63591,
BC6A0E6D,
3D291808,
3CC4D468,
BC8DD848,
BCEFB9A8,
BD11B5AF,
BC4D625B,
BCCF3320,
3D13179D,
3C6708FF,
3CD6B9FE,
3CE7190E,
3C2486F6,
3CD974C7,
3D4995A7,
3D459D2F,
3C6E7C10,
3DAC2E83,
3D8AC0BE,
BC55F716,
3DA203B6,
BBA520A0,
BE27BC0A,
3C274544,
BC1EF0FA,
BC5F2976,
3CF0922F,
BD1A0D87,
BD2943AB,
3CB8BA89,
BDD6089D,
BDFC2289,
BC007186,
BBF05E49,
3BA858DD,
3C0BD785,
3D190D82,
3B3EF87C,
BBC59955,
BC6B35B8,
BD058FE2,
BD48F760,
BC343E9D,
BCD2E17D,
BDA3B798,
BC9A486D,
3D41A77C,
BD4639B2,
BACA08FD,
BD94B747,
3CC2866B,
3CD26179,
BDEADB46,
BCC09285,
BDD3DDC1,
BDB7D671,
3C339DD2,
BD89B7B4,
BD28F5F8,
BD43312F,
3C3B3CDB,
3D6E4A65,
3DC32FAE,
3D8171AB,
3D3877AC,
3DA27240,
BD3A0BFA,
BDBFA25F,
3D2DC036,
3D5A3ED7,
3C88FCAC,
3DB03199,
BD750818,
BDD9AD5A,
BD1F3596,
BDF941F2,
BE02C3F9,
BD317671,
BCF6A4DF,
BBF7A938,
3D32E87D,
BD145030,
BD935AEF,
3C7CAE8D,
BD453BF9,
BDF111A4,
3D3CB79D,
3C7F2486,
3B66C54A,
BCCB7958,
3D2C0D18,
3D7F702E,
3B5A8A35,
BC8D8130,
3D8E55C7,
BB0714BE,
BCB7C8A2,
BCE537E4,
3D22E44E,
3D4F657F,
3D5CFFB5,
3D1E9629,
BC369452,
3D627322,
BE0AA4FB,
BCF7A752,
3D8FBAF0,
BD77654A,
3DB9C418,
3E07D1D8,
3D8F5458,
3D806A46,
3CE186AE,
3C5FB82F,
3C95AC1F,
3CBDEE16,
BCA31AB8,
3D974567,
3D695D65,
BD5243AA,
BDCE667A,
BD85FDD2,
BD18C38F,
3C57410D,
3D2E096B,
3DC54052,
3D8D524D,
3D1F96AB,
3DA31F08,
3CB4B363,
BD64BA1F,
3BF86EF2,
BCD68237,
BCED0A90,
BC3F41F5,
BD4EA8A7,
3CF4BDE1,
BCA2D49E,
BD6776DD,
3C8C37DF,
BAE837D8,
BD9585CA,
BD802126,
BDEBAB92,
BDC5017A,
3CAD275B,
BCD96AD3,
3BE27DE5,
3D762A26,
3DB136EB,
3D71D5F7,
BD0102CF,
3D475BB7,
3C2AB932,
BD827E6B,
BD405DBF,
BD8B364F,
BD8B6DB4,
BC8F2098,
3C9D8D51,
3D812283,
3D4CD602,
3D423A00,
3DA68226,
BD408F83,
BD85615F,
BD00B276,
BD0B7747,
BD418E1A,
BD32F420,
3C92742D,
BCCF4E09,
3CB09360,
BE16DCC2,
BD99FE6C,
3D3B802D,
3DF93661,
3DADD063,
3D6D9E24,
BD82B5C4,
3D42303B,
3D747C40,
3D7E4C86,
BC489634,
BE02AA95,
3D446F29,
BDA528C8,
BD6C07F1,
3D76B515,
3D59E7A6,
3D8F4D12,
3AFC44B4,
BC136E71,
3C4C5BEE,
BBCAF10B,
BD8353FD,
BD421891,
BD44A072,
BDA3F1CB,
BD1F7391,
BC91CAEF,
BC0175B9,
BD21C5F8,
3DADBCFF,
3C4CE948,
BD4ED5AB,
3D8807BE,
3CCEC86E,
BCC3B2A5,
3CFADC45,
3C0653AC,
3D232C55,
3DA824B5,
BCF8AAB5,
BDD4E45B,
BCEB9AE6,
3BE1C0A0,
3CB4F25F,
BB30C1DC,
BCCF232C,
BD0AB93F,
BD1DA160,
3D649A1F,
3C95DCD9,
BB89C9C0,
3C97CAC8,
3D73234F,
3D2DCFAB,
BC403805,
3D75B183,
BC7ABDD4,
BD10BD4B,
BBB07F1A,
BD2DC3D7,
BE46E2AC,
BE154173,
BCF165B4,
BDBD3B6D,
BDFC7B94,
BDE5B87D,
BD24061D,
3CE598F9,
BE3F0FD8,
BE39F79A,
BD9814C6,
BD95DE71,
BDD89926,
BD527D45,
3DF6B8DB,
3CE9ADBA,
3C57F428,
3D18DC87,
3DBC9EC3,
3D81E372,
3DEE9860,
3D9C7AFD,
3CA1F629,
3DEE371C,
3DF587BD,
3C0AC641,
3C353DC4,
3D0E39B7,
3D733D01,
3D6DC513,
3D90A291,
BD4FB259,
BD279351,
BD2F55AF,
BA89CBCE,
3BC2BDDC,
BD36BC05,
3C8D7214,
3D513EAA,
3C80EC09,
3D0A675E,
3CA41917,
3D920EBB,
BD06B1DD,
BD341FE5,
BD1401DF,
BDD379FF,
3DE0B428,
39F156CA,
3B3B32D1,
3D32180F,
BD1E3DE8,
3D1F5C20,
3C321C7B,
BD4FE2C9,
BC4A210C,
3CFCA40D,
3C376D1E,
3D596C9F,
BCC0F0F8,
BCD81B60,
3CFF76E7,
BDFED9D1,
BE3BE68D,
BE0B7699,
BD9772ED,
BDD48D6A,
BDABECD9,
3D1BCE3C,
BCB5C833,
BBC828D7,
BC68AA5F,
3DA5728E,
3DADA45E,
BBAFE30F,
BC0DCE20,
39A7AC1B,
3C7583A6,
BD1A332A,
BCDBB3D6,
BD10027D,
BCEBB29C,
3D0AD868,
BD99120C,
BD6C01F4,
BCBD4265,
BD70AE3F,
BD1EBA55,
3CDD54E8,
BDDF96E9,
BD315CB1,
3DBF25E6,
BCBF9613,
BD407435,
BCBE7D17,
3C171D67,
3DABD034,
3D4E9A14,
BD02A5B8,
BB6B4834,
3D180AD0,
BD974209,
BD7F6A8B,
BD061693,
3D883853,
3D46E5FA,
BCBA9D5F,
3D5B246A,
3C295F9A,
BC200DF8,
3D422255,
BADC1E8C,
BD850620,
3D429F79,
3D954239,
3D1D87DB,
BDA2932A,
BD6EEBC5,
BC0885D7,
BDAFB9B2,
BE02BE9F,
BD34D500,
3D21F413,
BC6A5E4C,
BC00101A,
3BB91EEA,
3AB7D44A,
BCAAC527,
3DE566E3,
3CFC268E,
3D3E5E41,
3DAF494C,
3D752980,
3DC0EEC9,
BDAEAED8,
BDE3323B,
BD97A361,
BD5338C7,
BDB3DFC9,
BC940675,
3DA7211A,
3D84BDA4,
3CA062BD,
BD34159E,
BD61B677,
BC1A92F5,
3D60B0E4,
3CE254EA,
BCCF5890,
BC436C29,
3D8AF456,
3D36EBF6,
BCEE926A,
BCBF7511,
BBEF404D,
392327A0,
BCBED97B,
BD259D91,
3E0A48D4,
3DF1473E,
3DCE729C,
B8A11721,
3DA8B331,
3DB67C3B,
BD290862,
BCFD4C16,
3CBD6C56,
3B53D5BF,
39241B45,
BCF4023B,
3DB03FEA,
3DFD5ED3,
3DA26663,
3DD4B974,
3DB8E8EC,
BCFA75CA,
BD8CFFFA,
3CE8B40C,
3CE974A3,
BE29CD5B,
BDED8454,
3C017D81,
BDF88184,
BE05EF1C,
BCC6DFDA,
3C7328B7,
BCC3B751,
3C1D88F6,
3CD7A0EE,
3DEEF189,
3D810EB1,
BCEBCDED,
BD0BEAA7,
3D8C2408,
3CFC0AAB,
BD36DEC0,
3D6AB4F3,
3CC031BC,
3D2FF968,
3DDEB651,
BE1C3AC3,
BD31759F,
3D4FF989,
3D20412A,
BCB616BE,
3D220EC9,
BD2FDCEE,
3CC2E4F8,
3D19A562,
BC9D6F8F,
BD86CEFA,
BC0A2E28,
3C8675CD,
3CB64CBE,
3D132CB1,
3D2AEA02,
BCD2FAFA,
3D0AFC0E,
BD1A37D8,
BC122EBD,
3D2F0CCE,
3BC6D5CC,
BDB54344,
BC3450E7,
BDC4FA26,
BCE7ADCB,
3D97B099,
BD672D5A,
BC9C4E39,
3E259499,
BD54FD24,
BD49FE54,
BBA27C99,
BCD6D19E,
3B89A6DB,
3BA5A622,
BCC66467,
BCB677D2,
BC298A91,
3DC74D35,
3D822484,
3D27049B,
BDA00CC8,
BDA5E3AE,
BC82D583,
BDB7ABAF,
BD7701AB,
BDFAFDB3,
3CE2741F,
BBE5A464,
BB8019E6,
BCAE3B6D,
BCEFC94D,
BDA368C5,
BD1194B5,
BC942716,
BD74FD41,
BDE2FEA2,
BD8789FC,
BD205EDA,
BDB16EBA,
BCF24B61,
BB485A9C,
35B5645E,
BD2EED06,
BD3C011A,
3A93ED3A,
3C433D8E,
BD221D59,
BD014A7F,
BB2CE9FC,
BD376F5C,
BD829F73,
BD849464,
BDC9A9A3,
3D495CE3,
BC9B6747,
BB9E2698,
3D2178F1,
3D0DEB2D,
3D2B6F76,
3D7E3D82,
3CBCB00F,
3D074EEA,
3DEF63B2,
3D883135,
3D4363BD,
BDB28A03,
3CF109C3,
BE0A8265,
BE1E3F06,
BD1D70EA,
BE188DEB,
3B94F213,
BD4714FE,
BAA5F3EF,
BE3B1A85,
BD12F01A,
BC8E437E,
3B61ED43,
3D60182A,
3D4BEDB3,
3CE83795,
3C92073A,
BCDF348B,
BDF0D246,
BD3B530E,
BCFAE843,
BD09361F,
BD3D9C45,
BD29D3BC,
3D10C536,
3C8F271B,
3BC9729E,
BD49DEE3,
BD5D33CE,
BDC2CB3C,
3C2F8061,
BDA30CFC,
BD9E9D85,
BD94B59F,
BCFB6B23,
BCDD39A2,
BC9C2CEE,
3CC8AAB9,
BBE7222B,
BD99BEB2,
BDBFDA25,
BD1AED0E,
BB436393,
3D05B37B,
3CA16FAE,
BCB2A0C6,
3D67EE22,
3C34BFAE,
BD9A12A1,
BC9DF9F9,
BD9E2F9C,
3A0D64EC,
3BAB54D4,
3D3BD788,
BE087211,
BD8A03EB,
BDBC45F7,
BDDFB711,
BC3E332C,
3CBB5D91,
3DAC6440,
3D201F89,
3CDC698E,
BD80FEBD,
BDB18220,
BCC6A8F8,
3CED7F12,
BD44AB02,
3C806BAE,
BD46DA7D,
3D68DCC0,
BCEFACD6,
386294E9,
BB14720E,
BD233866,
BCE29D60,
3C99F155,
3D62093F,
BC2EF419,
BB5A203C,
BC0C06A2,
BCE898ED,
BD04ED54,
BD49DB5A,
3CD7C807,
3D41C4B1,
3C8744BF,
BCB4C417,
3C57858B,
3D6CE4DE,
3D396334,
3D7C77B4,
BBFD8846,
3D716108,
3D483546,
3DBA1779,
3D62F51F,
3CD95968,
3D816FF4,
BDF18C98,
BE04E4B0,
BD8FB8BE,
BCEA3607,
3D451BA6,
3D3F4505,
BD5340FB,
3D671BC6,
3BF8B337,
BE2ADAB7,
BBAAC472,
3BC65257,
BD9CEC4E,
3D01833D,
3CACBEBE,
BD6D70D5,
3D496685,
BDA1ED1A,
BDCFFEBE,
3CEBC34B,
BCDBC61D,
BCCB6D49,
3CF31B56,
BC911161,
BDFC521A,
3C779DCA,
BD63E7AF,
3C8027DC,
3DB4AE47,
3CF52482,
BC29273C,
3D80EBFE,
3BBA2800,
BDBF01EC,
BCFA381E,
BCCED3DA,
BDFDE664,
BD18A8D3,
BC937708,
BC2C373C,
3CE92436,
BC1FA9CF,
BDCA7006,
BD90CFB2,
BD4DBC4A,
BB959FA7,
3C9BFC97,
3CC3AF8F,
3C3E308A,
3CF25715,
3CE562F0,
3D340DCE,
BD1263B4,
3C39E5A0,
BD3455D2,
BB0B6A2D,
3DBFC8DC,
3D8CFE14,
3D20CE73,
3C9F95BE,
BE141F12,
BDAA578F,
BD959D7E,
BDCAD9DD,
BDFA8773,
BD064AFF,
3D4B5F98,
3C88DE27,
3CAD3C94,
BD890F91,
BCA75EE1,
BD894F86,
BB8FD528,
3D0EE784,
3DDAEF62,
BC904FA0,
3D12CF77,
3DB694F6,
3CFAB9C7,
3CDFD81E,
BCF0A7BB,
BC10DC79,
3AA6E36F,
3DAB0C6B,
3D7F3A75,
3BC969F9,
3DC036B5,
BD7A304F,
BC55287B,
BC92B240,
BC831FC6,
3D5A7955,
3C92FF52,
BBC1F319,
BC04AF1F,
3C2535B3,
BD804C62,
BD5A2623,
3B904515,
BDC921BB,
BD9EF4EA,
BD9CE869,
BC996B8A,
B910CFD9,
3D52C0DF,
3DFC2CD1,
3DFB07B6,
3D839F48,
BC13B807,
BD9482F9,
BD7BF838,
BD786C84,
BD1E1341,
BD232675,
3DC1870C,
3D3F433C,
3DC7A45E,
BD991C42,
BE2C6DED,
BE036F0E,
3C115BFB,
BD89B968,
BD70C760,
3B5A59D4,
3CC574A7,
3BDE76C3,
3D363103,
BC71701A,
BC55ECFC,
3D4FB471,
3D80C59E,
3D89E29A,
3A3EA4CA,
3BD76A7E,
3DB31A81,
3CD5C62A,
BCA466B0,
3C69412B,
3ADCC7E1,
BD9B5DC8,
BBDB645E,
BC6E3A68,
BDB871F5,
BCB358CB,
BCB5A7E6,
BCA6ACE3,
BB7910A9,
BC2876AB,
BD0395C4,
BD4715F2,
B8C72C36,
3D2E262B,
BB7B6492,
3CD85ABD,
3C1BBADF,
BC82EC48,
BCD2D4CB,
BB71AEB1,
3DCC4E18,
3C03E465,
BD01E39E,
BC17071F,
3C177906,
BC9D9E35,
BD24C2B0,
BDBDA8B1,
BD18D1A6,
3CDB2FA6,
BCDA448B,
BD37D4B1,
3AE218B5,
BBE2AB93,
3C721B10,
3D08B923,
BCFBDB19,
BD2E3329,
BC90E454,
3CE29524,
3C46D9CA,
BD1ABBDB,
BAC36F15,
BDF7D319,
BCC59C7E,
3BFA4605,
BDA75068,
BD06FEB7,
BCE53EBA,
3BC3EEEC,
BCBB49F6,
BCE77B24,
3CABE695,
B9849C46,
BD08F27C,
BD05B85F,
BD0EF877,
3D59A82E,
BB3A288D,
BD856682,
3D915BA5,
BBBDA822,
3BDE69F0,
BD7E90E5,
3D430D02,
3D892C1D,
BDA25932,
3DB48564,
3C9E979D,
BC6C4579,
BD417FBA,
3DD2C85B,
3D9FC16F,
BD325548,
BDF4D64D,
BD747347,
3DDE2F93,
3DBC71EB,
3D6CF8EA,
BCEAE9DD,
3D07C84E,
3D33CC0D,
3CBFE9FE,
BDE7BD76,
BC8D2F87,
3C9022B0,
3C9F040C,
3CBCB05C,
3D0082B6,
3D42B126,
3D5A9BBB,
BBA04CED,
BB98934E,
3C3AC542,
3D4C592A,
3D6B56B6,
3CE25AB0,
3D178B25,
3DB65DCB,
BC0C41AB,
BD52AC85,
BD57D24C,
3CE258AE,
BC5E43E7,
3BDF9828,
3CA9A467,
BD00AE4A,
3C685C59,
BDC76E86,
BDFE4309,
3C38726B,
3D9CF208,
BD19E9CD,
BD934227,
3CE6503A,
BD796BDE,
3DA09BA3,
BC50FF6A,
3DC68F8C,
3CFB2EE2,
3DA69D22,
3D060C2D,
BD169FF0,
BD339EAB,
BD5FE4F7,
3D86437D,
BD6F551E,
3C14CA63,
3C5D1C25,
BC22F915,
BD050792,
BD31014C,
BB56DE2A,
BD3AA216,
BD4F5C2F,
3C86AD61,
BD31DB37,
BCDB2B24,
BB82273C,
BDC21233,
BCC086BF,
3D3B7A0D,
BDE1AB13,
BD5564C3,
BD93DCA6,
BD9C668F,
BD81E3A3,
3CC2A195,
BBA61BE3,
3D6EBB2E,
BB4369E1,
BAA631A5,
3BE4BD94,
BD7028AB,
3D2DA808,
3D05B9E2,
BD45ED8F,
3D364E26,
BCD88196,
3C5B2BED,
3CD415D1,
BC8981A7,
BCBB0C1C,
BD2B204C,
BD01E248,
BC97DBEC,
BDB09A2C,
BB66C18B,
BD46D0F0,
3A9E7E92,
3CC0B578,
3CE19529,
3D4AD753,
BD21DCE1,
3CD7A966,
3C1DC14F,
3BCF30A3,
3D273D70,
BB614C45,
3D3A76D4,
39AB62B3,
BD1D1790,
3B8E1914,
BC86F3CD,
BCD0D389,
BB144301,
BD060D7F,
BC07E369,
3D052F67,
3C23F309,
3CC3F8A5,
BD28C3EF,
3D2BD284,
3D6A9E67,
3D623138,
3D61C1C4,
3C9C207B,
3CB0A183,
3AC333BD,
BD3389CE,
BD8DD53C,
3D424F18,
3D0A2CDC,
3BB9DA62,
3CBDDCC4,
3D25DCE9,
3D09CC67,
BD149110,
3D9E0C3E,
3D42312C,
BBD08929,
BB76C217,
3DA85C4A,
BCA7AED7,
BD6384DD,
398A68F5,
BD70DB06,
BD491025,
BCD40135,
3D50310D,
3D84E1BB,
3D89D119,
BC927392,
BD01A0A2,
BC8CA0A1,
BD25006C,
BDF0A4C9,
BDF44BCC,
3D221B45,
BE0650E4,
BD9E1ED7,
3B414D11,
3CE8476D,
BC910FF6,
3C0DAD4C,
3DF95037,
BC8AE186,
3CA64B60,
3978DCB1,
BDA9CBAB,
BD561C06,
BC8F46FE,
3D25433D,
BCB4CBEA,
BE1EBF5F,
3CAB8DB0,
BC03AE49,
3B5876C7,
BD27578B,
BD131EA4,
BDFFCE36,
BCE3F0BA,
BCD48D45,
BDB5E15E,
BD21E6A2,
3C7693EF,
3BC2AFAC,
BD2A8D06,
3CD944CF,
3D2423AC,
BDF7E8B4,
3C92F18C,
BD6EFF9B,
BC5493A1,
3D08912D,
BD303BDB,
BCDFCAE3,
3C9FFAA7,
3D1F54EC,
3B8E650D,
3C74E73B,
3D0F3C85,
3D338076,
BD2DCA51,
BD6992E7,
BDEE8AC8,
3D3B36F4,
BD986A5A,
BD308B45,
BCDDB9F0,
BE175CE4,
BCEF7B8E,
3D5DDFE2,
3DB33F83,
3D18792A,
BCD21626,
BDF5063B,
BDF0CD02,
BDB20591,
BDB7568C,
BD5A6276,
BDEE5524,
BBBA6321,
3BEC2A62,
3D4303C8,
3D2B4EF1,
3D8D06C8,
3CCA0B32,
3D4FD831,
3C939B3C,
3B2D0908,
3CDE447C,
3CEA301B,
3CED8E46,
3D3A509F,
BC7AB3AC,
3CC6F9BC,
BC1A85D7,
BD7857E9,
3ABE6B65,
BC5C9D4E,
3C434353,
3D1E1D1B,
3D7F9D4E,
3D857784,
BD04CFB2,
BD4DAE69,
BD13CA9D,
BD38D11C,
3C5DC618,
3D6BD0D2,
3C4C9597,
3C920C3E,
3D8DAD79,
BC812C1C,
BD0EE97E,
BCB85626,
BDE8C13F,
BDA74581,
BDB4DBA6,
3B89887F,
3D7F5265,
3D83B886,
3D4B08EB,
BD0A924E,
3C3B01A7,
3E10EB45,
3E14143E,
3E0B273E,
BE00E19C,
BE81F687,
BDC2C481,
BE4AB149,
BE0F7F0B,
BE0FFED0,
3C19DCA9,
3D387574,
3B7D1CD6,
BDC65ECF,
BCE9FEEA,
BD7D8056,
BCE60555,
3D2FEAAD,
3D6CA178,
3CCD7E57,
BAC74397,
BD3DB755,
BDCD7470,
BDD53C58,
BE0770BE,
BDF22ECD,
BD6F22E9,
3CB7D1BA,
3D51D2B4,
3D3A1130,
BD1312AB,
BCC2FA02,
BCD1B2B2,
BDAF303A,
BC903BB3,
3CF57D40,
3D1FF9DB,
BC837713,
3D3F9F4F,
BB0D3E36,
3C482C25,
3CB3A868,
3D38DBEC,
BDB8D670,
BCA59517,
3D5F9D40,
3CEA1D92,
3C909DF6,
BC24706D,
BD42E318,
BDC96A41,
BCA61A3E,
BCA357BE,
BB406E18,
BC6E2FAD,
BD1B23E9,
BD59326C,
BD4302DC,
3C035ACE,
BC943DA7,
BCB1024D,
3D807A99,
3D8B927E,
3C0EBCE4,
3D825437,
3D63FB22,
BC3AAA26,
BE02C2A2,
BDF5340B,
3C00AB6B,
BD2D2D2E,
3C81822D,
3D94CCC9,
3CA95AD6,
3CC575A4,
BD292062,
BD6B227E,
BD6B1496,
3C8D0E5B,
BD73C319,
BD334A6B,
3DA44DD8,
BD33A4FA,
3D33AD69,
3D21DF11,
3D2E9699,
3CFF20CA,
3C71362F,
BDCE3378,
BDA8A815,
BCCCAD40,
3BA79782,
3DEE22BF,
3D0C10B9,
3B3AA869,
3BB7AD35,
3C0E5D6E,
BCA8126B,
BC36752A,
BCD5B0EE,
BCDEC811,
BCECD221,
BA9B6040,
BD2A4BA0,
BD294A8B,
3CE2538B,
BB58132C,
BAEDA876,
3D8FB80A,
3D86C0E2,
3E00F418,
3CCD49D3,
BE0DAD62,
BE04C8E5,
BE0E8C97,
BDA504C6,
BD130BC2,
3C140241,
3D023AFC,
3D129186,
3D088A56,
BD89D91D,
BC53EA4C,
BB22535E,
BD274853,
3C8EB803,
3B3C33E9,
BBDE7412,
3CBAB288,
3CA7ED48,
BCF93FFC,
BD264A05,
B882D96C,
BD315041,
BCDC5E12,
3D03F26C,
3E0F9F1F,
3DA5AAA6,
3DA0CD1A,
BDBBBE7C,
BDCFF48D,
BD10B438,
BD744CE5,
3D14640E,
3CB44642,
3D3D1F27,
3D46B81D,
BC78C373,
BD180CAE,
BC7570FB,
3CE6094D,
3CE778C8,
3C3D9B6A,
3DA44636,
3D79814B,
3DC38A71,
3D054F41,
3A9D79DA,
BCA3F482,
BC21678A,
3D0A676A,
3C12F5C7,
3B5B5BDB,
BC77CDD0,
3CACE92D,
3D35D58B,
3D617684,
3B1386B8,
3D8E5F55,
BCB7BD3C,
3B073D64,
3DCAC96D,
BCD58B3F,
3D1BE622,
BD620AFA,
BCBCC48C,
BCB809D2,
3CE9158C,
BD8D746F,
BC3F4538,
3D2099EF,
3D241E1F,
3DB06B01,
3D6B0970,
BD831A8D,
3CB6975A,
BC59D82B,
BDD353EA,
BD03036E,
3BAD9804,
BCE6A31D,
3D009A92,
BD1B899E,
3D0179EC,
3CA82A62,
BD9C4370,
BD44CB67,
BD54F0B7,
3CC185B1,
BD93DF85,
BD10A441,
3C865B36,
3C2EAFFE,
3C14F978,
3C17CB8D,
BCDDF196,
BD0562BD,
3BEDDDA4,
3B19F3C0,
3D3AEDAB,
3CFF920D,
BD4DB05F,
BDB32990,
BD9A0D52,
BDB6F6FE,
BBB557EA,
BC7FC17B,
BC3B5A7E,
BDD68985,
BDC290BF,
3C9C1604,
3C964E82,
3B9B7BA7,
3D8207B5,
3D5535F0,
3DBE2F33,
BDB2DF08,
3CA15C34,
BC54A8FD,
3DB26460,
3D48EF68,
3D14D494,
3D63096D,
3D6D8462,
3D97E820,
3D79C979,
BD0CB7DF,
BE198D38,
BC284BBC,
BE11188D,
BDE8508F,
3C8111E7,
BD551C36,
BD13A668,
BD301530,
BDD042DF,
BDE92593,
BD0CE154,
BCDBF33A,
BD413D4C,
BC89A3D4,
3CA79477,
BD02ED52,
3D6E8045,
3DB6E134,
BC8D3DC5,
3D09516E,
3D42B8A3,
3D2B2563,
BC4A495B,
3DB0218F,
3DADBD1F,
BD814AD0,
BCEF4B12,
BD646D2C,
BC15931C,
BD4243A1,
BD4015C5,
BD4794ED,
BD1A07DE,
3C597B3B,
BD0390CE,
3B723DB8,
BC4D587E,
3C6F8A10,
3C6E3018,
BDA1F8D8,
BCE2A318,
BC512B35,
BCD55054,
3C2F3A50,
3D4AD61D,
BD076B90,
3C827E5C,
BCB720BE,
BD5D0AE8,
BD7C3B33,
BC8DC6C9,
BD1C796B,
BD5FC80F,
BD4F78F1,
3C1E9C59,
BD67446B,
BC2B977A,
3D9F4571,
BDAF6F6A,
3C8748EA,
3CC07EAA,
BDDFB4AD,
BD440C44,
3E2134F2,
3CC89B8B,
3DF0D2B0,
3DAB4E0B,
3DED443A,
3D1783D4,
3CD273B1,
BD8F33D6,
BDF9766D,
BE011802,
BDB2180E,
BE2A227B,
BD9CCC07,
BDE1945B,
BD79B007,
BC513B85,
3BC412F6,
BD2365DE,
BE058E49,
BD7B08FF,
BDF5F3E3,
BE3FACF2,
BD1828AA,
BDBBA22E,
BDEFB7E5,
BD2428BE,
BD2AED92,
BC37E581,
BD7B9852,
BD0AA628,
3D4D7EC7,
BDB9DE0F,
BCCEC25B,
BBF93A9B,
3CFDD800,
BD1CF49E,
BE18A8D3,
BCDA909C,
BD7875E4,
BDBD6EFD,
BD9D98EB,
BD9D4284,
BE06A20E,
3D3FA1BB,
3CADA2CC,
BD622B1F,
BCC35952,
BD130C6B,
BDA8F000,
BD90F5B7,
BDF16FD1,
BC9AC4EF,
3CB5DDD8,
3DC67DC5,
3DC4794E,
3D82D009,
3E0ADA98,
3DAB7623,
3D47C514,
3DC61786,
3D3380E9,
BD151FD1,
BDC1A49E,
BC8B2B49,
BC71F2C3,
BCDA2317,
3D84D4F0,
BD9BBA6F,
BD03CA8A,
3BC02C4C,
BCD144EE,
3CCF2C7E,
3C0301D9,
3BF52E1A,
BD5E61C5,
BD8A4FA0,
BDA3C90E,
BD9C50DF,
BB26443A,
BD18098B,
BCCF63A3,
3DB26D0F,
3A1D520D,
BD35A89B,
3D5B8D0E,
3D590F38,
3CEA5A4B,
3D81D5F6,
3CEE9AE8,
BD422EA8,
BD00DA21,
BCB7997C,
BD600CC9,
3B7D6241,
BC4156CB,
3CEF1C8A,
3D9F64C7,
BDB6AA47,
BD086F10,
3D834496,
BCBFFF46,
BD675D7A,
3CB5B4F2,
BCCCD124,
BD20FEEB,
3D22A934,
BD0B1859,
3C3076EF,
3E05960A,
3D0F7295,
3D45505A,
3D8DE3EA,
394CB180,
3D3EE9C2,
3D0A0BBE,
BDB49881,
BCE66B6B,
BD9E7231,
BCE46CF6,
3D3DBAE8,
3D282863,
BAE9BAAA,
3D238E52,
3DD0FB1C,
BCA53D35,
BCB6824F,
BB6EE542,
3B95DE87,
3D7D173A,
3CC2AF17,
3C07C77C,
3C74A4FC,
BDB2777C,
BD50E6A2,
BDEAB707,
BD69B99F,
BCC9324E,
BC455B5A,
BD51A026,
BD22CDFD,
BC0B9227,
3B5F75EB,
BD0128DF,
BC7D3D14,
3D4037F3,
3CCB3A52,
3DA8C95F,
3C8CFC48,
3D0053FA,
3C2D9EEE,
BD2C8972,
BC11DE0D,
3CCEFE0C,
BC15E2D2,
3D57D4D0,
BC38485E,
BDA0222B,
BC3AFE60,
BD525587,
BD500A13,
BCE6EFB7,
BDCD27B9,
BD93DD5E,
BD443E28,
BE18AE28,
BDFE8035,
BDE97B74,
BE01A51D,
BD775350,
3A3C9434,
3D594C83,
3DD40B67,
3DC28019,
3E0D6FF5,
3E41D09F,
3CC77C48,
3DE61FA5,
3DAA26E6,
BD6151A4,
BD101CFF,
3C971039,
BCC9CDC4,
3C2ED13C,
BCC65BD2,
3D08AF6A,
BDD0F6E5,
BCD34C7E,
BB3D599F,
BC0E697A,
BA97E5CA,
3CC3ECD2,
3C273704,
BD65A863,
BCD65917,
3D8EB202,
3D0C7DB0,
BC3CC1E8,
3CD74C57,
3C296CE6,
B92E049C,
3DBA0B81,
3CE6AFF8,
3C50442E,
BC6BD0EA,
BCA4C8A2,
3DAB65FA,
3D243936,
BE113738,
3C48DB15,
BD89A784,
BE07AA46,
BC6037E1,
BD37B7BB,
BC06E1BE,
BC45A6DE,
3CF8CFDD,
BC1B0C4C,
BC2015A7,
3C676EF9,
BDA757A8,
3CC6CB09,
3CB75B7B,
3C332000,
BD33B938,
BDB12B1A,
3A5859C7,
3D0E29D9,
BD2383A4,
BD36968A,
3D693F88,
3DD9067B,
BC3F6826,
BC824291,
BCDAA7B0,
BC7626AA,
3CE89ECC,
BC9A05E2,
BD2C63AE,
3DA839C9,
3D63C78E,
3BCEB384,
BC7AB675,
BD830A0B,
3D648C8E,
3B3A35AD,
BD2847C0,
BCD1BED8,
3D96AA1A,
3D4E2616,
3D2F053B,
BD622D93,
3BE82F1D,
BC7CAE29,
BD743064,
BDA2FA8C,
3CE9A4C2,
3D7903B8,
3B313D75,
3D21F6B4,
BD386D36,
3C849D0F,
3DAF186C,
BD89CC8C,
BD4F6A79,
BC98ADD9,
3CC59EF7,
3BFCFEC3,
BA7A9767,
3DB05A80,
3D1F30CC,
BD152590,
BD83DB45,
BD6F282F,
BD36AE40,
3DC03087,
3DA4067E,
3DACE468,
3D72B8F2,
3D4553AE,
3E1C2F88,
3D83255E,
3D76171F,
3D441DFA,
3B324EA3,
BBF66547,
BD7671F2,
BD23F3F2,
BD7C4ABB,
3C1AAC75,
3BAD0381,
BDD2B000,
BBE98E71,
BC89AF79,
BD3C2830,
BD03CF2B,
3D66AA06,
BB5FCA1E,
3D4E24C8,
3D065F93,
BCE014AE,
BD7CFF32,
3BD63476,
3D54B598,
BDF97D36,
BC6E34A1,
BD48DB95,
BB365024,
3C03F42D,
BDCD5C4B,
BDD57312,
3E16D247,
3D36CE36,
BD601838,
3D9463B1,
3D0B27CF,
3C64FA90,
3D438190,
3CCC5338,
BB2C04BC,
BD98ADF9,
3BAA0521,
BD90915E,
3DA455C5,
3DB13812,
3D6DBB5D,
BD070A8B,
BD6B99AD,
BC0A9D2C,
3D8213FE,
BD58D254,
3DA1E33B,
BBC1E432,
BCA38D32,
BC7A4F9F,
BBA51671,
3AEE962A,
BC3593CA,
3D70361B,
3D7BE2EA,
3C2441E2,
3CD3DF6F,
BDEB56BA,
BCCE722F,
BCAF5D1B,
BD849CA0,
BD7CEBF7,
BD900EBB,
3CB24982,
BCDC56AE,
BD13226D,
3CF0AF5A,
3D126617,
3DAE2A4D,
3E69C895,
3D9EAA71,
BD1803E4,
3D56E49C,
3D001D47,
3BD089D0,
3C9AFF2D,
39454B13,
BD48BA61,
3C18EE8B,
BBAD70C6,
3BC537A6,
3D3532C4,
3D4A90D0,
3D62B90C,
3D12DB8A,
3D045B43,
3D925938,
3DC865FB,
3C92EDE0,
3E0658F0,
3D7650ED,
3D7C20A6,
BC1BEFDF,
BCDA2F1F,
3BEBA10D,
3E03E078,
3DABE680,
3CFD961B,
3D4A6BDD,
3DE254B4,
3C9C58A8,
BD1C6713,
3C0D2E63,
3DA4AFFA,
BD1C1F0C,
BCCEC56C,
3B087B44,
BDFBA6E5,
BDD873DC,
BDD16C9F,
BD04A08D,
3C9AE179,
BC31E071,
BD4AB15C,
BD7ABFC0,
BD35D3FE,
3CB3AD6C,
3B1761EA,
BC0D8A04,
BC51462E,
3CA5C435,
3BB781EE,
BCEDAF44,
BCE66FD5,
3CF19B63,
BD41B5CB,
3D74A8D9,
3D653976,
3D3F363D,
BCE50581,
BBD39865,
BCA96CD4,
BD287F26,
BCDCF752,
BD43BF5A,
BC37B83F,
BD9DE090,
3D1F0B1B,
3C8EF2E9,
3C8582A7,
3BA19C2A,
BD4535F1,
B89F75BC,
BD4F0078,
3CC0A518,
3CF0E874,
BDBE66E1,
BC24CCCD,
BCA647B3,
3A5F4B81,
BC1D1740,
BD47677D,
BD889BFD,
BC2F2570,
BB22EC7C,
BDD34ADB,
BD9327CF,
BC01EC0E,
3C3C8FF1,
BD6A5DC8,
3CF74672,
3DEA687F,
3DAC0EC7,
3DD9E45A,
3D409090,
3D30392B,
BC2A34FF,
BD292C40,
BCE53453,
3D03462C,
3D559B2A,
3D809C7F,
3C9391DC,
BD5A49A9,
BD14BCB1,
BD92374E,
BD3EBC48,
3CE15D86,
3C1B384C,
BDA5EC3D,
BD4C7352,
BDF19591,
3D584990,
3C73A5CB,
BD979C54,
3DC357B1,
3DD04B6D,
3D91D34C,
3D34F1D5,
BD8E2D4A,
BD453EF3,
BDC11D0F,
BDC5764C,
BD77897E,
BD2E97DA,
BD364921,
BC9A08BD,
3E014ED1,
3E0861CE,
3DB1126D,
BCD7254F,
3D3267C7,
3CAA37DD,
3C3EB24B,
3D5491E1,
3B671289,
BDF5FEA0,
BD887B7F,
BD9A39F5,
BCEBC39B,
BDD34D8E,
BE0C86EF,
3D3316DD,
3D2F6C41,
3C32FF5D,
BC08BB53,
3D6914DE,
BC598DEA,
BD42836A,
BD3B907A,
3CEAEC24,
BB803D70,
BD75C1F4,
3D077FD0,
BB46595B,
BCC88CC0,
BC327CDC,
39492575,
BC9DB2DC,
BD81BF3A,
3D0B8E34,
BD4B5890,
BD771034,
3C54D0DF,
3D810781,
BD7DF7CB,
BCFF3356,
BC74B3B6,
3A69DFEA,
3ADF94C8,
BCE6CB99,
3C56C133,
BC91A3AB,
3D535CD3,
3DAEF981,
BD089CFB,
BD841F72,
BD57070B,
BD00B506,
BDB3A399,
BC6DF71B,
3DAAC862,
3D9E1B61,
3CFCB89D,
3C074C5A,
3C3577C2,
BCB0B60C,
3C6B23AF,
3D0FFB9F,
BCCA9792,
BBE2208D,
BB498EC7,
3B94DA28,
BC91E4B5,
BCA2E1CF,
BDC9A524,
BC0A235D,
3BE7E86A,
BC9DB92F,
3C222121,
BB37EEA6,
BD8CA795,
3D93F6C9,
3C600EC2,
BD923645,
3CF5FDDD,
3D8899AF,
BC757D0D,
3D0C089A,
3C4F11A3,
BD6E2C81,
BC914BE7,
3D476621,
3CB751D9,
3BCC8E30,
BCDEF66C,
BCB45B73,
3D142850,
3CB9C92A,
BE19DAD6,
BD8387C8,
BDCF2F1D,
BD833A4B,
BD832E6B,
BDDAB24E,
BD576C4C,
3DD461D1,
BC37B9A1,
BD00CED5,
3C656C6C,
BDD2D0DE,
BD7F2F22,
3C308586,
BDC16881,
BE00A98C,
3DC10A35,
3CD04953,
BD8FB421,
3DAAFD63,
BDDA4F03,
BD1A4E0A,
3D567250,
BCFA337F,
BB4975FD,
3D3E657E,
3C57EDEE,
B8AD9D49,
3D8F6F52,
3DC06A61,
3CB030D9,
3C2F6A31,
3D5BF76B,
3D2D89A6,
BDDB9F57,
BDBD6DD7,
BD4CB5F4,
3C517776,
3C9C66DE,
BC828D48,
3D8FD0CB,
3B441145,
BD3AB83C,
3CF4EB37,
3D71BB6C,
BD902928,
BD246B8C,
BD190181,
3CC17FB8,
3C4A0A48,
3D1C5A97,
3D9C7EE8,
BBBFC4C6,
3CC44CE0,
3D9F62B2,
BD3DB5FD,
BDEFEC21,
BCD4BE65,
3C4CF6D6,
BD244C34,
BD9C196F,
3DBDDC35,
3BC5F1A6,
BD51DA38,
3D6A0CC9,
3DCE5268,
3E0137F1,
BBF505F0,
3D4244FE,
3CED3FAC,
BDA409AB,
BD9FADFD,
BD597753,
3CA54330,
BD083D18,
BC41DE7C,
3C6E2B54,
3D02994E,
3CAC947F,
BD517995,
BCB04F88,
BD131AC5,
3D39C5CE,
3BA6B502,
BBF5E370,
3C886427,
BB86D47F,
BD105D93,
BD49194C,
3CD9B634,
BD1E79AD,
3DF7FF32,
3DB53A47,
3D90CD23,
3C799534,
3BD62640,
BC06B9EE,
BC01448C,
BD130ECD,
BCDEBBF6,
BD141675,
BB9643E1,
3B84FDF3,
BBBAD791,
BDE21B05,
BD5A0F92,
3D5CEAA6,
BD280198,
BE018919,
BC4C8569,
3D1ABD2A,
BD89A8DB,
385B0550,
3CE7F007,
BCB7768F,
3C49C639,
3CE1C2DB,
BD99B309,
3D468517,
3CB9CA7D,
BD64DA68,
3D66BFAC,
3D88A227,
BD2CBBBF,
3D566A74,
3B8BCECF,
BD8F7B2D,
BD7DD40B,
BC7E98C8,
BCF7D705,
BD039899,
BD020292,
BD21238E,
3C6D6A76,
BCB5E255,
BD3FDAC0,
BDB21B01,
BD0E2917,
BD7C851D,
3C57655F,
3C2B9351,
BB721DD3,
3D2CB46C,
3D45D5C5,
BCC5624B,
3CC47077,
BC6DB3B8,
BB74F92E,
3CFB6DC4,
3C01B6AF,
BCEE406C,
3D601836,
BC790415,
BD9774EB,
3C95DFFB,
BD162C3F,
BD594EB8,
3C9AB81D,
3C47D96A,
BC9AA9B4,
3D27386D,
3D555EB0,
3D147933,
BD6A67AC,
3C460235,
BD803C83,
3D66E874,
3D45FD16,
3CB0D37B,
BBFD283B,
3AFB24EC,
BD984245,
BD5BDED5,
3C56AF5C,
3D249E7B,
BCA03E48,
BA29BAFA,
3AC9476D,
3C2ED4C0,
BCF5362B,
BD7C06B7,
3C62594B,
3D576892,
3D319E56,
3B8A683C,
BD90A8B6,
3BCD943D,
3C1F3A22,
3BBD4F3F,
BCA7169A,
BC9DE40C,
BD179922,
BD17C4D2,
3D1D9B53,
3D33B3A9,
3C431D94,
3D2B8B3D,
3D94CA62,
3CC208A0,
3D8C9C05,
3D8B2BF3,
3DC5680B,
3C44F064,
BCA94D04,
3D27E0F5,
3C70A937,
BD7F0C03,
BCB2EFA1,
BB0BA540,
BBAC65ED,
BCD78142,
BD7D8499,
BDB6072A,
BD7F5420,
BDB2E971,
BD37464B,
BC6E14B7,
BC9AB584,
BC2EF7A4,
BD390582,
BD08633C,
3BA65890,
3D49EA84,
3C0B706B,
3D867CDB,
3CB4DEA9,
3C671316,
BA97DFB5,
3C6E6A0F,
3CA660AF,
3D81186E,
BBD1E224,
BD8C1AC1,
3CE4CCCF,
3DA90AE8,
BD72B98A,
BA4C1401,
BCCF98A2,
BD257350,
3AC8DADF,
3B6E3AA1,
3D994382,
3D173B28,
3D4404EF,
3C7FAA1E,
3CE9DEF9,
BC09EC43,
3D063906,
3C759C65,
3BD0CFCA,
BCBAC238,
3C78AECD,
3CC55852,
3CAD0640,
3D9542C3,
BD3E757E,
3D89D597,
3D8FD3B8,
3BD3DF83,
3D48D292,
3CD3FFC9,
B9D8007F,
BD8B39EB,
BDA2743E,
BE063213,
BC0315E5,
BD5D5678,
BDD59D94,
3D05EB60,
BC6E9971,
BD888495,
3B183C1B,
3B371BED,
BCD08631,
BD8E65A6,
3CA69808,
3CCCD471,
BDFC6333,
BAD08602,
3DA5A5E1,
3D475B79,
3D668F22,
3D01905F,
BC9F1CFF,
BBC35EA0,
3C1C8759,
BC4E5FE6,
BD2376E2,
BD032595,
B9DE9197,
3C521CB5,
3D14AA81,
3C4B6DC6,
3D89F533,
3D2AC162,
BB964AC8,
3D2DDD0E,
3D8A90C8,
3A745729,
3C614AC0,
3D47C031,
BCB37F07,
BD21E6C8,
BD61F470,
3D848B0C,
3B4EF39A,
BC1E2398,
3AB5CAA0,
3D525A77,
BC0D57DD,
3C19E042,
3CEAC3A3,
3B651F95,
3D01EA39,
3D0A9D14,
3D4F2287,
3D56ACF4,
3D44513F,
BB0764A2,
3B620AD8,
3D2A0C04,
3D09A1F2,
3D91560A,
3C3202B6,
3D301875,
3D5920A4,
3CE3A524,
BD6C7622,
3C252154,
3D235F2C,
BD158616,
3B8CE829,
3D5D75B7,
BBA9668B,
BB046FA0,
3BD1A9A0,
BC5B4D38,
BCB57F14,
BCACC19C,
3C5790B8,
3CB38F9A,
3D4F9B9A,
3CD9069D,
BC8A4E7A,
BD30EB12,
BC9972CE,
BD280A0F,
3CB8BC71,
3C886FCD,
BD30DBD6,
3C900C84,
3C60B0FA,
BC9ED790,
BD0D766B,
3D8D9DF9,
3CAFDEC0,
BD95CF07,
BC8F3CB5,
3CF71541,
3D3A669B,
BC9BA158,
BD38DAC9,
BD2DEBE8,
BD550143,
BD620A4C,
BD86ABB7,
BD1B5996,
BCF9541C,
BC5B3E3E,
BCC4BAAC,
3CF1A8AD,
3DA300E2,
BD15C0BB,
BCE2935F,
3D5D2069,
3C80A427,
BD4026B2,
3CF96352,
3D0658A2,
BC67BB59,
3C8C5F1C,
3B3B1A01,
BCC7F1C2,
BB2FBACF,
3ACD69B9,
3CC2C4BE,
3D174796,
3D37097A,
BDA0A48F,
BD0C2EDE,
BD872EC0,
BD309334,
BC994354,
3C131D4B,
BCBB5002,
BBB66266,
3CE27D13,
BC86C3FD,
3CD43E6C,
3CF3516E,
BB1D7475,
3D417FCC,
3ADC9900,
3D006269,
3D533AA9,
BB2A467F,
3D13549E,
BAD777C9,
BC9AB232,
3C4A9811,
BB6D8A2B,
BD646620,
BB37A458,
BCF958C0,
BD9E28CC,
BC8BE2CF,
3C3ADE18,
3CFF7DDE,
3CCC4D1C,
BCEE191B,
3AAAE40A,
3D5F16A0,
3D3EBB97,
3D29DDA6,
3D84B0B8,
3CA8EB68,
3BF8A674,
3D2C4FB3,
3D3976ED,
BCCC9FFE,
3D0A06C2,
3D8459F4,
3DA79C0F,
3D16CB0B,
3C69876F,
3CFB091D,
BD706812,
3D937DB1,
3D7FBABC,
BD0DC183,
BCD0B252,
3B479D90,
3B0070B1,
3D027362,
3C7C1F03,
3D21FC80,
3CE601E9,
BC6D3ABA,
3D50476D,
3D935502,
3C6D1EB4,
3CD7F44D,
3BF78F93,
BC564153,
3BAB6487,
3CDA80F0,
BC71C121,
BDA0FE29,
3CBC2449,
3CE2EED1,
3C8CB2D4,
3D1F1C01,
BD2BAC4B,
BC44D00D,
3C466911,
3C080EA2,
3D079004,
3D8B094F,
3BC3DAD4,
3CDCD9FD,
3C11BE2A,
3D9020F0,
BC7F3F9A,
BBA33505,
3D85D8B6,
3B9C90AF,
3CF3FD47,
3BF58102,
BAC8B644,
BC6C27C1,
BD753F7D,
BCF4B581,
BC936A3B,
3C1C9F57,
BD1C266E,
3C1D2157,
BC506203,
BD4F7F22,
BBD29F0E,
3CC25525,
BCC565AF,
BD59BA8E,
3BA0B36A,
3B4CEDB8,
3C2BA86B,
3CD2BA19,
3B071756,
3CB4605E,
3CD7CDDD,
BD68D789,
BBD6F2EA,
3D6B2249,
3C31E093,
3D2FED73,
3D9EC440,
BD95DE03,
BD0DDD2B,
BBCCBFB2,
BD88C238,
BA6A35CD,
3CBFF7B6,
BC851B36,
3D5E006F,
3CD6BB78,
3C27C48A,
3D885C35,
3DD61969,
3DABE72E,
BBA5142B,
3C784BF1,
3DABB432,
3C9379C8,
3BCBCE87,
BC51A298,
BCF65DFE,
BCE6F716,
3C31FCDC,
BAB59367,
BD88098E,
3BDE7E37,
BCB14737,
3D3242E2,
3DF03F98,
BAB1553B,
BC9EA46D,
BD44A02F,
BE054562,
BDAF2654,
BD682882,
BAA6B189,
BD282CDC,
BC5850BC,
3D6A216F,
BCA5878F,
BC5CBCC4,
3CCF74D6,
BD13F7F5,
BD2097A3,
BCA1625A,
BCDF142B,
3DAD0B1B,
3DA15D6D,
3D80FCD9,
3D241209,
3D5EFEFC,
BC8599AA,
BCA9F49D,
BD80BBB7,
BB719230,
3D2160ED,
3CF995FF,
BBA02646,
BD183FD2,
BD912375,
BCF7CD06,
BC866534,
BC1752F3,
3C31230E,
3D4E8C33,
3D3F2370,
3C0C76CE,
BD337A41,
BD8E89BB,
BC068933,
3B6B7F5C,
3C3ACBA8,
3D0FA45C,
BDAF424D,
BDF39D8F,
BC8EB3BA,
BD69188C,
3CF8F185,
3D591BA4,
3BFAFBFE,
3D24BE91,
3C1E398D,
BD89562A,
BD3B42CD,
3C68B588,
BC005FEA,
BD5E7D81,
BD58F270,
3C969265,
BD1E4542,
BDA95221,
3B1FD070,
3D8AAED2,
3DBD6C87,
BD56C265,
BD01EE59,
BDF12A23,
3D8013E9,
3C602AF3,
BD9C2DBE,
3D8884C2,
3D9CF5E7,
3DE14EE3,
BCA5EEAA,
3C202EF5,
3D0223EC,
BC1AEA1E,
BD5D8B1F,
BD98F77F,
3DEDCA7C,
3DFD4AAC,
3DB3D931,
BD479C98,
BCBBA6D7,
BD10A3F6,
BBB6A09D,
BD64F764,
BD837260,
BD29FFF9,
BC7BECF8,
BD5499B5,
3C80DA50,
3CA6FD5E,
3CCED96C,
3D95381E,
3DA5EDBD,
3D3D8960,
BC34CB49,
BCD04817,
3CE0C4D0,
BDBE8E38,
BC0ABEA4,
3BE4D411,
BB888928,
3CC57D9E,
3D928F87,
3BAD450F,
3D14884D,
3CC16431,
BB9F6BE7,
BD1BBC09,
3CA3B8E8,
BD5AF438,
BD6A9DDF,
3D026E41,
3D8987DD,
3D59D649,
BC7C4339,
3C298164,
BD32AAFC,
3CE7B117,
BC745902,
3BC04442,
3CA6228B,
BDB2257D,
BD6091B5,
BCC7032D,
BD357430,
B8E1C99B,
3D020897,
BD57F59C,
BCCC68E3,
BB0412C1,
3D280A77,
3D84A95C,
3DA69AE3,
3D0F0E29,
3D8C749D,
3D4C044B,
3D4849C9,
3D710064,
3DE1750A,
3CF8C3CC,
3D9A4678,
3D3D063D,
3AA359E3,
BC932240,
3D2FC81A,
3D67684B,
BC8EC4D6,
3C5F2881,
3CB3E30B,
3DEB4AC8,
3E0FA248,
BBBD0787,
3D8F1B58,
3D87C360,
BBFF92B8,
3D463D5E,
3B4BFECF,
3DE30506,
3DDD4B90,
3D8904BB,
3CBA4F6D,
3D49B3C5,
3C27ABEE,
3C556E83,
BCDED112,
BCBBC153,
3A2E55B6,
BC96F3A1,
3D147333,
BD5961C6,
BD0396FF,
BAF02FB3,
3C2CCB97,
BBC534EC,
BBD7998A,
BD065E5F,
3B043328,
BCC24DAD,
BCF45D37,
BCAF7E6E,
BC8F18FF,
BBD83321,
3BA032FF,
BC98AEA9,
BD0703A9,
3C6C48CF,
3D27C5FB,
BD0C432A,
3D0B0B05,
3D8FE1F8,
3D1F5649,
3D9DD501,
BC0203F5,
3BBFCA53,
3D240AD8,
BC8FF97E,
3CF06704,
3D63D028,
3D2D775C,
3D14BB00,
3D305A1F,
3D6E0114,
BB19DE10,
3C19A6C1,
BBBDF423,
BB71A75A,
3B0B1FC8,
3BA0F9A8,
BBDBD234,
BD0B3F0D,
BC2D9F67,
BD43793E,
BC5D904D,
3BAF19B6,
BCE2E976,
BB9B33F0,
3C874DC3,
BD20ADF1,
BC85A899,
3D7BAE54,
3C958472,
3B366BEC,
3D21E042,
BCF92EC6,
BCEBDDFC,
3D049608,
3BF78B43,
3D48B647,
3D0CE37C,
3D8EFA49,
3CE80B15,
3CC49D7D,
BD542B9A,
BD076DC0,
B83AF796,
BD160634,
BCD9CF83,
BCC1C6C6,
3CFA2C3C,
3C3EA301,
3C5288BB,
BD0DFDB6,
BD2A3AB0,
3D01245F,
BCDF0796,
3C80BC8F,
3C35ADFA,
BDA043E5,
BD87031F,
BD903DC6,
BC92FE45,
BD281562,
BD2D9789,
3D79A615,
3C3D251C,
3D8B2A1A,
BCAD0F39,
BD6C54F2,
BD34E73D,
BAABC504,
3D080285,
3D0D91D4,
BCC6774F,
BCE973CA,
BC705EDB,
BD98BE0C,
BD501D32,
BCBEAE0B,
BD5522C5,
BD9EAFDA,
3D1FF12B,
BCF690B5,
BCD5A46A,
3CB99ED7,
3B32719A,
BD076CEA,
BD255271,
3CF2EA00,
BC949476,
BC7E4146,
BC0BE4A2,
BD2F91D8,
BC89A4B2,
3C15E5EE,
3D636EE0,
3DABCF19,
3CF757D2,
3CF29EC0,
BCD9CA13,
3DBE94F9,
3CAD8DDD,
3CB02BAC,
3DAE4A3A,
3CB7294F,
3D4F0F01,
3D17A76D,
BD4BF7E0,
3CE6D6A9,
3C40A4CE,
BD22AE9B,
3C469E32,
3BEF7427,
BC82AA18,
3D2BBB5A,
3CF827F0,
BBD336E9,
3C908A61,
BC918343,
BBA43B0A,
3C447ADB,
3AF49717,
BE1D6E32,
BD03BA30,
BD4AA708,
BE352078,
BD2780BB,
BDADBF9A,
BE1CD7E3,
3D23BE4C,
3D062849,
3D864046,
BBA86AB2,
3D305902,
3CAD8B59,
3A2B064D,
3CE6FBDB,
3D3812D3,
3D0493CD,
3DE03CF0,
3D44EF47,
BC847278,
3D97380A,
3B7BA672,
3BBF510D,
3D8B92C6,
3D0DD38A,
BCF4F393,
3D392A55,
3CD76C00,
3D626C5E,
BBAE82BE,
3CE49949,
3CB10876,
3CB891C6,
3D7BB33B,
3D8928AF,
3C98D889,
BD2B9A46,
BD037FF2,
BD55AD8A,
BBF5A05E,
BD72CC9F,
BD92F717,
3B971BF6,
3CE8BDBF,
BC8C8135,
BD2E4AE3,
3D1A74F3,
BC182102,
3D1120E9,
3DA92DA1,
BD019CA3,
3C413B43,
3DBE3EFE,
BCF8D173,
BD9363C0,
BD217624,
BD2EB33B,
BC804B4D,
3CAC6252,
BCAA6325,
BB2CDBAF,
BC9925BC,
3C9E70A3,
BD31033F,
BCD808E6,
3B0D465F,
BC59FBE4,
BC50C84F,
3C84EF0A,
3A5CE96B,
BC9DD1F5,
3CDBD277,
3C036729,
3BDA34B2,
3D692C72,
3B8C9E8B,
BB9BA079,
3C9280A9,
3D2691DE,
BC94E8EE,
BD944B5D,
BC2D9723,
3D51D183,
BCD3F7AA,
BCBECBCA,
3DBFFC9E,
BD8292A7,
BD04A4EE,
3D6C546C,
BD0CB50F,
BDBDB6DB,
BC4AE852,
BD380693,
BCCE7939,
3C3B34B1,
BD0B4B07,
BC62FE51,
3CDCFA04,
BC2272D0,
BE061EAC,
BD8F5D7C,
3C12EFDD,
BDA83FCA,
BB263535,
BD62EA30,
BE082AFE,
BE07A854,
BAF79199,
3CCE4E2B,
3CB9779A,
BC83A9F6,
3B40D876,
3C17B26C,
BD38C0E8,
BD6F9ED6,
BC8AE576,
3CA75EB6,
3D5D3637,
3D656BB7,
3D0DEA73,
3CD703D9,
3D173A2D,
3D8EB36A,
3DC9F583,
3D04D39C,
3D6BD0AA,
BCB7DB92,
BBC1490C,
3DB588C2,
3CCFB80D,
BB0080D7,
BC51E9FF,
3BEE4EF7,
3C210A66,
3CCD7260,
BBF54322,
BCD1AA1C,
3C9F2A77,
BC6023A7,
BAED3AB0,
BB59F5F4,
BC85802C,
3C99C149,
3CE17A61,
3B32E058,
3BDD2217,
3D51ED2E,
3CC67475,
3C7B9E46,
BCD68325,
BB515850,
3DCB4BEE,
3D819407,
BABA82A6,
BC66F2F3,
3D7B244A,
3B1FFA5C,
3C95BFE3,
3D2B0F7C,
BC2061A5,
3C25FCB3,
BDA22CBA,
BD018D8F,
BCE914D7,
BDA1402D,
BC3EDE3B,
3BE1DA65,
BD662FA5,
BD95CB2B,
BD6295FB,
BBDEE411,
BD889907,
3CAFD3AA,
BC34D709,
BD13FD77,
3C57E4F0,
BD075B85,
BD6D15BC,
3CEC3112,
BD39AB05,
BD9C0E59,
BCA2A493,
BCED78CF,
BD97ECB9,
3D0B876F,
BA950115,
BD6174E0,
3D9BCC5C,
3D36C29A,
BD00F76B,
BC8DF4D3,
3C1FE132,
BD467572,
BD1129E6,
BD808118,
BD9D90C2,
BCBE0BDA,
BD5B8845,
BDB1ECC9,
BD028031,
BD4154B3,
BD8D8119,
3D8E502C,
BDE4B175,
BDB72492,
3D7F77CC,
BD04308C,
BDE55035,
BD85E63F,
3D1FE850,
BD6DE6EA,
3B711E50,
BD09B597,
BDE10887,
BBF92B93,
BB4D7DB0,
BD73879B,
3C262819,
BCBD1B05,
BD4FF60F,
3C01D421,
BD444F59,
BD635AA0,
BD2A56C8,
3C8B4C4D,
3AE4C22C,
BD27442A,
3D093274,
BC893799,
3CAA3241,
3C7470F2,
3C618E25,
3C77FEE5,
BBE55F0E,
BE3E1EA5,
BD27A7B3,
BC1D0391,
BE3CACDF,
3B4C14A4,
BDC258AE,
BE6B70CE,
BD1526C2,
BC5FE47A,
BCC4395F,
BD706AE8,
3D252C43,
3CA9FC83,
BD1CE5F3,
3C67FDDA,
3CD58466,
3D2AE144,
BCC9CE37,
BCDCBEDB,
BC5B4317,
BC56CB72,
3D12CF3A,
BC456EC4,
BD6F7756,
BD331704,
BCBA91EE,
BC9834BE,
3D15B91E,
3C8165DD,
BD43B03D,
3A85A9EB,
BD3A0D59,
BDAF6972,
BD9915E9,
BBDC8248,
BA9C4163,
3ADE0653,
3BFD1085,
BC99CF21,
BD4A457B,
BC1D163D,
BA0C28D8,
BCD3D8B0,
BD8DB552,
BD4A8D9B,
BBF33D54,
3B42CD1A,
BC394F7C,
3A8C8877,
3B86E9F4,
BCA87882,
BCBEF4E5,
BCC738FF,
BE35E903,
BDDECABD,
BDC7B66F,
BCAEA8B2,
BB47CDA1,
BBEFAE27,
3CA24EBA,
3D7ABCD4,
3D843DA0,
3CFD3278,
3CD8844F,
3D285EF8,
3CDACDDA,
3C3F671D,
3CE940CD,
BBEFB45B,
BC671F23,
BC3EA150,
3D854AE5,
BB9AE8AA,
3D2D4EFA,
3D20309B,
3C2985C0,
3C899969,
3B5BD657,
3C02081A,
3C513708,
3CC1C572,
3BE93112,
BCE42DC5,
BB6581FC,
3C27A96E,
BD6086D0,
BCB8D7AF,
3BEE0BAB,
3C823E2A,
BDAD1917,
3B538B29,
BBF7226D,
3C8DBFD5,
BCD6C3D7,
BD0A6E92,
3D2284B4,
3CDF5320,
BC0B6DE0,
3D605E65,
3D0910A4,
3C2F572D,
BCE62D8A,
BCE80F45,
BD1A69D4,
3B80728E,
3C7185CC,
3AFAD345,
3C8AC0D6,
3CC20082,
3CBEC783,
3D53FF7B,
3C9D97AC,
3836AB37,
3C97499D,
BC65D272,
3C4BD2A0,
BCEFDFC2,
BCD2B6D1,
BD3C90DA,
BC244A7C,
BD055510,
BC9710E6,
3CA2299D,
3B47B9A9,
3C36F19B,
3D138FE6,
3D0160AC,
BD3225E5,
BC90D745,
BC486F1E,
3B55E636,
3D329B56,
B985F087,
BB41F0C7,
BD12BCA8,
3C011894,
BC81513A,
BCB3CB61,
BC1C0CB8,
BD4659D0,
3D337178,
3DB15003,
3DA7338A,
BD07C819,
3C2701AE,
3C79FB8E,
BCF2C101,
BD09F70A,
BD783D55,
3D7AE6B8,
3D632421,
3C3CCCD7,
BDB09CD8,
B949DE80,
3D8D2357,
BD0C4247,
BCD68F27,
BCF12948,
3C852FB6,
3D95581E,
3CF9C331,
BC7A336F,
BC38C7D2,
BC87F73E,
B95D2057,
3CCC158E,
3BADF352,
3D1076BE,
3CF489A9,
3D1A48A5,
3CE65E8C,
3CE0AD27,
BD271D08,
BC694805,
BD163D5B,
BD40D053,
BD4245BE,
BD0992FC,
3BF2BED9,
3C222D42,
3BDA8E47,
3D35E49D,
3D5887C9,
3D010E1C,
3D96DACC,
3D2F7885,
BCD6439C,
3CD7AC38,
3C967E8A,
3D1719EC,
3DA51F2B,
3C82C58F,
3CA34F98,
3CFC2AD9,
BD2A1C74,
BD4C536E,
BD7620B2,
3CA4FAB6,
3CEAC102,
BD03360A,
3C96E7AD,
BD75B35B,
BD6385E1,
3C906E76,
BD019406,
BCC132F9,
3BEF6007,
BD1C92B1,
3CBD95C3,
3C08E787,
BD0A7202,
BCF612BF,
3D0C8F07,
3CDA8CE3,
3CE08A9B,
BDB2E4F6,
BDE8D698,
BDF0E74E,
3C82C2BD,
BCB85355,
3CE77EF4,
BC81E105,
3C376ABB,
BAA31D30,
BDCE709A,
BD49AD78,
BCB38B00,
BD7E28F5,
BD4206F6,
BDA7F6D5,
3D6E85B2,
3D9C61B7,
3D93EBE1,
BDA5AA51,
3C753289,
BAB8CAD1,
3BD8AA05,
3D1DC933,
3AEDFF1F,
3C871EC0,
3D4E9CDD,
3D59B16F,
BD581784,
BD55E8A3,
BD016766,
BB51E8CA,
3CC792D3,
3C489C29,
3C3126F3,
3CD41232,
3D4D8686,
BDB9EF68,
BD8179E2,
BD7E187F,
3D22F2DB,
3DB57731,
3D6347C8,
BC245443,
3D05A141,
BC86B3F2,
BD25F9DF,
BD63107F,
BCBEA8C3,
BC8D6A7E,
BDA009DA,
BD31909C,
3CD9808C,
3D447CEB,
BCB48308,
BD075073,
BD57AA02,
BDC237F2,
BBD192F3,
BCE85272,
BD24CDAE,
BCB01F83,
3D02282B,
3D971EC5,
BD768A29,
BCE9400E,
BD1AC84D,
3CD66944,
3D50EC80,
3D63DD6F,
BCA32445,
3D0709F4,
3D37DD69,
BDDB286E,
BDAA05A8,
BCEF47AB,
BBE15BC1,
BD27524E,
BC988310,
BC6CE909,
3BED1116,
BD3B8BE3,
3CE7C5A0,
BC896D0E,
BC8D453A,
3CA0270C,
BCE386DD,
BD7F2F1E,
3D8C0126,
3C5001CD,
BC693CC3,
BCA3EA0D,
3CDED721,
BB811834,
3C8A8C7F,
3D22802A,
3D3224B3,
BCDB5322,
3C07FE7B,
3B777DD2,
3D58131D,
3C4E84C2,
BCC7FA71,
3CEDCA70,
3D277714,
3D074C49,
3CE230D1,
3B64C7BA,
3C43B3E3,
BC8F3155,
3B89D19A,
BD006760,
3CF7837C,
BC2E5E43,
BD033ADE,
3D1BAC93,
3D0FEDA9,
3B8B9495,
BB9DEC6F,
BC9B9D50,
BCA4AFD7,
BB51B58D,
39B48840,
BC8D17B5,
BCE60181,
BCDAE830,
BCFFADD8,
3C8C9BEF,
BC3AA381,
BD1F785A,
BB3F54E2,
BD1E9019,
BD22706A,
BCA846D2,
BD0E7BD6,
BC0A4C51,
BCA0DCF0,
BD8280B0,
BCB588A2,
3D257F70,
3D572B8A,
3D7DC9A6,
BC3E8199,
BC5255C6,
3D2ACCF8,
BB17DA07,
BCC93EFF,
3D032A2B,
BD152FBD,
BDDAD7BE,
BCC2FB83,
3CB87EB4,
BC24F2E7,
3D4BF12D,
BCC8465B,
BD90C215,
BDDECCC1,
BC74BF22,
BD92A9F1,
BDC207DD,
3C1BCEAA,
BDDD5621,
BDA6243A,
3D1DB014,
3B1BC279,
3C2C16F6,
3C866A92,
BCF221D5,
BD0F0A84,
3D3EBE7F,
BD85BC35,
BD4A347E,
3CF02401,
3B73C62B,
3C6052C0,
3D6DD9D3,
3D39D36C,
3D5E14B9,
BB850B47,
3C9C756B,
3C98F441,
BBCF18CB,
BC9D0A37,
BD1491B1,
3C92FD1F,
3C3DFFF7,
3C05A718,
3C83722A,
3C84667A,
BD23B7F3,
BB9EDE3A,
3C90BA40,
3B550C96,
BC1854DB,
3CA0A8A8,
3C678E8B,
BCB8E989,
3B50DE3F,
3CB17DE1,
B8ACEE60,
BD8BA10C,
BD3C3CB6,
BCB98CAE,
BCDE0992,
BD352F73,
BC9F59AD,
BDA310D7,
BD26918C,
3C410EB6,
BC9A2498,
BC7AC1C7,
3C5EE53F,
3BB4E719,
3D327147,
3C54A565,
BD3D6743,
3D02F12C,
3C9C6F3B,
3C9C1DBA,
BC216A0E,
3D43609E,
3BBD9744,
3C96F82A,
BCD1D32D,
BCADFEA3,
BB64F807,
3D9BB5F8,
3DA4D701,
3D3BA894,
3D824824,
3CD857C3,
39EE1107,
3D88F26F,
3D1FB624,
3DB88D4B,
BB3F6923,
3C501B96,
3CF37467,
BC4F6210,
3C03CB7F,
BBB0EC79,
3C84CCCB,
BA87951C,
BCAD51A6,
3C80EB08,
3BEB43D4,
3CA9D91E,
3C983E0A,
BCDCBCCA,
3BA18896,
BD348749,
BD35B7CD,
BC0F06B9,
BD4D4FA6,
BD75A5AE,
BD10D50E,
3B755879,
3C0146A2,
BBDDB35B,
3BACC60E,
BBD2C0DF,
3D84F755,
BC2366E1,
BC375680,
BC948F8A,
3C8FD53A,
BC6E6A0C,
3BC8F429,
3D3C4A12,
3C29D736,
3C8385EE,
BBD577C8,
BDD6BD8C,
BD4BBF63,
BD1FB64E,
BD954BF6,
BDA34EE5,
BC860E11,
BE04DAF0,
BD9ACB1E,
3C81A1FC,
BB171D33,
3D1B7BD7,
3CAF550E,
BD0CDCB6,
3C1E5082,
3CCA8348,
3CC3ADEA,
3C399522,
BC6A57D0,
BD7EB9C9,
BD639EE1,
BDD5FB19,
BDEF72AD,
BDF3EC6B,
BDB310ED,
BDBE79FC,
BDEEE2F8,
3C082471,
BC3D989F,
BBB5422E,
BCEB7311,
BD32ABA3,
BD7A2F14,
3C142A10,
3C936ACB,
BA902CA9,
3C5F649F,
3AD01AE5,
3BA79720,
3BE812CC,
BC5BD0E4,
BD26F277,
3C9892A1,
3CC8A6B2,
3C85317E,
3BE9F2FB,
BCD3970A,
BD303AE0,
BC586AC0,
BBF0CABC,
3B3146A2,
BC9A0DCB,
BD463DF3,
BC854BCC,
3C4BA3B6,
BCB898FB,
BD243454,
BC45F9A0,
BC814693,
BC81D1B9,
BC31D715,
BB77FFB9,
3D014E85,
3A947CAB,
BD090620,
BD028E2A,
3C5F0AE7,
BBD0A13E,
BC90A10B,
3AF4403C,
B9C776F8,
3B9AF0AB,
3C824524,
BD1597DB,
3C3930F8,
3CAD1431,
3CDBD160,
3C6EC22F,
3B077E04,
BD03D69F,
3CF890B8,
3D1A0411,
3CF2033F,
3D0B59AF,
3CE7E25A,
3D60516C,
3D2443B1,
BD215735,
BCA8BEFA,
BD2A6EAC,
3C972356,
BCCB451E,
BC5892AB,
3C9E6E24,
3BF96DA7,
3BA0D343,
BD06EE12,
BC5C3035,
3D527078,
3D506A8F,
3D533FDF,
BD576BA5,
BBAAD916,
3B2ED21A,
3C85EB48,
BD58B04F,
BCDE0428,
BDB9519B,
3D7E814A,
3DBA3F29,
3D7CA539,
BCEA3508,
3C13F679,
3CB39AC2,
BDA497F5,
BD84460F,
BD60D3F8,
3B26A1A4,
3B050649,
3C4AEE55,
3C82C0FF,
BC0ADB30,
3CFA34BC,
BCB0567B,
3CCD7866,
3D0F1B29,
3CF0DBD9,
3BA153FB,
3CFF0C93,
BCAF04B4,
BD3DEB1F,
BCB57DF0,
3BBCFC63,
BD015E12,
3C8D2296,
3C4B65EA,
3D34DF60,
3D041AB1,
BC02FAB1,
BD3DED4B,
BC75F84E,
BC0E4F27,
3C392AF5,
3BB18ABF,
3D273552,
BC8BC9A1,
BC12118A,
3D5B65EA,
BD8BC80C,
BC81814B,
BE0721CB,
BE72C64F,
BE0467FB,
3E05E460,
BC725255,
3D31ABB6,
3D34EA9A,
3D98AD75,
3D1E3A00,
3CB7FDFD,
3DD9992F,
3CE8144E,
BD09B7E7,
3C1F6BA8,
BD850CF6,
3D870BE7,
3DC00550,
BC9D0D58,
3D391505,
3D615E34,
3CD8E90F,
BB34166A,
BD1FD7CB,
3B091779,
3CAACE10,
3D903178,
3D742A1C,
BD6ED007,
3C662545,
3D06D08B,
3D6A231F,
3D23D177,
BD02EEFB,
BC06A54B,
BCD9C638,
BD6C5382,
3C424210,
BDBAB18E,
BD436611,
3C871FE1,
BD2AD6FF,
3BB63E53,
BCDF40FD,
BD6A1A60,
3B928659,
3D3D6B67,
BCECAFC9,
3D2CC729,
3DD62A35,
BBEAD537,
BC4F870E,
3D72C5CC,
BC8DEE03,
BCD93C4A,
BCAB0627,
3B033DB3,
BCBBE831,
BC4D890A,
3D5A3C91,
3D03DF2F,
BCD194CC,
BD2AECFA,
BB9F9CD1,
BD0760B2,
BC9C103D,
BCAE73F9,
BDD6344A,
3B5325A1,
BD3B8D86,
BBB35272,
3D768BB4,
3CEB29B0,
BD412EF5,
3D70B1D4,
BD86CA02,
BDB0A1C3,
BD614B8C,
BCFCAFE7,
BCB5243A,
3D08D4BB,
3CF62D2F,
BCCED387,
3C4A19BB,
BC581BA8,
BD649F5D,
BBE2D31B,
3A98597F,
3D342C7E,
3D03F69D,
3D1F0B43,
BAE9170E,
BC933110,
3C0D551C,
3DBD8089,
BD01DFF6,
3D1C88EA,
3D4E5A1A,
BC5B2618,
3D4A0A16,
3D872CF8,
BDBE5E27,
BCF69618,
BD5CD224,
BC611CED,
BC2A56E1,
3B4129F1,
3D3EA9B2,
3D4FA262,
BA315DBC,
3D14486B,
3CE98F7C,
BD64D757,
BC2DA3EA,
BDB7D8F6,
3BB9201A,
3C755A19,
BCC08365,
3C4522A5,
3CFB5DC5,
BB96D390,
BCA0FADD,
BD64F025,
BC3C6DBE,
3CC0A985,
3C179C0F,
3CC04CC2,
3D194482,
BBAF914C,
3D185886,
3D2AE95E,
BB040BB8,
BC408E79,
BC83B058,
BD932522,
BCF0DEFF,
3CC6B800,
BD3D78B2,
BC5852C1,
BDE1875B,
BDE351A8,
BDEF992F,
BCB1F458,
BD090D8C,
BD8000AF,
BD41AEED,
BC3FBDF1,
BC8DC31F,
3C27555E,
BD609BE9,
BC919F30,
BC8DF8D4,
BE1A7E43,
BDE50758,
B7F18401,
BDF5DB82,
BDB23359,
3C8FA76A,
BD95FE61,
BC8F7A3C,
3DA31CDE,
3CF627A9,
3C699DED,
BCC268A7,
BD82A686,
BD554A1B,
3BEACA2F,
BD45986A,
BCA3E4D8,
BDBB1824,
BD8C9922,
BC8EA9B9,
BD16C736,
BD3C1C9D,
BD4EA386,
3C3960FA,
3D068459,
BCE93608,
3D97FBC4,
3D03B90B,
3D36A6B0,
BCB468D5,
BCF72975,
BDEB6855,
BC01F51C,
BCE55BD0,
3C6E3965,
3C7FD193,
3C11F029,
3CB9E341,
3C50CBCF,
BD4F5EF7,
39D2E61F,
3D64EF58,
3CCAF6BD,
3C3B96CE,
3D7D7C39,
BD7E7CF7,
3D45B42D,
BD841A36,
BE0AE2B4,
BCA09E46,
3BBE331D,
BD3D8DA0,
BDA75A4F,
3D058E06,
3C092A7F,
3D86E9CE,
BC110B15,
BD726D6A,
BD8AB38B,
BD85042A,
BC1FD7FA,
BBBB5B8A,
BD1F0AED,
BC9B83BA,
BC4C9EBF,
BC2DB1D7,
BA8DBD9D,
3C906C32,
3D123603,
BBFAA754,
3CBC3F78,
BD86EA4B,
BD5340B2,
BCC1F0BA,
BD0C2EB0,
BDB0F321,
BDAECF16,
3CBFE15C,
BCBACB6B,
BCFE1B3B,
BC8E77EE,
BD744B6F,
BD132A72,
BD69AAF4,
BE074421,
BE031889,
BC03E0C0,
3D1CF60A,
3D12DC4C,
BBA346A2,
3DB463C7,
3D86331A,
3D39F037,
3D1DCCF9,
3C6D001F,
BD6F89A3,
BD45511A,
BD57F5BF,
BDA5D234,
BDDAC762,
BD058F05,
BDA2D0CA,
BDEA9AE0,
BDA72BB3,
BD7941F1,
3C749ABC,
BD5CF672,
BB7C4470,
3D4CAD23,
BCA57983,
3D463B44,
3C8C93F4,
3D5BFA51,
3D6369E7,
3CCD7B2D,
BCA6D57F,
3DA47086,
BCF542D7,
BCFED41F,
3D98141C,
38F4D049,
3CFB2E19,
BD017E7A,
BD9D4008,
BD9978F1,
BC9A8089,
BDDD83DC,
BDC30FA5,
3C9DFDDE,
BDA2FA4E,
BDA15972,
BD5A8470,
BD587610,
BD4C29A8,
3D8F0AF0,
BCD4D8BE,
BBC613BE,
3DA363A4,
BC2B6B25,
BDB5383C,
3D23C04E,
BC802412,
3D887A4F,
3CE96B19,
3D9CF627,
BB88D5E4,
3D799767,
3D4FE1F5,
BCB7F72C,
3AC62AAF,
3D307552,
3B998FBD,
BD58B4AF,
3DA14977,
3D29B6EB,
BCABC947,
3D039279,
3CBB6ADE,
3CD2ADBB,
BCC57ECD,
3D79F134,
BC665473,
BBAAB64D,
3CB451DE,
BD51C8DC,
BBA15BF6,
BD053783,
3CA065A4,
BCEC0C23,
3D5366DE,
BD916CC0,
3CC5B705,
3D2AC003,
3CD10F32,
3D73DE29,
3CBF6D95,
BCDFBF67,
BD8EAEB9,
BD0DFA8F,
BCFFDAB6,
BDC4A33A,
BD831063,
3D1EC3B7,
3C1D9A33,
BD2DE187,
BD0988BE,
BC68FCB9,
BCD28734,
3D671406,
BD06EEB8,
BC9FD0EE,
3D780711,
3D534B03,
3CE2E6B2,
BDAE669B,
BD37B862,
BD3CCD59,
BD666799,
BD2685E7,
3CD8D97E,
3D2F2B75,
3D0FC4C6,
3D910CF8,
BCA71006,
3C971428,
BC172682,
BD099AAA,
BC287422,
3D3F38C5,
BA529527,
BD60D63B,
BD015DE2,
3CB9318E,
3D979625,
B9B16AE5,
BCAC2B1B,
3C9D9837,
3C20179C,
3B1CADED,
3D2E4CB4,
3C93D226,
BDB911BA,
BD973FB1,
BD8902FD,
BBB21A2C,
BD9A3FB5,
BC8566F9,
3C23293A,
BCA5C8D9,
3C6CA191,
BCF00AC1,
BD9D5EBD,
3DB0AD2D,
3CE75CF3,
3C08B2B4,
3CA04C93,
3D05F94C,
3C00D0FD,
3D34D445,
3D3FA82A,
3D3B6F5C,
BC9FD027,
BBECBA76,
3C3643D1,
BC857550,
3C088CE5,
3D1B7163,
BD0AA98B,
39B4A4EC,
BC4A4AE7,
BD117B26,
BD0D929F,
3C71F382,
BCE5E838,
3D3F5880,
3D41EB9F,
3C8ADBC2,
BCA86D18,
BD13A14F,
BD017299,
3B48C620,
BDD1A1F1,
3CB6D617,
BD129982,
BD26FDF0,
BC304E3F,
3D72E691,
BCE936F6,
BCC1CEF9,
3D7B4765,
BD9696F9,
BCF12620,
3DDA2A21,
BCD7968B,
BD77A945,
3CB84881,
3C10625D,
BCC04203,
3D44F756,
BD12247A,
3D75994A,
3CB4D0DF,
BCD1E693,
3CAB5FFF,
3C8E8EF6,
BD9610CE,
BD890299,
BC7C209A,
BD960F0F,
BD2E3CC9,
3D86A1BA,
BCD4871D,
BD6465E9,
BD29E3EB,
3DDB6CB1,
BD742BFD,
3D703043,
3C15168F,
3CEA3CC8,
3D899B76,
3CAD8179,
3DAEEE37,
BB826AB0,
3B8150B4,
BD07CF2A,
BCD39C74,
BD26FAE6,
BAD5F2D3,
3C8B2C83,
3B6A6304,
BD0D5AE4,
BD368BA7,
BD8DDBE1,
3B7F98FF,
3C3E47C3,
BCC8E343,
3CE5D879,
3DB87FB5,
39CDBCAE,
BD8D0484,
3C566294,
BD73A6FD,
BD9EF967,
BC46825B,
BD567E76,
BD42597D,
BCA623DD,
BD77127A,
BC3ED85C,
BD96D563,
3D1AF899,
BB1EF50A,
B8CA5EF4,
BDCD8230,
3D879916,
BD1036E6,
BC8A7ACB,
3D6B39DF,
3BB4B8F2,
3D4FA4FB,
BADFD381,
BB96767B,
BC72A62C,
3CF039F0,
3D3A65D8,
BC2C636A,
BA8D25CA,
3CBA5256,
3B8CD57D,
BB5268E3,
BD996DE9,
3D8CA4C2,
BD330CE5,
BBC799B3,
3CE5448A,
BB142FCA,
BCA3E21E,
3B21397D,
3C75CFD8,
BC6EB7F2,
3CC10F79,
3D308897,
BD43E256,
3C268190,
3C656042,
BDA82367,
BC86E643,
3D11CE8E,
BD9D2E18,
3A3D8DE3,
3D664DAD,
BD0A244F,
BD0EE93F,
3CD5CC3A,
3D89A2B5,
3CB2E3A5,
B89EABFA,
3C262420,
BC9168DF,
BCB90892,
3CBF7E48,
3D09E8C1,
3D0FA1BA,
BD4226A1,
BCA1DF19,
BD4F64AB,
BCB48C65,
3C173DD9,
BCB8E9ED,
BCE5A908,
3D2BB5CD,
3D195559,
BD8CE2C3,
BDB2549B,
BDBC3F61,
BD42B39A,
3B098B4C,
3D2CBAD2,
3DAC64F6,
3D2D96BD,
3D0DBD66,
3CC717CA,
3C93A841,
3C6363E9,
BD652862,
BCA798E4,
3CE19C7A,
3D16E929,
BC926735,
3CAC3CF8,
BCEC4A5B,
3C2E2ACF,
BB16A68A,
3C2F39C3,
BB448D8B,
3D1E31DC,
3C8EBABA,
3D3E74E5,
3D6527AC,
3D0CBD4C,
3C1E4AFE,
BC80362C,
BCB05CAF,
BCB4E58F,
BB26F43B,
3D5BE2EC,
3D3598F9,
BCFD6C0B,
BC0E0294,
BD93C09C,
BD9CB539,
BD335154,
BD66C083,
BD662352,
BC347FD5,
BD6C02FF,
BD0C3411,
BDA7878C,
BD2E1651,
3A2A36E8,
3D46F80C,
BBAB3FF4,
BD2E4DEF,
BCF2E737,
BD5FB68A,
BD32741F,
3D1B5295,
BDA0D249,
BDC68143,
BA1A0034,
BD2EB74E,
BBDA093A,
3CAD0282,
BD724C8B,
BD5BA32E,
3D000131,
BCC7F49C,
BD2E6D72,
3C6EA1E5,
BB97229F,
3D0144B9,
3C0727F4,
3D6AFD6E,
3D64B732,
BCE81974,
BD354367,
B9240440,
BC275297,
BC226675,
BCD36D45,
3B334C19,
BCF44FF3,
BD5A019F,
BB90A676,
BDA46C6E,
BD60F970,
3C69F7CE,
3D51EF4B,
3CC90709,
3B3EAD62,
3CCA1C04,
3D8D22EE,
3C062D92,
3D5D4FDA,
3D7D2E36,
3CBF26D1,
3D138931,
3CB6C698,
BD08A076,
BD3AD3AA,
BD8DBCAA,
BC7B8A10,
BDA85B64,
BC9149F4,
BC469BD9,
3CD8B000,
BAC157AC,
3D911F6A,
BC9BEB4D,
BD9C6F47,
3A88FE37,
BC7A4C42,
3BB27E86,
3C6F4266,
BBD6E3B1,
BC090DDF,
BD41143D,
BCDD8B7C,
BB3FCD27,
3C2FDF54,
3D106AEB,
BA9289EF,
3BF4F84A,
3D109138,
3D0A4ED9,
BC6066B4,
BCA5E591,
BC235EBE,
3C5F6DE6,
BB599829,
3CA95ACB,
3C108972,
BC86A116,
BCF32CED,
3A94B228,
BB7BE4B0,
3C123A12,
3D25EFDE,
3D02477F,
3D035C13,
3D59AA22,
3D4EAA58,
3BD43C95,
BC3E4D7C,
BD16C929,
BD44F4DA,
BD1FEE55,
BC9D2426,
BBD10C52,
BD14961A,
BC8E734F,
3C73EA9D,
3C8B7819,
BB34D84A,
BCB451A4,
3D354D96,
3C04D796,
BD96B490,
3C1D2DAF,
BD65D34F,
BCF55469,
3B71B4BF,
BC476165,
3CD95036,
3D1D552E,
3D052730,
BAD01BA2,
BD576D8F,
BCCA8AA9,
3B15FC1F,
3CD4C125,
3A86D8A0,
3D220BC4,
3C225939,
BAFB911A,
BD34E3BD,
3B19D459,
3CB2B277,
BCDBDB82,
BC55AEF9,
BD80A9E1,
BD6C3C6F,
BC831C26,
BD0EC173,
BCDB27DE,
3BAB748E,
BD4B7DFF,
BCF984C8,
BC876B07,
3BCBFF0C,
3BA44567,
BD0EE1DF,
BCFC7661,
BC258F40,
3D6C8A54,
3D95CE1C,
3CC25427,
3CB61C8D,
BC0B567C,
3C57F2B9,
3D2A35E9,
3D5362C0,
3D4A46CA,
3DE8D723,
3DFD583D,
3D458F9C,
3D91BEF2,
3D2A2CF8,
3CD6F374,
3CB39F3A,
BD0C5A67,
BD1EF115,
BCA3FF62,
BD482271,
BD1A57CC,
3C99F208,
3CC64D1A,
3C72B0BC,
3C1FEFAE,
BBCD0A43,
BCCD7910,
BD520F7C,
BD760F41,
3C96CD38,
3CDF976C,
BD167DB8,
BD2AE34A,
3B310CB3,
BD89CABF,
BD7C938D,
3C830DCB,
3CD25234,
3AECED5B,
3D01514A,
3CDCC622,
3C0AFCEC,
BD92C349,
BD6C0BCC,
BD1603B6,
3D05B1C3,
3D007C01,
3D2ED4D3,
3DC43F84,
3DDCA9C8,
3D52CA10,
BD8E341C,
BD9E5AA1,
BD78DC62,
3BE6E48B,
3CDBA464,
3D29E7D2,
3DA9987E,
3D1F4DB1,
3B2F3715,
3D493E5A,
3CC2737A,
3D4036CE,
3CEABEDD,
3BB20DE3,
BD365475,
BD8CAAB5,
BD2AE7F8,
BDB2D4AE,
BC77B836,
3C9C9208,
3C7D2CD6,
BAF9E9B3,
3D36340C,
3D2DF0D9,
3D4C8AAF,
3D073281,
BCDB1C10,
3CBF9576,
3CBA9652,
BD169BE8,
BD4E37ED,
3DFE17DE,
BBC84A67,
BD66D52E,
BCDB6588,
3DF84360,
BA632F0D,
3CF8AFF8,
3C7BA8CD,
BCB6589E,
BCC34F3D,
3D713981,
BC90E375,
BD6F8D0B,
3C1DF92E,
BD5C5935,
BD451C70,
3D5D46D1,
BD3A8291,
BD4FC830,
3D2C3132,
3D9DEFC2,
BD98594D,
3D29860F,
3DCC9F9F,
3DC48813,
3D204375,
BD09099E,
BD94F629,
BCE2C94F,
3D63AC30,
BD360355,
BD421A57,
3D963E7D,
3D28469B,
3C475527,
3C1F517B,
3C3B26DE,
BCFD87A2,
3CFB51AE,
BCA35512,
BD11F0C8,
BC01B01F,
3D668AFE,
BD698E6D,
BDC07859,
3C571876,
3C2301DD,
3CC3FA4D,
BDBC7BF9,
3BD593C6,
BD2A19BA,
3D47C8CE,
3D577611,
3D48DF9B,
BC59BA68,
BD23184D,
3BC91AD5,
3CD7B321,
BC6F0E00,
3C9FAF1F,
BD719723,
3CB85BF6,
BCE75F04,
3B7BD41D,
BDAC9271,
BC955559,
BD81D64F,
3B2FA296,
BA3CCA08,
BD88BC28,
3B9DE64A,
3CCE3109,
3D94664A,
BCD64612,
BABA1338,
3D887CFC,
3D90F15A,
3D175928,
BD7ABE14,
BDA2F5A9,
3C19F15F,
3E455545,
BD99F5A9,
BC9B9C59,
BC0726E5,
3C98C0DA,
3D03F81B,
3C7DC5E0,
B989ABE5,
3C6DAFAF,
BC9ED4CA,
BD54A459,
3C59A202,
BD186FAB,
BD135B36,
BD4E785E,
3DD90404,
3D787874,
3D8814B9,
3D58D8F7,
3D95FB87,
BCA9BAB6,
3C9F7331,
BD305938,
BC1630F4,
BCBFFB25,
3CFED92B,
3D1F4295,
BD2E6D1E,
3D25EF91,
BC7CF8EB,
BD522570,
BD16E495,
BD53B79A,
BD168C43,
BCD643FD,
3D3A2067,
BC98059B,
3B547C4F,
3D72D4D6,
3C8DF9FF,
3C2922EC,
3CBE6565,
BCE91D39,
BD398CF1,
3C005730,
3E017800,
BE0D7AE4,
BDC9F015,
3E04E152,
3D06E304,
3D3E6F79,
BD28F9C3,
BD6C3249,
B918F910,
BD34485A,
BD7DC90E,
BBC18D61,
BD345EC3,
3BB968BC,
3CFC5F40,
BE0DD7A2,
3DC341D0,
BD59A946,
BD82DAF8,
3CB5F5AB,
BC672D1D,
BE1C983C,
3DEEE098,
3DAB9341,
3D35AA09,
3C11FA10,
3B9C24FA,
BB9852E6,
BCF481E0,
BD7C5A8A,
BCB09F83,
BB8DC0F8,
BCF0CE6E,
3CF002D0,
BCBA392D,
BD0EC21E,
3C7BA663,
3D6405F2,
3D020AD2,
BD8D892C,
3DA30236,
3CD117A3,
BCA30702,
3D49A865,
3D2D0408,
BD2A33DD,
BD5D4AC5,
BD615B9D,
BD17C656,
BD3BBF6B,
BC05BE56,
3D32D35F,
3BB6B82E,
BD99904B,
BD444942,
BD3201B0,
BB9B9F57,
BDDCF68F,
3CE1B33A,
3C9E1381,
BD93077E,
3C1D64E1,
3D74DB68,
3D4C426F,
BD96036C,
BBCFD3CE,
3D7B77A7,
3D12C3C7,
3C30049E,
39A4D073,
BACA43BD,
BD16E7E7,
3CC0CA3D,
BD9470CD,
3D1A4A09,
BD85B629,
BA9BD345,
BD3482BB,
3BF907E1,
3C6BA34A,
3D8C967E,
BD076E18,
3D6B351E,
BC994CF9,
3D9AAEEF,
BC3ADBBD,
3DC8AC7E,
BB24E465,
BE03D710,
3DB43F6B,
3CD70E75,
BDBBCEEF,
BCCC0D34,
BD6AE593,
BC9BA04C,
BC9F6E4B,
3D9A5001,
BD4738DA,
BD80707E,
3DCF7106,
3C2FFCD5,
BD94AE55,
BD885DBB,
3E1E50F2,
3D08B6FB,
BC88ED90,
3B9E38B4,
3BF403ED,
BDABFD61,
BDD81CB5,
BD1F4E93,
BCC97974,
BC4CB8A3,
BC1BB7E8,
BB734BE6,
BA205E3E,
3D192532,
3A81A693,
BBEEC7CE,
BC81B255,
BC21144C,
BDD385E2,
3D4CB217,
BCBF68E0,
3D0F45A5,
3DDE4D31,
BC2F1D98,
BD8E50BB,
BB98EA62,
BC7968DE,
3CAD120F,
3C42B4CF,
3D921CD2,
BCBC5E03,
BD2BFF6A,
3DB7A12F,
BD73F55D,
BCA5E4DD,
3CBCC32C,
3C66D52C,
BD25DA3A,
3D85F1C4,
3D20F7B2,
BD11086A,
BDA97FD9,
3DDD6948,
BD7DED08,
BCEDAA1D,
BD828598,
3C707F1C,
BDE75852,
BD04250D,
BD883152,
BD104301,
BDD781FD,
BD8E8C04,
BDC486B9,
BC8D93FD,
BCAEBC2C,
BD8C7235,
3D1D6A72,
3D91BF93,
3C514873,
BBEF6049,
BD0CE261,
3CE2E4F2,
3CCD5541,
BCC7B2B5,
BD7BC5CA,
BC5AEFE0,
BC981FBB,
BD264016,
BCB2300B,
3CF02758,
BD9C0B53,
BD60C732,
BD0F420F,
BDED3602,
BB587785,
BD2E12F8,
BC6231B3,
BC61714E,
BD273838,
3D3E4F24,
3D878E39,
3D3065E3,
3A1D721B,
3C077973,
BB92CBF7,
BA9900BA,
3C521805,
3BE97FEB,
3CB352B2,
3DE05613,
3D4005BB,
3D83A3C6,
3DCC95D2,
3CB0DC8F,
3D24C2A9,
3CF9791D,
3CBBF2A9,
BBA643D8,
3C7A2470,
BDA005F7,
BD9FA1D3,
BCB03F38,
BD975F43,
BD13AFA1,
3C5A4334,
BCBA7F09,
BD16B254,
3CC0E3CA,
BD8A5369,
BD71F456,
3CA8F799,
BD2331AB,
3D5A4917,
3D1EF5E6,
BD1D3ADB,
3DCC058E,
3C844E51,
3BC1BBFD,
3C8C0846,
BD2FF7EC,
3D4BE6FB,
3CFC70FE,
3D3FFBD2,
BC95FFDB,
BC16E993,
3DA947E8,
3C13A9DF,
38E34D19,
BD865CC0,
3D7336DD,
3CEFB584,
3DBC8DC7,
3B902BC3,
3D2C1F8C,
3C8BABDA,
3D2F8086,
3D29BC7A,
3C1E1A2C,
3CCEDFD7,
3CC43934,
3D4DC575,
BD1020DC,
BD3C512C,
BC0BD126,
BD0F9F04,
BD67EB92,
BC5ACA5E,
BC378A39,
BD9E98FE,
BD63F3F4,
BCEF5242,
BCEA9759,
BC981775,
3D53A3B4,
BD80A587,
3C35E5F5,
3CA43666,
3B98EAEE,
3C88DC07,
3C632CA7,
3B26BE90,
BD7614B6,
BC56A79E,
BD0AEC5B,
3B3B6B6A,
BD429DAE,
BD3D1EAB,
BD22D8CD,
BD0FDA13,
BCFDF75F,
BCD16A55,
3C3E9716,
3D7F6947,
BD046D0D,
3D2D55C7,
3C74549D,
3D298D6E,
BB3FABF9,
3D1FA4DC,
3C6FDE4C,
BD59FB04,
3C054091,
3D09B6DF,
3CA76770,
3CA46FB6,
3D0D28A2,
37DCBF0F,
3D56CB7E,
BC891C52,
3D2E98CE,
BB4D9859,
3D07D73A,
BD9EF432,
BDAB8ECA,
BD2E691C,
3CCE478D,
3C73363D,
B9B356F7,
BC977773,
BDB6CAB6,
BD95BB26,
3C53858B,
3D5F9EE6,
BD96A664,
BD634B27,
3D1ABF4B,
3C8202D7,
BC0E40D3,
3BAB0FDA,
3D00C04D,
3C39F65C,
3C9F0077,
3CC0C454,
3C251A5B,
3CF8A10A,
3C9DB836,
BBDAB567,
BD039E5E,
3CAC60EE,
3C7E1438,
BD9E72B4,
BCB977AB,
BC9EE92B,
BCD15740,
3C8ACA29,
BC0A28CA,
BD6AE2A7,
BD014E73,
3BBD945E,
BD5CF59B,
BD489423,
3C848E95,
BC05EA68,
BCE908E3,
BCF75F99,
BDED750B,
BC4F9A8D,
BD1E5A67,
BE3E9B2E,
BD1BE167,
BD35556F,
BDAE5DC4,
39747B0D,
BD511628,
BD36D0D3,
BD6FBDD8,
3CE5D265,
BDEC9645,
BC862F99,
BD4FF85F,
BDAA10FD,
BC9B0967,
BD36ED1B,
BE0B69E0,
BDCF4CF9,
BDA795DB,
BE4B3F78,
BE378254,
BDEDB0DA,
BE81652B,
BE14D221,
3D642983,
3CB00E85,
3D757FB8,
3D82F2EC,
3D0CFD06,
3D99076E,
3D8D4785,
3CF4988B,
3B81DE36,
3D2F0E8C,
3CAB34B9,
3D580818,
3D6E6CBF,
BC09BE11,
3C90FD17,
BA904131,
3C65D8E9,
3C919501,
BC79D97E,
BD20A19F,
BBE05DF9,
3BB83870,
BD857154,
BD292B92,
BC163A30,
BD7F4558,
BD43EDA3,
BD14F6DC,
BBF7AE23,
BC9E8C31,
3AEC1008,
3D0CA11C,
BD78AE64,
3D9D00D3,
3DC8C2C9,
3CFD5449,
3D3C4A10,
3C76DB96,
3D363753,
3BBDA385,
BCB182FE,
BD304E00,
3DB077D5,
BDA551A8,
BDBD8957,
BD219ADE,
BD19CD22,
BD5D81B5,
3C81ED41,
3C93CF42,
BC3AD47E,
BD501025,
BD824639,
BD35E471,
BDA2D686,
3C5A0423,
BCBA4961,
BCC4CBE1,
3C1A5F46,
BB537BD4,
3C61E81E,
3C8790D0,
BC4697D0,
BD5C552D,
BD51C4E0,
BD862AB2,
3CC1C909,
BD115627,
BB87028F,
BBAE8C71,
BCA5E047,
3CE304C8,
BC579398,
BBD261EF,
BD5BA38C,
BD3C8B15,
BBEF4EC8,
3D1E3BE0,
3C82EC2A,
BBDD0EFC,
BA6E93D6,
BD6035B2,
BD2E4C02,
BDA01902,
BCDC2208,
BD02443A,
BCB23C79,
3D7622A4,
BB03C98E,
BD71D06D,
B9A6DAE8,
3D20CD9E,
3B85B5E6,
3D0DB4FA,
3BB3E233,
BBF8F962,
3DBF8554,
3DA2F066,
3D4518A8,
3C21F981,
3D7BF5AA,
BD1AF31F,
3D8C70D6,
BC1AA465,
3B217639,
BD43343D,
BD8DB3C7,
BC1AB41A,
3AE3C32B,
BC83C17E,
BBE822FB,
3C478E34,
BC4CBA06,
3BBE179C,
3BDDF07C,
3BCDDB1A,
3D509DEA,
BC9151A1,
BCC86021,
BA70ADAB,
3D1932BC,
3D363CEA,
3C172850,
3D327BCB,
3D5C462A,
3C578CD0,
3D829C84,
3C760AD7,
BC619A2D,
BA39DE6D,
BD2222B0,
BC31C64D,
3CF0881C,
BC0E8527,
BB8F0EFE,
BC1B88AE,
BCC95C5E,
BCFC3D25,
3C8A5EEB,
3CC63B03,
BCA3C7E8,
3D301F55,
BC12556C,
3D0D3CAD,
3C1356A7,
3B9C6ACE,
BCB77B9D,
BA07D5E4,
BC308652,
3CA77C50,
BC49E73F,
BAA63864,
3B32146F,
BD34E70F,
BDA5A60A,
BD461C70,
BD82D739,
BDE68AC2,
BD11E34E,
3D872EAF,
BD15AC85,
BC20C5F7,
BD41E14A,
BDB93887,
BDCDE9DC,
BDD6DC53,
BDDBA149,
BD0C6078,
3CB023ED,
BD80DBBB,
BD19907E,
BD83E4B6,
BC823C85,
BC506958,
BCC223D6,
BCA03B40,
3D1BB0AB,
BCD46CFD,
BBE97371,
3D286B8E,
BD90036A,
BD595BF9,
BA08EC60,
BD51AB2C,
BCB874CB,
BB83A7EF,
BC2DAD30,
3CC300E1,
BCF4A08C,
3CD2642A,
BC51EF78,
3BDAD780,
3D4D0D39,
3CA7CD1E,
3CCC1A52,
3D2523E9,
3CD00729,
3D761116,
3D909513,
3C88F720,
BC809EA4,
3D89121E,
BD5635DB,
BDB05809,
BCD9F582,
BD506F4C,
BC665FD0,
BD9A4F7D,
BCE214C1,
BC954C68,
BB0F99B9,
BCC4BBCB,
BAE53D7E,
3CCEBDBE,
BC29D015,
3C00E2B7,
BCAF8249,
3ACCC099,
3AB0EB13,
3CEBFAC6,
3D0B0308,
3CC7DA3E,
3D0F3808,
3C7437A1,
3CBD2DB7,
BCFFD2EA,
BE124FC1,
BDD8D2E4,
BDFF3B96,
BE0D0457,
BDBACC7F,
BD8820FD,
BE09D4E7,
3C4E7A17,
3BFA721F,
BC188C91,
BC364512,
3C15DA4B,
3C5FD091,
3D0001D8,
3C4FBE48,
3CB4C2BD,
3D7163FA,
3D0B0088,
3D183766,
BD1E69F9,
3CC9EF43,
BCE02907,
BC9B011C,
3C52AD44,
BC08741B,
3CD3BE07,
3CE9BC5C,
BD02A651,
3C40105D,
3C028EF5,
39937E55,
3C869DCD,
BD3F577A,
BD67C4AF,
3D4B3A66,
BD632446,
3A6C6CAE,
BC9BAE32,
3AAD5F48,
BC45BF59,
3B514958,
3C87860D,
3CC01830,
3CAF30E0,
3C8C6A4B,
3D20CE3A,
3D1479B2,
3D620616,
3C89422F,
39F89379,
3D64CB83,
3CF41059,
3DE51BF1,
3CD1F57B,
3D097532,
3BA85887,
3C465910,
3D34F0C8,
3C95BE44,
3D86A56E,
3D5CF0F7,
3CF62C9C,
3BBB49CE,
3995E503,
BCA36AC0,
BB7866A5,
BD1B1CC1,
BD9DB248,
BA2E58AF,
BBEA9230,
BD15BF24,
3D803007,
BC760AF9,
3C13B9CC,
3D78F68D,
3D12EEAF,
3D51FF26,
3D673ECC,
3D5E06D4,
3D81113A,
BD1B795B,
BCA738D4,
BC142BAB,
BD46BC37,
BC7A9A60,
3CB86CA3,
3C469399,
BC1DFCEA,
BB1142A8,
3D8F543F,
3D8C7AF4,
BC9F5D96,
3DFA40A7,
3B63223C,
3AC06B88,
BB22235E,
BCDBDEE5,
3D3701C3,
BCE2C67F,
BD54AFD7,
BD68C03F,
BD1DE44E,
BDDCDB02,
BDBBB6E2,
3B475E37,
BDB8E320,
BD93488D,
3D71F4B6,
3D3E3D69,
3B6170EB,
3D85BACE,
3C8CC980,
3D70FAF8,
3CEE3AB1,
BC864482,
3C8502EA,
3D6F762A,
3D937736,
BD4CDAAF,
3D55CE5A,
BC02E890,
BD01AF43,
3D28EA9E,
BCE34806,
BC85A1FA,
BC652014,
BB0CD838,
BCB4630E,
BBC1FB38,
BD306C96,
BBABD0B4,
BCA7977F,
BC3C4976,
3C5DD7F4,
3CDFB55D,
3D17604A,
BD4F35AB,
3C92264A,
BD872F5D,
BD86AF10,
BD5F4AC4,
BD9B832B,
3CEF8698,
3C8212D5,
BD73912D,
3BA9C796,
3DD1815B,
BCE52B18,
BBCC622F,
3A1BA5C6,
BC1F2EFC,
BD136E43,
3D87B5D8,
3D3B01A1,
3CC95D65,
BD260C21,
BC82E735,
3C8BCBD4,
BCED5D42,
3D72588F,
3DCF59F9,
BD2F05BC,
BD0443D4,
BCE6E2CB,
3B3B2842,
3C81D51E,
BC69D15B,
3C0F5327,
BD20535D,
BD3E618D,
BCB0F513,
3CECD063,
3D8BE58D,
BD0291E6,
BD95D2DF,
3CCB66C2,
BD10A409,
BC3B4726,
BD36D962,
3D1AB9C7,
3D0A9FCA,
3CC025A2,
3BB85667,
BCA549FB,
3C8392FD,
BD5D9455,
BDAEEF40,
3BCFF2A2,
BC1E14D8,
BCE5AD40,
3C56CF2C,
BDAD5175,
BCBB9D24,
3D57A9DC,
BDA5727B,
3D001A9C,
3DE97769,
3D3ECEB9,
3D1742C9,
3D57D112,
3D4B68F5,
3D2359E1,
3D87C859,
BC891343,
BCA6F56E,
BD829E5E,
3D0D8363,
3C8D98B6,
BC0A9603,
3CFC4CFE,
3D876603,
3C90D68A,
BD7B362E,
BD14DE7D,
BD0CB424,
BB85D0F7,
BBA5CA44,
BD2D1EFD,
3D594E4C,
3C4F0A73,
B8268940,
3D3286D9,
BCC99A4B,
3D6EAA76,
BC8DB0A5,
BBDEEDF8,
BD885393,
BC9296E4,
BC0419E7,
3C8EB8F3,
B9F52AAB,
BD42ADB2,
BD826951,
BDBFF284,
BD9C0800,
3C2CFAEC,
BDB20305,
BD494BFC,
BB89B599,
3CBDF65F,
3B9C2F78,
3CA133D6,
3B3BE8AB,
BCB2F2E3,
BC984817,
B954C874,
3C0DEF05,
3D62CD8B,
BD34BAEE,
BD943608,
BD94678D,
BD7FA78A,
3B9BA178,
BBBA45E6,
BD4FCE9B,
BC54C426,
3D4F8A70,
BBC1E889,
3D65C1B5,
3D0479E8,
3D37B31E,
3A95B41A,
3CAB5E78,
3D2F5210,
3DE1B304,
BC04E0AA,
BD01448C,
BC7484A1,
BDAC4DF5,
3D405CEB,
BDA86A2E,
3CEF4BD4,
3D3E009F,
3C5AB990,
3C6B046D,
3C2879CA,
BD1D25BC,
3C6C9326,
BD6BDF74,
BD0076E7,
BD765743,
BD603728,
BD0A8A26,
BC386A75,
BD3E5BB8,
3C8FBF7D,
BD0702A7,
BE0F4FC5,
BD4242C1,
BD25C221,
BD127F15,
3D4CC87C,
3DC81E79,
BD2EFF89,
BD2C8BBA,
3D593BB5,
3C536050,
BC66998B,
3C88B040,
3C868101,
BD892964,
BD04E735,
3B4B852E,
3A8F2761,
BB5AA27C,
3D597B1B,
BB90194C,
3C122AD4,
3D7444E0,
BD12CEA8,
3BA01CEE,
3D397B83,
BDA6CA83,
3C77C37A,
3C087ECC,
BD487095,
3C8C8D09,
BD39CF3B,
3D49CED7,
3C64E922,
BD3A24B9,
3C9CD511,
BD940265,
3CBB79DD,
3C99D5C8,
3D6A85D1,
BCDABB10,
BCF8145B,
BD21389A,
BD551741,
BD268FF7,
BBB78A07,
3C5628D7,
BC2A2DA5,
3D171F9F,
3B0B8F6A,
3DB14C8B,
3D974653,
BD54847C,
3C3527A8,
BD5C158C,
3D1E5CDB,
3C8A61D1,
BC94E167,
3C4443B4,
BCE4386E,
BAFD08F6,
BBC61D23,
BC6A553F,
3D96632F,
3D32B1CE,
BDB71183,
BBDC319C,
3D9B63E9,
3C5CD24C,
3D2BCC3E,
BD07247A,
3C52345E,
BC0EBB64,
BD179CC9,
BD393E86,
BD821FA6,
3C9489CF,
3ADACDF7,
3D152080,
BCD65957,
BB25F0ED,
3D14468F,
BBBEF896,
BBD4D79A,
BCCAF9E5,
BD2B97EC,
BC7A25AE,
3D91764A,
BC93E18E,
3D927D78,
3DAFC031,
BC4C3CC1,
3C406CCE,
BCB526FF,
3BA28648,
3D9A6096,
3D09B113,
BD9DEF2D,
BD00ACD8,
BD9227B5,
BC839CFB,
BE1C6437,
BE02A42C,
3C31F2F6,
BC6FC4FF,
BA96D27F,
3D5B8E7E,
3DC8A01B,
3D922879,
3CCDBAC6,
3C39E6CB,
3BEA6495,
3D5BBA16,
3C7251D4,
3BC5A9D8,
3D46E663,
3D818A8C,
3DA1871B,
BBB8CFDC,
BA54A3ED,
BC2249CD,
3CD056FD,
BD48B94B,
BCB2CB64,
3D8C9353,
3B3262B8,
BC031054,
BD27E585,
BC162ABC,
3D0050B0,
BD614657,
BD45CD5F,
BCA0CC25,
BD4F364E,
BC3CE274,
BD1B8972,
BE0BD9BC,
BE183ED8,
BDC72AA9,
BD2E5060,
3CC34958,
3C95CA84,
3CF1D9D4,
3DA91C64,
3D947100,
BBD638E4,
3D6D5918,
3CE70A6D,
BC94B617,
3D65C918,
BCC1350C,
BD11E66A,
BD84670A,
BE0B31CB,
BDF183B3,
BD829624,
BC08508A,
BDB289E5,
3C9B979A,
BC7E89C9,
3D1ECCEC,
3C7D471E,
BCBACF69,
BD704D99,
BD4B60E8,
3CA35490,
BD825993,
3D52118D,
3DE7D814,
BD093E6B,
3CA5F38D,
BD1346C1,
BD60A81D,
BCB45BE3,
3CAE409B,
BCD18F1C,
3CA47A2E,
BBEE7133,
BC9790D5,
BD20D802,
BB87FB83,
3CBDAF9E,
3BE24B87,
3C123C98,
3C0E7A06,
BCDD50E3,
BD64F9BC,
3D1D29E6,
BCC7AAE1,
BD32158B,
BCC111C8,
BCF5C1CE,
3C730124,
BD0F7633,
BD041821,
BCE97556,
BD7C7FFD,
3B1C3F27,
3D2A1031,
BCDBA660,
3DADDE97,
3CF6E492,
3D697C4E,
3D36D55E,
3CE278A3,
3CE37574,
BDC9E204,
BE0A0220,
3CAC0F97,
3D6CD819,
3DBB6FB8,
3D8DFB66,
3DA49AFD,
BD7977AA,
3C8E4ED6,
BD958DB2,
BDC2E940,
BDAAA4D9,
3CFB0550,
3C940B18,
3D03CD14,
BC84732F,
BD521194,
3D1E3AF2,
BD8F9E5A,
BD82A250,
BCD17664,
3D962964,
BDFFDFD9,
3C97A901,
BD718F4E,
BDB291C1,
BD053286,
BD9B5015,
BD92F86A,
3B104BC0,
3C1F5FD3,
BC6346E2,
BDE21F97,
BD872A80,
BC9AEEAF,
3AC5085F,
3C8B1519,
3DA9E2A5,
3D81D111,
3CB648FE,
B90347CA,
3D24D287,
BD011656,
BD9D778C,
BB656CA7,
BE215861,
BD14A809,
3C8E6BD9,
BCF38EF3,
BD4EF210,
3CEFD7AD,
BBBA138F,
BB83E2DB,
3B6403EE,
3CCC47AA,
3C9DF682,
3C9FF763,
3D0906B6,
3CD2186B,
3DB8AB71,
3C3DE8B9,
BD560B4A,
BBA79D78,
BD6CDB71,
BB193FC6,
3CAF02BD,
BB51C075,
3CB204A3,
3D2BA876,
BD912870,
BB1B331F,
BD80C4CF,
BB214C9A,
3D75B8FB,
BDE19DA1,
BC3348E9,
BD78DA00,
3CB46E04,
BCDE3D12,
BAEA28E9,
BD55CF6F,
BDCFDBE0,
BD6032F5,
BD0C860A,
3D7CEE06,
3DE0C1ED,
3BBC35F2,
3DBFABCA,
3C84E3F1,
3E1BB985,
BD26F76C,
BDA9DFF1,
BCDCE427,
BBF57831,
3BC33B4F,
BDAA8606,
3A846215,
3CD8CAF8,
BCCAB6B7,
BBDA9797,
BB118063,
BC4C412F,
BCF7D3AA,
BC90B7D6,
3CAD37C9,
3C9F4EF8,
BC9ADBB6,
3D3F1FA1,
BD28CB48,
BD884AD6,
39C1D102,
BA2003F4,
3CD67C16,
BCC01961,
BD96C3D8,
BDA571A9,
3CAC6029,
BC989116,
BC1F3304,
3D460280,
BD4951D6,
BA6FC82E,
BD650B26,
BD938E5C,
BBB94EAC,
3C99C418,
3D1F3990,
3DE2C21E,
3C969E53,
3D3071A6,
3C0F9F1E,
3D959CF2,
BC2FB215,
BDB9E374,
BC5EDE2E,
BD246BD4,
3D4DD081,
3CB46B5F,
BD940E1B,
BA81C185,
3AC0291D,
BD470FA9,
3C7D49BB,
3C9F4DE0,
BD9E3FA5,
3D4F483B,
BC697B17,
3CEFB187,
3D58843D,
3CE5CF47,
3DEC3272,
BCB1F7C5,
3C8C960D,
3BC2ADB1,
BD7530A2,
BD109561,
BCF7E5B3,
BD1FCCC2,
3CAF18EF,
3CF43019,
BD309BF3,
3C9D01A3,
BDA5A1BB,
BCF936F3,
3B9E05E2,
3B9F4EB9,
3CFBEC85,
3CF93737,
BB731202,
BD888754,
BC887EDC,
BDD546D3,
BCC4EC9C,
BD78E2AD,
BD57EB96,
3DE1265A,
3D10D12D,
3CF6A836,
3CD3C270,
3D8AD0D9,
3E1E4A7F,
BC849084,
3D164E9F,
BC9DECE4,
BD8D1C57,
3CFFD71A,
3C1D0FF3,
BD30613E,
3D945E39,
BD9710E3,
BD6511F8,
BCAAEB1E,
3CF3DB5C,
3CA3E276,
BD7F64A4,
3D080716,
3CD47B5A,
3DA56454,
BB40A696,
BD200157,
BD89AAAD,
3C05430D,
BCF11FFB,
BD6B2B44,
3D8FF369,
3D5B373B,
3D5E02DF,
3DDEC958,
BCF5A921,
3D646C00,
BD38F3E4,
3D1CCAA0,
BD0F288B,
BC6043F1,
3D86506D,
BCDE0514,
3D009830,
3D921E9E,
BD962B03,
BDA8F2F1,
3D1F3F03,
BD75A623,
3D253D11,
3D085C5D,
3E03B561,
3D25D2DB,
3D8420AF,
BD0A7E00,
3C8D0C98,
3DB15AAF,
3D88607B,
3D181283,
3C8820A6,
3D00D9AB,
3B56469D,
BD85B6DA,
BD86A60D,
BDA86921,
3D0066AC,
BDDE01C9,
BDC95E00,
BC020E79,
3DE48FAF,
3DAA802D,
3C261057,
3CBC43FC,
BC6A089C,
BC56A3D9,
BB8BAA91,
3D7A69F4,
3D72E35D,
BD4B7335,
BC7010D7,
3B9BB263,
BD7AC2BD,
BDACAB07,
BCC7EC47,
BDA6BD17,
BDB79AAA,
BD2ED515,
3C715C73,
3CDB228B,
3D1A4F82,
BDA02641,
BDBECE7F,
BDAAE7C7,
BDA7A45F,
BDAFF68F,
BD816685,
3D0CF235,
BCD417DB,
BDAB06E0,
3D30A862,
BDBDBAC1,
BDAE23B2,
BC3EB503,
BE126A97,
BDDA8271,
3C9BF199,
BD0AF51A,
BD39EBCA,
BC86A2F1,
3CCC5207,
3C2D9E6F,
3DCB45C6,
3DB30987,
BD17F42E,
BD3511B4,
BBDCB123,
BD1DCBEA,
BB63635D,
3CF71D35,
3CA93337,
BD1AEBEA,
3C6BCEB2,
3D5C93A0,
BDBE6165,
BCEB64DA,
BD22038A,
BD6EDDCA,
BC8406C5,
3D376298,
3D2ADEE2,
BCF5F2C2,
BC2F4E6F,
3D03A8D7,
BDC90942,
BE0D7E9D,
BDB675CC,
3CDDB89B,
3C9BD148,
3D1ECBD8,
BD1CED8D,
BD6239F8,
3DBBE3C7,
3C842306,
BC94284A,
BD983457,
BDE2984A,
BDA4BB30,
BD2D9DB1,
BDA44E86,
BDE6B17C,
3D83C659,
3DB85727,
BC36082F,
BC1354A2,
3D852ED6,
3CAB4018,
3DD2E867,
BB070DAA,
BD2EEA86,
3D979300,
BD8D590B,
BDE0093A,
BD52D74E,
BD483B6D,
3DAC980C,
3CA0B5D8,
BCA237C7,
3D2DF7EA,
3D81C203,
3D47ADAA,
3D4A633D,
3D5F2BD5,
3D937A1D,
BC9AA5E3,
3DD8BCA6,
3D548CEE,
3D0CEB9F,
BE0CBAE0,
BC9A009B,
BD8E8422,
3DE35608,
3C379B7C,
BD8D8BAD,
3CDC9DF0,
BD8C96A3,
BE035054,
3DCBF7CC,
3BC8A425,
BD62FD22,
BDC382D0,
BE0DA324,
BDB28400,
BD454338,
BD4A3CD0,
BCFD45E7,
3DF6ED43,
3D61B178,
3D363615,
BCA44B83,
BD8DE3F6,
3C8D1187,
3D151944,
3C6B4E4E,
BD411E25,
3CE1BCA2,
3D80582D,
BC216CD4,
3DBE8CD1,
BD93D147,
3C847D3D,
BD33B0E0,
BDBB88AC,
BD67A2FD,
BCB46505,
BD56749B,
3C41C8CD,
3D2A1DD5,
BD8BD6FD,
3B2C88ED,
3DB0DC81,
3CDECE24,
BBE2C4EA,
3D2DED1C,
BD03B846,
3CFFE281,
BD034ADD,
BCE765C5,
BB29428B,
3C01BAB5,
3C048579,
3D30046B,
BD95CF04,
3D2043CC,
BD17A723,
3D07C43C,
BD78DDED,
BD0C8219,
BCDAF816,
BD579614,
BD5AAE51,
3D2D1D0B,
BC64D764,
BD267AF6,
3D346803,
BD0B911F,
3C328348,
3CF89185,
BC9921C9,
3CD018B3,
BD562183,
BD06BB26,
3C26694F,
3D4CF098,
BC21AA46,
3D82757B,
3D4EE851,
BCE2377E,
BC5FEF84,
3D07EBD8,
BC057388,
BCB5ED14,
3D8B4EDC,
BD026C82,
3D375B40,
3D1E2359,
3C7D8007,
3D85E021,
3C8E5D36,
3DE9FED2,
3DB6905C,
BD8957F8,
BD2C38A9,
BD6AE0DA,
BCA34618,
BD67B915,
BC32C963,
BD0D9D17,
BD17B199,
BCCD7F8E,
BDCDA36F,
BCBD843F,
3D941BDD,
3CA5FD40,
BDE5E3B3,
3A843C8E,
3CCCC3C2,
BD745BDB,
BE361B76,
BC93E719,
BAFA9BFB,
BD1C044A,
3CA99BCE,
3D5FAED8,
3DE65D86,
BD9756DA,
3D2A83E1,
3CB17A5A,
3D719A37,
BBE43905,
BB726D23,
3D4ACE56,
BCE44E76,
BD7C4D38,
3D016CF6,
3CC86F6F,
BD42876A,
3E021B7D,
3DAAF322,
3A320DDB,
3D349D5D,
3D0BC344,
3BAB50D4,
3DBD5881,
3D975C52,
3C46A1F8,
3D00D7A1,
BC8EBBA7,
BD61E788,
3CA57641,
BCB2B34D,
BCA3D7B1,
3C9F8E44,
BD18F73A,
3CC53990,
BB19C9AC,
BDE409E1,
BCCDF67B,
BD762F92,
BDC60CC9,
BCE0640A,
BCBE95ED,
3B3E7945,
3C4C9E4D,
BD623959,
BDC7B66A,
BD349FDA,
BD1E9720,
BD5F661A,
BD26637C,
3D396AA7,
3D6A4B00,
3D84FDB1,
3ADC8B3C,
3C0E0BB3,
3B153E58,
3CF710F1,
3CDF29C8,
3C6CE011,
3C9427F2,
3C3AF2B6,
3D3220A0,
BC8BD2D3,
BC0EA615,
3B6D2EE7,
BCC00F9B,
BD84138B,
3B622BEC,
BB34A99E,
3CC6C2F6,
3D49415A,
3CD26E74,
BBDAD037,
BD157D73,
3D324E89,
BB87BDB6,
BD5E3EAB,
3C587D5D,
BDBDC70B,
BD512EAA,
BDD53F33,
BDA6605B,
BDCA4BC9,
BDB98934,
BC9A5DBF,
BD8E48D3,
BD9ED91F,
3D01AD38,
BCBB855C,
BD8E2F8D,
BC9381F8,
BD6D8894,
BD868906,
BD8CFF76,
BD895A67,
BC9622E7,
BC6BD7B3,
BD5B3E00,
BBD1BD15,
BCE80F2D,
BD25ECA6,
BBFED07C,
BD11B776,
BD9F5941,
BD78256A,
BD8BBD0D,
BC230599,
3C98AFB5,
BB67898D,
3D69A294,
3C728B2C,
3CA239D5,
3DDB7841,
3D29123C,
BD777917,
3DE9EC3E,
BDB36D4B,
BD671384,
BDF51CF2,
BD98BFBB,
BD1032F5,
3B9B097A,
3C06CDDE,
3D06565B,
3C4BA221,
3D59E706,
3D741121,
3D8BD26F,
BD588995,
BCF0CD6B,
BAB9D20B,
BD1C13C0,
3C27882F,
3D1E248F,
BC7AA1F3,
3D3CAACB,
3D977713,
3C3AE365,
BD1C1857,
3C8A5B81,
BC8DD8C0,
BD2C8045,
BD3E3930,
BC7D26BB,
3C8999C8,
3BD49066,
BC7749E8,
BCE63D43,
BD5EA64D,
3CCB6B37,
BCF7F806,
BD82A630,
BD067336,
BC78CF87,
BC82B5D8,
3DA78F25,
3D48F1F9,
3DB09DE4,
3D8CAC7D,
BCCFA3F3,
3D1D8BAC,
BD657F70,
BD748F5B,
BD2201AF,
BD119F5D,
BC22B8D8,
BD2AE0E8,
3D52E4E6,
3D4F41D8,
3D1A8B9F,
BCEB8341,
3CB28860,
BD4DD416,
BD27A53B,
3C144F50,
3CC5A487,
BD3C9F5B,
3D615841,
3BC294EB,
3AC2C623,
3CE17FB8,
3D7B162E,
BD092CAD,
BD8C60C1,
BDBF0460,
3C8459DF,
BC30AE37,
BB945F77,
BCFB922C,
3C9CAC4E,
3C36C473,
BCC20A6C,
BD1386EE,
BCE8D294,
BCFBA8D1,
BC95379F,
BCFB1D0E,
3D64DD13,
3D629D4B,
3D002C5E,
3D9BC683,
BC2750BD,
BD347F30,
3C8BE0C6,
3D5422F4,
3D238729,
BD0A57CC,
3CD30F59,
3CCEA99E,
BD81EFC2,
BDA85A0D,
BCCBC0FF,
BC814CC9,
BD3A4E9D,
BCA9AF8A,
BD3190BE,
BD88AE5B,
BD3D7D4C,
BD4850F0,
BD4911E8,
BD247B4B,
3D470CEC,
BC5738C5,
3C041A7A,
BD9BABF3,
BD58C0DF,
BDD58C9E,
BD9F0D24,
BD41CB8F,
BDAE2D3E,
3CB5D363,
BBC88042,
BC0BE2BC,
BC13AD8E,
BD18861C,
BD9663B6,
3D85A931,
3B673E32,
BC1A3CA7,
3D051F58,
3BBE54D1,
BC216F4E,
BD25BF7C,
BC9E815B,
BBF10FFD,
BD93428B,
BC06A0FE,
BAC229E3,
BCEB67F1,
3B3B615A,
3CB4D9E5,
BD236BCC,
BD3A7C60,
BD5AD5B8,
3C2641F7,
3D48A395,
BD15ADA3,
3CEE9D0F,
3CCFC5C4,
3D283586,
BD48AE1F,
BD231644,
BBD02502,
BD93F0D1,
3BD6AC1C,
3D970F53,
3D8A3429,
BDAD3A81,
3C183585,
BBA26F81,
3D2E1190,
3D1C3D7F,
BDA24A6F,
BDBA1659,
BA433FD7,
BCEF167F,
BD2D820A,
BBF2E1FA,
BD4C3F4E,
3BDAFF91,
3CBB16D3,
BC6728C3,
3C22605A,
BC8FD3EC,
BCD91B59,
3C7FD3B2,
3D996814,
BD235EC4,
BE055933,
BDCD7026,
BD4892FD,
BD34F5CB,
BC835994,
BD183BAC,
3C81FFED,
3CA0D8D1,
BCFCD679,
BCB62E04,
3CE365E8,
BC856BCA,
3B8DDFF9,
3CB03C84,
3D344E8A,
3CD25D58,
3DB9E6F3,
3B0921B0,
3D4CFCFD,
3DC94135,
BBEB6875,
3CAB31A2,
BC20BA49,
BD752F85,
BD06C9A8,
BD8DA991,
3CA03B0E,
3BE39359,
3D21EE9B,
BDAF0C8F,
BDDEC104,
BBFBD745,
3D5D9BE6,
BD0C7C5C,
BD2A9993,
3D7E578B,
3B1C162C,
3C989685,
BD574A32,
BD0165F2,
BBDF27ED,
BC929F45,
BCB78D11,
3C7BBB68,
BC08EFC4,
3CE5F85F,
BA885355,
BD9878CB,
BD14CF5A,
BD9AF54A,
BD03DC1C,
BCF8F22E,
BD990D23,
BC0F2A5A,
BB88649D,
BD12181A,
BC1258CF,
BD400E97,
BDB0711F,
3D1E77F3,
3D6CCF69,
BD58310C,
BDC3E3E3,
BCDA461D,
BC758FDC,
BE434944,
BE196D53,
BD3206A4,
3D1B922A,
BD52B00A,
BD9E6464,
3D052481,
3D385884,
3E034FAB,
BDAB549C,
BE4DE562,
3C1CFE97,
BCB18691,
3C8B60ED,
3CA66774,
3CA00A9E,
3D029BE2,
3D2C4E96,
BCE66506,
BD748147,
3DDCF45A,
3D892C1E,
BD2C7C7A,
3C4FF1D3,
BCBC4D46,
3CE2B465,
3B29049B,
BCC14F73,
BC2F49F3,
3D21D524,
3D1D737C,
3C28E13C,
BCF08CE9,
BCB0A707,
BCCFB173,
3D832595,
BC6CA382,
BE148E7A,
3D0D3737,
3D8BDEA3,
3B15E095,
BCE6461A,
BD107EE5,
BCC1C7C9,
BC603256,
3C98C953,
BD5B864D,
BD9ED65D,
3D89E9E2,
3E03D5A2,
BDA7A53C,
3C99654E,
3A378B91,
3D663DFA,
BD71586C,
BD4CD7C9,
3CF9AE51,
3D600632,
BD68630D,
BDC873C3,
3D808BAE,
BBE5B9B2,
BD4B3258,
3CEC678D,
3DBB6193,
BD1DB477,
3D44DBC0,
3D6D5BA0,
3D26ECD5,
3D7F140E,
3C03ACFC,
BD574E5A,
BDA956E4,
BC8A9B44,
BD8AA106,
3D743695,
BD4D387C,
3C2D5602,
BDC38A78,
BDEC67E3,
BD815455,
3DE5F71B,
3D296035,
BD873799,
3D71D0CF,
3D1D4C01,
BD38CA22,
3CD66CF3,
3E01546B,
3D3D95AC,
BE135F6D,
BD07E383,
3DF02A1B,
BDB0CF73,
BCD5C28F,
3D8326DC,
BDD000A6,
BD5BC129,
3D9257B1,
3D2B5D26,
BDFD4795,
BD1CA874,
3DBB0194,
3D467771,
BC48F634,
BD29DD3E,
BD47FB22,
3C6F3750,
BD1A54DF,
BD97889D,
BE0AA2C3,
BD729E60,
3C76A12A,
3CC1012F,
3D7F0938,
BE134D0E,
BE8DA6D5,
3D99D628,
3E2FA8D0,
BD40F311,
3D80F341,
3E38FD25,
3E1E469C,
BD328007,
BD73F431,
3C9BBC96,
3D72CB33,
BDC0AD86,
3CA3E3CD,
3D8D36BB,
3D0D60B5,
BC50221A,
3DD9D3D7,
3DD248C5,
BC9567F4,
3CB80D49,
BD45FE3F,
3D71258A,
3D9D6F9D,
BD1FEB85,
BD818FF9,
BD0D49AA,
BDFA9B7F,
BD6E62EE,
3CF48F4C,
BD28666D,
BD4AEB25,
3D13AC46,
3D96136C,
3A312394,
3CF67E32,
3CD1CB68,
BC9D4795,
3D07CD8B,
3D5331AD,
3D08063C,
3D7AA51B,
3DC3622A,
3D6847D4,
BD30D5A1,
BC7ECD9D,
3C74AA66,
BD96185F,
BDA7E1E5,
BC3286C8,
BCA566D4,
BD53E695,
3D1BF0AA,
BC9CC5E3,
BC56D023,
BCEEE38F,
BD6AC8D9,
3D023801,
3D2AEF8D,
BDB468DA,
BDBD4AD0,
BC4C4D40,
3C74CEB9,
BCEDC021,
3D0BB322,
BC99BBE4,
3CB9266D,
BD4A8D1F,
3CDA6414,
3D9A0217,
3D5D0902,
3D049CAA,
BC99DF06,
BB43406C,
BDAD8312,
BC7F0B3F,
3C8AF24E,
BC17A93C,
BC5FED9C,
BDB085E7,
BD3AA5A6,
BCD79F76,
3D47308E,
BD0FCC61,
BC8617D9,
BBE6BDBE,
3D802C06,
3D7F4473,
3BB39503,
BD90C21E,
BD7883F3,
3D960B25,
BD7E9EF7,
BD88755B,
BDF8F147,
3D7B3802,
BB00D02B,
BD02B96A,
3D0A3F70,
3DA1B179,
BB9C209B,
BD6D2EAB,
BD0479F2,
3DBBC8A2,
3BA2FBA5,
BD3B69EE,
3CFF3EBB,
BD318EF3,
3C2B4C78,
BDD1A465,
BC11B8DE,
BC6E74B0,
BD808B1A,
BCBEEA7E,
BBE2D4E1,
BCFA2D3D,
3D62F212,
39098CA5,
BD9C8698,
3CD60962,
3DAEAABA,
3CEBDA73,
BCD22A31,
3D9E0B9E,
BBA5A694,
BC92DC94,
3C953374,
BDD52401,
BD9BC0FD,
BDEAF1CF,
BD8A361B,
BCF1D2B8,
BD190CBB,
BE0C7DD1,
3D09CE4F,
BDD62057,
BE0A8859,
3BBC4D72,
3CB007BA,
BCACA66B,
BD8349FB,
3C101C57,
BCF4C22C,
3C6BC0CC,
BD4F969B,
3D2DBA95,
3C3F7905,
BD773452,
BD455C88,
B9C1CCE6,
3D43B7D9,
3CA57792,
3D83DEBD,
BC123F0F,
BD7153BE,
3C0E8277,
BB0379BE,
3C03012A,
BD368E5B,
3CE19F92,
BD6690BF,
3C85AD6A,
3C82F951,
3C433ADF,
BCA6D901,
BC3207E2,
BD875FEC,
BA217FE8,
BC8C8FA1,
BD8D2F01,
BD1EF242,
3D46574A,
3CF129E5,
3D76AA1B,
3DA6A7B0,
BC8236A5,
3D30A2CE,
3D97189D,
3D0CFF5B,
3B5FFCC6,
BC274EBB,
BB9CBD99,
BC2740F7,
3BD1CAD2,
3BAA980B,
BDB7FA86,
BB2B9044,
3C46DEDB,
BC7033C9,
BCFA112A,
BD0160FF,
3D08713F,
3D367135,
BCC27339,
3D8D18BC,
3D38B6A3,
3D08B0AC,
BD8E4EA8,
3C31C829,
BC9EA5B9,
3C88632B,
3D780D52,
3CB6313A,
3D19E3C6,
3D4861A6,
3C48D872,
BAB974FE,
BBED61E4,
BD519E61,
3CDFF2BA,
3DB2D176,
3D2893A7,
3DBB6932,
3DA25FF8,
3D718051,
BCBF3208,
3BE1D6F8,
BCBE5B91,
3D9B9F33,
3D3F1331,
BB573634,
BE189D04,
BE077087,
BE144F46,
3C2475B2,
3CE550EC,
BD301FAC,
3CE7AFDF,
3C7BA92E,
BD81E85A,
BDD2155A,
BD6C0F67,
BB3E54CC,
3D0C9E07,
3B82AA61,
3C6B67C8,
3C8FDA26,
3C94AEE6,
BD5C4959,
BD6F2344,
BD9D1074,
BDE7D638,
3C816C6A,
3C5A7CDA,
BCE97E1C,
3D413135,
3D0044C2,
3CB9972E,
3C0684D1,
BCD28681,
BD5E0DC3,
BB0C2BAE,
BC433645,
BD8E8BFA,
3C6E884E,
3D8019FC,
3D6ADB9B,
BC23C959,
BD46110E,
BCEAC3A8,
3BA79609,
BD2B7AF7,
BD15819F,
3D389BCD,
3DA9E0BF,
3D950385,
BD699875,
BD128068,
BCB02540,
3DE88D42,
3DCAF64D,
3CB60DAE,
3DC949FA,
3D8EAB19,
3D2E4927,
3C1F4AF0,
3D69B7CC,
3CC770DD,
3CE5D301,
3D5E47E7,
3DB80E30,
3D90D0E8,
3D19AD57,
3D860DD6,
BCEB4F5D,
BD0FB63E,
3C6A5EF6,
BDDDC0E7,
BC967744,
3D788C2B,
3A90E81C,
3CBB6A9D,
3D2D40F1,
3C9FB049,
BC945194,
BD0C9EA3,
BCA8C85E,
BA9F118A,
BD10450D,
3D732B9E,
3D4D8588,
3C4C096B,
3CD43D0F,
BCC788DE,
3D0ECB9B,
BCB34D68,
BD82A6A5,
BDB7D4AB,
BC9415F7,
BD765FF4,
BDA1FA4D,
BCC226DC,
BD351B77,
BCB46E99,
3C2CD246,
3D83B971,
3D4D8BEF,
3D1A9570,
3D7D0404,
BCF2F2ED,
3C5D8808,
BB886A29,
3C4B36E7,
BC1E90D3,
3C75423F,
BD24CAFE,
3D1B85AB,
3D27786C,
BCC46A83,
BD985A35,
BCD4A974,
BD1F3217,
BD77EA9C,
3D10E1EB,
BC77C431,
3B98DD0B,
3D813EAB,
3C93DC55,
BD0F21BF,
BC825187,
BB9268E4,
3C36A675,
BCB6B052,
BD8C7F36,
3CC0EE5B,
3BD34B0B,
3D71EDA5,
3CC58374,
3D355020,
3CED4A92,
3B2592D7,
3C828199,
3D43C14E,
3DAA0F91,
3D3D1C48,
3C2B6EE2,
BD3528CA,
BD6B0FE5,
BD20578F,
BC38B4B6,
3CA51F26,
BCA490AF,
3C8A9D48,
3D5743D5,
BCD6DCDB,
BD5F5B99,
BD6BEECA,
BD08E76D,
3A656772,
3B8A709E,
3CEF7B9A,
3D1A256C,
3DA1FBD5,
3DECB02B,
3D097635,
3CE64F51,
3D2362EF,
BD87C08D,
BCCF1895,
BD34217D,
BCF9EA65,
BC4515B7,
BD9C7856,
BD9B3528,
BDE598A0,
BDBFF168,
BCC52E4B,
BD5FC94D,
BE15E300,
BC688ACD,
3CE26F74,
BDA3FAC4,
BB6F5F4F,
BB7B214F,
BD1EF8B3,
BC590E29,
3C35084E,
BC650D65,
3D63DADD,
BB2E41CD,
3CA41466,
3C25D888,
3CA30D53,
3CC254C2,
3CCFBB96,
BCE4749E,
BD90CF12,
3D3C9764,
BBBCB4A7,
3CBC5ABE,
BE059D47,
BDAB45E6,
3C3B4396,
3AE0B7E3,
BCE6DDA0,
BDA8230D,
BDC948BF,
3CBD3716,
BD1FE92A,
BD3F90D2,
BB5A2C70,
BC9DF01C,
BCBC2131,
3D00957E,
3D6EC053,
3C3D03FC,
BBB620D0,
3D1EAA98,
BCD67767,
BB3BA634,
BD592270,
BCA21868,
3D4B3AF0,
3D5D5857,
BCEFD54D,
BD27AD4F,
BD9DEAE3,
BD59B69C,
3CA7C80B,
3CB2E679,
3C792787,
BB3EE86C,
BD47FDEA,
BCCDD22B,
BD5153FC,
BCD903D4,
BDAC350F,
3D4C0E60,
3E2264D0,
3C64D143,
3D610A60,
3DBCFE61,
3D9DF694,
3D4E9B7A,
3DA1FAD0,
3DA21D2A,
3D8C5F79,
3D0F5E1E,
BDE24B4E,
BCFF8852,
BCD4D23A,
BD999DAF,
BD3FD376,
BD8F248D,
BCBA5CB2,
BD3208EC,
BD8DD754,
3BA3F188,
BD0620BE,
BD26B018,
3D1ECCA9,
3CAD4041,
BDD8BA7B,
BDEE1FF4,
BD7DCC16,
BDE5A15E,
3B1E45B0,
3CB2FF02,
3DA8CA82,
BAEEBE4C,
3DA45768,
3C51DB95,
BD43CCAB,
BBA611FD,
BD3896AD,
BD8058EE,
3BA02806,
BA9E92EF,
BCE44CA6,
3B91D4B8,
BCCD2B00,
3D28BBD2,
BCEC7D58,
BD8FE18E,
3D735FC6,
BC94BFC8,
BD4451D7,
BCF547B4,
BC807B62,
BD81C7A0,
BA3B3F51,
BB4B2956,
3C7ED16D,
BD2C499C,
3D2F68CA,
3D76680A,
3C6E03E9,
BCA8D505,
3D4308C8,
3D018754,
BC5967BA,
BC9A3007,
3D8232B9,
3C914DF5,
3C85CAAF,
BD036E5F,
3C5CCA4A,
3D017373,
BD94CE6C,
BD77756A,
3DD95A4E,
3C88D7C0,
BCB28541,
BC54CE68,
BC8C94B4,
BCE50DD8,
BD8F29FD,
3D2B44F7,
3CAD5726,
3B9F857A,
3C80B38C,
3BFA2360,
3CFE29CC,
3D856CE3,
3D2739EF,
3CC4550A,
3CBAEA86,
3D4FBC9A,
3D5E54DE,
BC3DD4D9,
BD51BE2A,
3BB00C87,
3BFC9F2E,
BD970F2F,
BC4467BB,
3D217D10,
3BC277F7,
BD521D6B,
BBA7143D,
3C1BEB4F,
3C9275CB,
3CB6FFC0,
BB12622A,
BC4E6A17,
3D92A6AD,
3D2DBECB,
BBC5DDAE,
BC8056EC,
BC838F61,
3ABAB56B,
BD9CD494,
BC96D767,
BD8A8D58,
BD0F2758,
BC6C874C,
BC0496E7,
BD5852F9,
3D4E85D4,
BD60048B,
BB7B333F,
BC56F6FD,
3D61A280,
BD4795D4,
BD34B695,
BCC173ED,
3C3B5054,
3CED710E,
3DB1E53A,
BD0B709D,
BDBDDAB1,
BCA09BF4,
BD93A9ED,
BD932FE3,
BD824204,
BD562CDD,
BD32B319,
3C25463D,
BD7FA61D,
BD70F19B,
BDA0B708,
BB9A47E5,
BD429371,
BD94B0C5,
3D0C3A5F,
3C813724,
BD600C8F,
3CDC4F9E,
3C9E66D6,
3D34D86C,
BD8F9C7F,
3B90B4C8,
3D8B232A,
BD1B5B55,
BBDCFE82,
BD5D0CA8,
BD0230F1,
BCB08095,
BDA35D47,
BCD5B075,
BD854F52,
BDB005A0,
BD7B6E9F,
BCF12E08,
3CF33381,
BD65EA6D,
BE0E0769,
BD98571C,
BDF82CEC,
BDE91722,
BD8DF7CE,
3D049915,
BC65E75E,
3CA4D02B,
BDA27DE4,
BDEE8DF8,
BDA8236E,
BD93ACCA,
BE18A5EE,
BDFC5860,
3D41455F,
3B88F841,
3D52D879,
BD3257ED,
BDAF5557,
BDA972A2,
BCDC9AC6,
BE0827A6,
BE098B97,
BD375B91,
3C14A1D8,
BC9DD2D3,
BDDCD4F9,
BD97FAF6,
BDC59C2D,
BD4AF6EB,
BDDD43BA,
BE08433B,
BD26AA6B,
BD3AC54D,
3CF1CC81,
BC9DF49F,
BD4E59EB,
BD49ED78,
3D6FEBF6,
BC26CC54,
BD339B69,
3DDF1425,
3CB40ACF,
3D633324,
3BF031AB,
3C98B1C2,
3CF43A47,
3CA9D9D3,
3D52AE6A,
3D686556,
BC8F1DDA,
BCA5CAA1,
3CB0752A,
BCDF7ECD,
3CE3C8F6,
BC854809,
3C1D739D,
3B82F850,
BCDC8C55,
3D977649,
3D5E3430,
3D9B62FF,
3CED8CD7,
3BE9A7D6,
3D2061D9,
3DAB6869,
3CC5955A,
3D8F8D8A,
BDBAD350,
3D57A8B3,
3CF75159,
3BADA3E8,
BD23BCAD,
BD56F9D1,
BD08EC10,
3CD17F89,
BD152E36,
3BD93EB9,
3CE37735,
3DBDDA33,
3CB7EFF7,
3D9C5E51,
3D437F40,
3CA8FB86,
3D908F63,
3D81E00F,
BC7F02CA,
BC31AC7C,
3C2C2C90,
BC829962,
BD29BA1A,
BCE3820F,
3C0A0A75,
BCAB6698,
BCF4887D,
BD866755,
BD9B31EF,
3C6854C6,
BBF65D00,
BD95926D,
BD4B1198,
BC8C0251,
BC8B1967,
BC265426,
BC182D8C,
BC97584B,
BDA338BB,
3D117316,
3D586B80,
3C6373A0,
BC5F8F76,
3CE59D26,
3ABDCB38,
3C12E62D,
BAC22E60,
BD91A806,
BC17FC87,
3C693855,
BD6EAD49,
BCAEA510,
3C55E975,
BA629850,
BCDA3434,
BC4B7B3F,
3CE50A65,
3C1464DB,
3DF2EDCD,
3D72B99E,
BD3A7399,
3CBC968B,
3CF99DF9,
BD82E048,
BDA852D7,
BDA6C01E,
BD082472,
BDC7A149,
3C3F57BC,
BD7F392A,
BDB50DAB,
BD0213E1,
3CB73D00,
BE2CBBFF,
BD85D1F2,
3D9DBF65,
BD25CDB2,
3D82523C,
BC8A46C4,
BD9592D2,
3D6E20F6,
BD25D745,
BD6607C8,
3D302465,
3D0ED03A,
BD1B07F1,
3C814FA7,
3C24F3DA,
BBFC3847,
BD0D15D1,
BD5C54C0,
BAED228E,
3BD52B26,
BD97891F,
BD887C24,
3D8FE82E,
BD48B5C8,
BD71972D,
BD4C4A4F,
3D3191D2,
BD620173,
BD069294,
BCED7C40,
BD177633,
BD83026F,
BD1EFDF1,
3C9C4CD7,
BD7EC52C,
BE26800D,
BD84EF22,
BD23E2C9,
BDC6BE1D,
3D992DE8,
3DF98C30,
BE022397,
3D91C6FB,
3D4E4C9C,
BD70D03E,
BC24A9E8,
BCFA2A9C,
BD502A1C,
3D6E6BCE,
3D6A0BE2,
BDEF316E,
BD0630C7,
3DB447D6,
BD1DEB1C,
BD5E5809,
BD80A245,
3CA71F7D,
3D83EA11,
3E029B65,
3C0230AE,
BDC86CC3,
3D0222F5,
BB8FBAFD,
3D98323F,
BD1ED155,
BD2C2BD3,
3BB898A9,
BCDFD885,
3CC74DB6,
3C8BC6EF,
BD472ED0,
3C9F68B4,
3D63375B,
3BF4E13A,
BDAF1014,
BDA1B57F,
BDA7198A,
3CDBE24F,
3CCE6429,
3CD10EC1,
BDB5D814,
BCF9C8E4,
BCEFC215,
BCCFD08C,
3D271175,
3CE81FC6,
BCBA93CE,
3D992F56,
BC8FE303,
BCF6EF0E,
3C9A184F,
BD7FCEF4,
3DE121C9,
3DB89954,
3CB96834,
3D046615,
3C9C567D,
BC266FC0,
3D4DB335,
BD65290B,
3DDB4031,
3CFC74F1,
BAB56DDD,
3DD34E77,
BE33A121,
3C18A482,
3D79C970,
3DDEF7E0,
3CD06327,
3D8CD35C,
3C373E11,
BD9C5BB1,
3CB027C4,
3CC8344C,
BD2D0857,
3BBB128E,
3CF50650,
3D0DC5DE,
BD8F9D36,
3C7161EC,
3AB85211,
BD75B4BE,
BCCF4A2E,
BDAFA1E2,
BDADCA28,
3E0A9B87,
3D27C350,
BDB80DE4,
3CE58C8E,
BCADE5C6,
BCB38C13,
3D94DA40,
3CDCC610,
3D0852E3,
BC09035A,
BD8D199B,
BB93F68F,
3D56C6D4,
BD1302CF,
BCD0703A,
3D33191C,
BD35834F,
BBEAF388,
BD9AFBB4,
BD78A4B5,
BA70F0F9,
BB1F75A6,
BBA56CAD,
3D2A6034,
BD67D0CA,
BD6DF76D,
3D33939C,
3ACE414A,
BCC740D9,
BD1EBF99,
BD09BC29,
3D0E7DF9,
BC7CB1D5,
BDC1B46D,
3D060EB4,
BD66A876,
3D239BEB,
3D51B158,
3D824F95,
3D5E9191,
3C99E01E,
BCFBA44A,
3B3D2D75,
BCBA21B9,
3BFB187A,
3CDC3974,
3C646CAE,
BD1EB3EE,
3CFD1B3B,
3D742CD2,
BC62862F,
3C40C6D3,
3CCEC4E2,
BD12B3BC,
BD4CDEE2,
BD000742,
BD9883D7,
3CD9EC16,
BD2231F9,
BD089755,
BBF40534,
BD1F834B,
BD9A813C,
3CF1D243,
3A8DCC35,
3E04B815,
3D4A3C21,
3BDBFE22,
3D85B899,
BDBDBF53,
BD402D69,
3C3A9F57,
BD889575,
BCA4D127,
BC81269F,
BCFC3B6F,
3C955893,
BCB524AE,
BC8204C1,
BC45D1E9,
BC318224,
BC6B08E9,
3D224222,
BC2D2448,
BD31300C,
3CB3B629,
BD9A2B73,
BC2FD7D8,
3D658FD7,
BD947476,
BC34E5D4,
BD04C0E0,
3D57C62C,
BC46945E,
3D9219FD,
3D33CBA3,
BD77A1F1,
BD982EE6,
BD01C62E,
3BBAA218,
BDD16BB3,
BD83FC19,
3DFEAB3F,
BC7EAE6A,
3CF8B173,
3CC835F4,
BBAC9051,
BE03C0C3,
BCD87B90,
BD867A2E,
BD5847C8,
3BB4AB58,
BCAEDF0F,
BD7D4226,
BD45D60B,
BCE8179A,
3CBB2264,
BCAD3D51,
BD8BD96A,
3D23251D,
3B21144F,
BD2485C0,
3D6ABB53,
3D581779,
BB949A5F,
3B33DA4B,
BC17EDA6,
BD72A69E,
BDFA05BD,
3C97B7CF,
BC356200,
BDE51721,
3DB17C07,
3D9D3172,
BD999426,
3CB75347,
BD4CFCAE,
BDC5CAAE,
3C5A2473,
BDC866F5,
BD82166B,
BC6D4B4D,
BC448ADD,
BC1E119F,
BD092DE0,
3B69A093,
3D495C73,
BCB6B919,
BCACCCEE,
3CB5869D,
3B16DCB2,
BCBAFA3B,
3C806866,
3CFD78A9,
BC674A57,
BD127286,
3C1EF1EF,
B9B7F4C8,
3CB48DC4,
BA97D641,
BC986D49,
BCB54F75,
3CEA5730,
BCB2A552,
BD4EC797,
3C6EDA77,
3CA87397,
3A46384B,
3C523DF2,
3D80B633,
3C03745D,
3D5727F6,
BCA505FC,
BD960D99,
BC2FE781,
BD66C7BF,
BD1A242E,
BCFA255B,
BD4F6F8C,
3D8E7553,
3CEBFF9E,
BCA43404,
BCFD8A69,
3D33931D,
3C1860ED,
BB4584B1,
3D4E6416,
3B5948CE,
3C9B6366,
3CB95EFE,
3CC94E0E,
BD7A368C,
3D8DE3FB,
BC38C150,
BDF1F7A1,
3DA46383,
BD6C4C1E,
BD59F231,
BB4B52DB,
BCCEFA05,
3B02B226,
3C6185BA,
BCE13CEA,
BCEFDFB2,
BCB5A8B1,
BC22FF76,
BD24D0DA,
3CAD9702,
3C02A346,
BCCC6F24,
BD9D95C5,
BAFD3AD0,
3D21D1D5,
BCB94995,
3D17C755,
3D021AFB,
3D02527B,
3D4EE1AC,
3D0B1E3C,
3CEC1DA0,
3A7A4CB7,
BD638FB6,
3CB1461C,
BD617F34,
BD995845,
3C4970FF,
BCEC586A,
3BC3E462,
BD49C389,
BC89F13D,
BCFA7FC7,
BBC2573E,
BC8DD7A6,
BBC04F85,
BC56508B,
BDEF16B1,
BDA8A3F3,
BD9C234B,
BCD58A33,
3BC025A7,
3D8B053F,
3D899ECF,
3D42394C,
3D48A2AE,
3D0E74CB,
3CE00AD6,
3C0D3D3A,
BC3CE90D,
BCE9EA03,
3D25256F,
3D140836,
BDAC19E5,
3C6185EB,
BD2B4C88,
BC0D00DF,
BD012E58,
BDBA7CDF,
3C9031D6,
BD7B9F0C,
BD006650,
3D08CCD6,
BBECE878,
3C639FFA,
BD159A84,
3C88E70E,
BCC837AE,
BC4E7C40,
BBC5E73C,
BCBA7D68,
BD6C2BE9,
BD7FD1F3,
BCB5343F,
3CB45959,
BDA3C34E,
BD2AA121,
3ABB146F,
3C3E318A,
BC2E172A,
3C69968B,
3D8E0BBD,
BD3C438A,
BD97A9F0,
3C462408,
BD4B35A3,
3B5F9274,
3C6B48DD,
3C286504,
3D46BCB6,
3BDABCE4,
BD22F269,
3D22FF0C,
BB1991F3,
BD0E3123,
BCD92ADA,
BAC97C02,
BD54EDB8,
BC664C10,
BD01D9EC,
3D575CB2,
3D88CE2B,
BD64B9DD,
3D4236DC,
3C4120D2,
BBCADA16,
3C19F2FD,
3D2AD164,
BC9BBD3E,
BC734988,
BD07E9E8,
BD43FAAC,
BCECF65E,
3C986621,
BD24B952,
3D1E52CA,
BB4F9BDE,
3D39300A,
3D1556EB,
BD3BC80B,
3D8E476E,
3C5AB099,
BD8ABD9D,
3CE2403F,
BD005399,
BD0DCCF6,
3CA15FA2,
BD65E358,
BD95D0AB,
3CEDCF15,
3B9A84AC,
BC0460B5,
3D3757B9,
3D9BB966,
3CA501D8,
BD038146,
3D0547FC,
BD962D6E,
3D50AB13,
3C3DFFA2,
BDB12DD5,
3C93C74A,
BD13DACD,
BB8E0508,
3BD77C89,
3D2AD935,
BC970D98,
BCD168EC,
3B63AB48,
3C2B6FA0,
3DC514B0,
3D4EA873,
BD27A20C,
BD4B2BC2,
3BC9D8DB,
3C9C5365,
BD75829C,
3D0D325A,
3DA02610,
3C9990E3,
3D22091E,
3D40D7F2,
BC550576,
3D9D3734,
3CD0C744,
BC4A3F1B,
BA826820,
BCB4EFF8,
BC2D71E7,
BCA33EB3,
BCACAB7E,
BCB3D428,
BC128492,
3C2EFCB1,
3CDCC20C,
BCCD4361,
BC0F3A16,
3D37942A,
3C40E190,
BC39ED46,
3DC12C0A,
3C799130,
BDE6CED8,
3D9C93BB,
BD5E546E,
BD49B0FF,
BC8BD48A,
BDFA36C2,
3D31DE27,
BCBC45B9,
BD694D04,
3D2ECAFF,
BDD996E8,
BDA1F9E5,
3C8B4E75,
BCB40FC6,
BADC387D,
3C8CFF2C,
3CFEFC1C,
3B3C3E8C,
3C55B0C1,
BCDABD59,
3BA199AA,
3C8DE322,
BD4537A2,
BC58EA87,
BCC8A9AD,
B9C4FBA4,
BD36A687,
BCDAA11B,
BD07293E,
BD80ECA9,
3C199A2A,
BD05ED06,
3CC6B1E1,
3D2A07AB,
BCBC09F0,
3B27EA2A,
3CE38979,
BC0B44D3,
3B9870D9,
3CB4991D,
BC6EDF62,
BD0EBB3D,
3B074E68,
3AA89307,
BE193795,
BDAA5BCC,
BDEAF8F3,
BD2D70C0,
3D76AA79,
BCCB7DC9,
3CDCA6BB,
3D058070,
3D03B49E,
3C2A1D70,
3D6D5922,
3CE7A1BC,
BBF460AE,
BD3A1615,
3D9FE556,
3D8C4904,
3C6AEB1C,
BAED4C9A,
BC67A5E3,
3C38588E,
BBB1232C,
BD28D6B1,
BD6FD56E,
3D65A7B2,
B72DCD93,
3D9241E6,
3CBA8FCB,
3C9C4C2C,
3BBA9D59,
BCA9C2FC,
BDDBF1C3,
BD772540,
3C9257BE,
BDC29846,
BD801395,
3CD5DFEC,
3B139BCC,
3B888638,
BC8425B5,
BD128225,
BB07D595,
BC08E9C8,
BD150AF6,
3C2B31B0,
3CE6C3CD,
3B1A51F0,
BB8F1391,
3D0031EA,
BB09B486,
3CA03DE0,
3CAC5B17,
3D11347A,
3B06FD29,
3D485F0C,
BCA87406,
BD24471E,
3D96E49B,
BAF609E4,
3C05F4A4,
3D3E56B9,
3C588674,
3CC80517,
BC4136D8,
BBB67A7B,
3DDA6A38,
BDD37BE9,
BE483F66,
BDD4AAD1,
3D362DEB,
BCF863ED,
BE009352,
BD9A3FF7,
3D01FCB3,
BC8E50A1,
BDF6D425,
BCA8E525,
BDCA8B4A,
BD3E4AF8,
3D0F1453,
BD8EB30F,
3C199FCE,
3D260047,
3D0E44D0,
BA7E2CB7,
3D495980,
3CAFEEBA,
3CEE76CD,
3D94252B,
3D88D065,
3D9EF93D,
3D97F1E0,
3D8A34E0,
3D02E385,
3CA69E8E,
3DA2DEED,
3C6BF3C7,
3C41FBF1,
3C3B4B66,
BD04D971,
BA1CCC85,
3D0A7678,
BC07EC35,
3C825CB4,
3D89ACB4,
BCB019D0,
BD5D6D1E,
BD5AE0E0,
3BAD10EF,
3C89B25E,
BD1502F7,
3CE40C01,
3CB7D7F5,
3C5FC432,
3CC70329,
3C444A05,
3C829BA3,
BD9CE091,
BDD1F2AA,
BBD53F54,
BCA40516,
BD8FDD61,
BCD2D371,
3D28CC97,
3B690604,
3D98FBD9,
BD0490F1,
BC473BB8,
BCAAF7F2,
BBCB9F71,
BD77E7C7,
BDC82805,
3D101695,
3C817CA2,
BC1E3E67,
BD9F33D5,
BC982CA3,
3C5040DB,
BD1402E5,
BD65539D,
BD820456,
3D570472,
3D0EDDEB,
BD73E2AE,
BC8017DF,
3B64B106,
3D04875B,
3C4EE475,
BD1B7E08,
BD1F4E81,
3C29893D,
BC0F8871,
BB86258F,
BD03729C,
BD2DB0F6,
BCE336FB,
BC44194A,
BDBD82D3,
BD3B3AE0,
BC96CD28,
BD8B25B7,
BD90F815,
BCA92721,
3CCB8DC4,
3CFBD164,
BD9332A9,
BDC4129C,
BD51C3C2,
BC2702C5,
BB414A5C,
BD8EA549,
BD621C38,
3D488B5F,
BC6B38BE,
BDCEB665,
BCFA11D4,
BDA05223,
3D37A1DD,
3C94C0CF,
BBD9856F,
3CC111FC,
3CCFA4B5,
BDB1F72F,
BD2D20E9,
3B6A2DF9,
BD84783A,
BD34E5C5,
BCE46918,
BD6D88D8,
BC3746B9,
39A494DD,
3C563D8B,
3C6592C0,
3C52B230,
3B778C93,
BD09E286,
BD4C21B9,
BCD45882,
BB55F220,
BCA33E17,
BBDF320F,
BDA0C8BE,
BC9414CD,
BD4996B0,
BC2A51CB,
BD240BF3,
BC8CF7E9,
3C9558AF,
3C361F6B,
3B9947AB,
3BADB70D,
3CFB2BC1,
3CD490E0,
3C10A991,
3D488639,
BCE8F621,
BC98F66B,
BD2864A9,
BDAC75E1,
3C531005,
BD8D76C3,
BD7C9988,
3DAAF6D5,
3D6862B7,
3D9D7151,
3D7A7D02,
3D52C40A,
3D81525A,
BD4CCFAA,
BD20820E,
BC43FD16,
BBF0503D,
BC47469A,
BD018457,
BC7AC403,
3D11FB93,
3D996A5C,
3D772062,
3D3F7B10,
3D5E3428,
3C8DD399,
3C8CD936,
BD50D412,
BDD3807B,
BD602ED0,
BCA10786,
BDDC7681,
BDF7710E,
BD89FABD,
BDA2F7F4,
BD71FA69,
BD13839C,
3CE97CF2,
BD2DBFFD,
BCCC4029,
3D61ADEF,
BCB891E2,
BD8C3F35,
3DA959E0,
3D731209,
3D06B623,
3D8CCC62,
3DC6D4A1,
3DB7EBE2,
3CAC2262,
BCF33301,
3CAF7B0D,
BD951917,
BD686350,
BD798D1C,
BCC4225D,
3CE5940A,
3AE131FF,
BD1F7512,
BD1705E1,
BDA74EF4,
3C90055C,
BD9A24EF,
BDD671A6,
3D07B33A,
BC1D6308,
3B5A379C,
BAB8D59A,
BD338F0E,
BB94BB5F,
3D4F6F54,
3C12DC7B,
3D01EC58,
3CC5EFDF,
3D267773,
3CC3D925,
3D4F6F10,
3BAE5914,
3C9AE809,
BD34113A,
BC266F2E,
BB2737EA,
3C979A68,
3CE771C4,
3C7CFA19,
3CF97F73,
BC80C5F7,
BC4C4C26,
3CD35C2D,
BBEEE5F8,
BCB57051,
BD0456F3,
3CF646E0,
3D259B64,
3C84A9A6,
BCAB2441,
BCB0AE20,
3A1FB357,
BB5FECCB,
3CD29AB6,
3D1417A6,
BCC9CAD9,
BCDB3871,
3D67F472,
BC8C2E29,
BD3FAEB4,
3CEB51F1,
3C879931,
B8F1B518,
BCF231D7,
3CD1D2DD,
3D4327E2,
BCDE7197,
BAF02E91,
BCB448C7,
BC3B0612,
3BF43DD1,
BD053AB3,
BBD3BE19,
3D1666B4,
3D3FF9E8,
BD26E3AC,
BCB79F24,
BB1785FC,
BD77B419,
BD1D7072,
BD0CBFA7,
3C5C99E2,
3D5468C2,
3D8C50B1,
3C8C6164,
3CCD10ED,
3D8A1B8D,
BC861422,
BCA82000,
BD7CFB4B,
3D122906,
3C4096CC,
3CBB4FAC,
3CAA328D,
BDEB3853,
BD2C10E8,
3C8550B4,
BD57807A,
BC9E991D,
3D115509,
BD154D4A,
3C9B25DB,
3D7CFC21,
BCC09BBF,
BC2BC832,
3D80F4D8,
BC9F3018,
3D4D6E14,
3D833F6C,
BD6CFB3F,
BD3A8BFC,
3D498165,
BDAACEA6,
BD7471F3,
3DAC51E9,
BC9C0AFB,
BAE95D48,
3C0FC690,
BCD1480E,
3CCC1D3F,
BB283ABF,
BD0A1226,
BD017904,
3D56F9C5,
3C3D7A4A,
3B2015E0,
BCD15D48,
3C74D9DE,
BC839D16,
BD851A8A,
BD5D7819,
BCE730E2,
BD61EB77,
BD88D789,
BD5D0B1E,
BBA7AA0F,
3B735E5A,
BB0FB4B8,
3C7B4A03,
BD63AD21,
BD1A61A9,
3CF075DF,
3CC3C602,
3C82133D,
BBB2009B,
3D1E000F,
3BE1527A,
3C72B8DF,
3C03189A,
BC872D09,
3C86B99F,
3C942A34,
BD10D0CA,
3BE51801,
BCE635A6,
BC85A918,
3D184AA4,
BCE30DB5,
3D2EEED8,
3D2C3954,
BD359261,
3D7CF173,
BCB57C99,
BCF9C1EB,
3C748482,
BD0971EF,
BD98A96A,
BC5507EF,
BD83FCD8,
BDE9B3B9,
BD7AED6C,
BD75BBC9,
BA77E656,
BC60F3B9,
BD83F909,
BB6AB72E,
3D5CB106,
BD6C5A32,
BCF982A9,
BC0695D0,
3C6E8FF7,
3D96908A,
3D297AE1,
3D917738,
3D22C8A7,
3CCF495F,
BBB6C36D,
3BCE8A1F,
BCE519AF,
3C4D6B16,
BC891261,
BCAA8541,
BC01810C,
BCB61888,
BD127A7F,
3D4E58E3,
3D5D76BA,
3BFA81ED,
3D155840,
BD48462A,
BD8F1800,
BCB5CC7E,
BDE6BEEA,
BD9E7A5E,
BABDD585,
BD0BA3EF,
BC590F40,
3C5B109F,
BC0A9264,
BA1FA5C8,
BC3952AE,
BC60DF95,
BC2C7DF2,
BCADFD2F,
BD9B7021,
BC9F9656,
BC684B61,
BC82ABA7,
BCE33428,
BD12D2EE,
BCE04287,
BCE81E1C,
BC9355C0,
BAB06008,
BCF0684E,
3BFBE339,
BD5DC734,
BD5F30DA,
3CB8E57B,
BD7C6F54,
BD71F888,
3CEDD994,
BC719B98,
BCC372DF,
BCF69152,
3B074C60,
BD381312,
3C5A09B5,
3CBCB97C,
3BD6FE40,
BBC27512,
3CAEFA67,
3D1107CB,
3D4834EF,
BAD029D9,
3C0BF133,
3CE3CDB6,
BDD792D7,
BD72D61E,
3C8619ED,
BD0C0D45,
BD370FC9,
BD21F812,
BC664144,
BCBB87E1,
BD3B76ED,
BC9ED8BC,
BC131D4D,
BB4C628C,
3C9F2263,
3CE4786D,
3ACCB114,
3BE19851,
3CD68A22,
3CB31115,
3D73A67C,
3D0AF5CC,
3A0EA5D5,
BCCA8D63,
3B34A435,
3C93FDDC,
3D7BC1B3,
3D57B524,
3B9E3668,
BD2611F8,
BD3D08BE,
BC8EE26B,
BD90D52F,
BD905E83,
3C7997FC,
3D05C0EA,
BCAAF8B3,
BD5DF4B6,
BD34FD60,
BAF20FB4,
3CFF3429,
3D1AD8F7,
3D8436E2,
BC400D64,
BD010F8C,
BD5D1233,
3B409595,
BCA7DD68,
3B261AA5,
3D69DF36,
3D41CA90,
3D0714EB,
BC682FB1,
BDB63995,
BD6903CF,
BD2E4378,
BDD10477,
BDD112F5,
3D14EB64,
BCAF311A,
BAA01753,
BCFFCF46,
3CBA3070,
3CA1570B,
BB21672B,
3C69F1E2,
BD13BE21,
BC97B9B1,
3D2F0220,
3CAA5782,
BC134288,
3CBA0668,
3CC17F7E,
BAF91801,
3BA38752,
3D004F13,
3D682481,
3D73677B,
3D70615B,
BD9E588D,
BC805B21,
3BA35735,
BAAC63E1,
3C41F7E0,
3D11FA20,
3D58E41E,
3C040242,
3C3E41DF,
3C08B43C,
BD6F31C4,
BB742456,
BD3FC9B2,
BD999B4E,
BDC0AE30,
BD12ECCD,
BD25E46D,
BD6A2F0E,
BDBDE31B,
BC314B91,
BCA93989,
BD8DE5EB,
BB8CB1ED,
BB5FA951,
BC0DD9B2,
BD623A0B,
BB588814,
3BE2FA68,
BD26C64A,
BD2C203C,
BD1F9971,
BD80029B,
BD46793B,
BD4AE0DC,
BD2EED87,
3C9BBAEC,
3BBB8B04,
3B46012E,
3C35EDE2,
3C3AEF24,
BA72374F,
BC3B83C3,
3B08ECB7,
3B84C732,
3CD67028,
BBAA3AB6,
3B42E25C,
39427537,
3CB8D5CD,
BC96C9E5,
3D7903A3,
3D8AF126,
3CABC4C4,
3D68EDCE,
BD96ED9D,
3D3DFE66,
3CA8DC4B,
3D1AF56B,
3D789108,
3CD97088,
3D7993EF,
3C3F0260,
3C643584,
BC123C2D,
BBB2A3B4,
3C73F584,
3DA38AB3,
BC405703,
3DC7FA24,
3D6B8ED0,
BCDBC0D1,
3DB3B55C,
BBD2CEB2,
BC072A3C,
3D18D774,
3D67F422,
BD18DAFC,
3D6D7EBD,
3D9AB28D,
3C045D9D,
BD4CB4CE,
BD1C4644,
3CAE62A2,
BB4018F7,
BBF7B9F3,
3B812FAE,
BCF9667B,
3D6B28D0,
3C53A263,
BDA03FA7,
3989D077,
3CAFC05C,
3D1AAB4B,
BCE1A173,
BBB21F4E,
BBBE94E7,
3BBD3BD1,
3BEE3D71,
3CD4C708,
BC486B98,
3D1A1BC0,
BC4529C4,
BC8C0178,
3DA5A4C1,
3D8BC3A4,
3BA10129,
BC27FB13,
BC52B6EE,
BDC5B45C,
BDD02517,
BD7FB2FE,
BD53AF30,
BDC35424,
3C90BD19,
BBEE9E8C,
BC92540C,
3CC4B0E5,
3BEE690B,
BD7ECF71,
3C67879A,
3DC98039,
BD47778B,
3D851858,
3B18549A,
BDCC75EF,
3CCE4ADE,
3C90D298,
394837A2,
BD0D6276,
BCBC63E4,
BD578A94,
BB40CE2F,
BD837D2D,
BB24EA79,
3B4B4F8C,
3B06570F,
BCB55926,
3CB31737,
BCEEF1B5,
BC03A696,
3D849B47,
3B85DC94,
3A21873B,
3DAD3EC7,
BBBB5C2C,
3D1E13FE,
BCCC9BF0,
BD1CAA45,
3CCB19D8,
BB13F3F2,
BCFA2B3A,
3CE5657C,
3C79ACAE,
3C9C932C,
BD58B576,
BD1E63DB,
BD89E17A,
BDA4A341,
BD956B4B,
3BC50708,
BC908DF0,
3AACD9B4,
BCF82159,
BD877994,
3C6F5E9B,
3B91A83B,
BBC4ECB8,
3D52998C,
3D00534D,
BC93166D,
3C5E33E9,
BC9B6E89,
3CC55D0D,
BD81436E,
BC33E5B6,
3D03D8BA,
BCD4BB62,
BB8CC11C,
3B21681F,
BD723E1E,
3CD7F894,
3C998D3A,
3CB736F9,
3C6D3F1F,
3B285703,
BD21BD0E,
BBAD9ECA,
BC72BAFF,
BC91D3C4,
BC640745,
BDA8A42F,
BD2DEC7F,
3D3C8992,
BD1E786E,
3CCC6DD0,
3D2B9879,
3C9CECBD,
3C982E2A,
BD03BEE6,
BD8AD637,
BD7BC61E,
3C445FAC,
BC3CAAAB,
BD576044,
3D228477,
BB9E19E0,
BD541C70,
3BEEB8D9,
3C19025B,
3CAD034E,
3C10FC69,
3CEB8C88,
3C329CA9,
3CB8CDFA,
BC83F329,
3A3BB768,
BC784CA1,
BD53ED8A,
BD154468,
BD510C3B,
BD5BE547,
BD83A9E1,
BCE7C186,
3B410D32,
3C4A65B7,
BC583036,
BD476F50,
3BCAF3FF,
3D68972D,
3D16ACAE,
3D67ACCD,
3D3574E5,
BC3FAEA4,
3D39ED4F,
BD558735,
BAF273D7,
BD615BA4,
BC9F6969,
3D18BA49,
BCDB8D53,
3CE91EC2,
3D14A2A7,
3D0FE849,
BB85B043,
BBEDC154,
BD0563C8,
BD82A87B,
3CF2FF57,
3C9A6D4F,
BCC2250D,
BBF290D1,
3C525D4E,
3DA7E7B3,
3D30231B,
3D500141,
3C1A5131,
3CB6693A,
3B712E4A,
BA2B5707,
BD5A01AD,
BCB789DB,
3BE35DC1,
BD30FAC6,
BD26A67D,
BC843C2F,
BD5EB84E,
BD353E9B,
3C6D5D53,
BB45E606,
3984F1D1,
BDA4A5E0,
BDE62B6F,
BD925200,
BE079EB5,
BE03A2A8,
BD94DC0D,
BD47C7C1,
BCF0FF04,
BCF65377,
3CFD9CFD,
3C87F605,
3CF10D9C,
BCDBF737,
BBA09C7E,
BB63D110,
3CB8C5E6,
3C1BD787,
3CB5ACC6,
3D7C9AEE,
BCFEAD77,
3CAA7C13,
3CAD9E24,
BCDE5774,
3D0B6FCE,
3C76EAA6,
3B0F888C,
BCCBFA61,
3C6CCE10,
BD408F55,
BCC28D55,
BCEE5739,
BCF0D9E2,
BD4F4C48,
BD40759B,
BCCF77EA,
BCE250DE,
BCAD7265,
BD07FAE3,
3B9E9B5B,
3BC04F65,
3C7755EB,
3C923F7E,
3CE2F67F,
3D24AA91,
3B0E67B6,
BD99B37E,
BD057B04,
BD0876B5,
BD0C3428,
BDCA4B4F,
BD1D84D7,
BCF6CEA0,
BD5E50B3,
BD19C6CF,
3C4861E9,
BADEDAF6,
BCB9995F,
BD1C63CE,
BD5A7A96,
BD6F5CD5,
BCDAD29F,
BD38EBB0,
BD7C6DEB,
3CAB0187,
BC476D45,
3D0D5CBB,
BCB57044,
3CFEF739,
3D51280F,
BC2C873C,
BC555A52,
3B15CF08,
3DD32DD0,
BB6DFCA6,
3DC12688,
3D80066E,
3D01CEB1,
3D899626,
BBC6BE6C,
3D1A1AD3,
BC1198F6,
3CE1B3C5,
3D162FBA,
3D09EC3D,
3D4C3B65,
BC291CCF,
3D6400BF,
3D05ECCB,
3C3AF56D,
3CB001F7,
3A8E7678,
3D168EA8,
BBA91F78,
3D0F3336,
3D673C16,
BB06617F,
3CD71E86,
3C169172,
BD1DA671,
BD53D7CA,
3CA97786,
BD5D565A,
3D0D3E83,
3D2C799A,
BCAE08D5,
3CA987D3,
BD0166C9,
BCBE2272,
BB2BE272,
BC876072,
BBA4960B,
39087FAF,
BC898C6F,
BD203A7A,
BD18F071,
BD702E39,
BD3206F9,
3AFF3A9D,
BD185E50,
BC811D72,
3C3C69E8,
3CB08319,
3C965D89,
BCEFFA79,
BD1CCCFC,
BCCDDDD5,
BBFDF29B,
BDB9E5AE,
BB811A99,
BD2F7B1E,
BD39E723,
BD0C6FAE,
BC31824F,
3C99AEC0,
BB9EEC90,
BD1915C3,
3C84B078,
BD0B84E8,
BB4AB684,
3B761E6A,
3BB12994,
3C432DDE,
BC92393B,
BCC9A58F,
3CCBAD12,
3DACE037,
BCCFE0B2,
BC9239D4,
3D5938E2,
BC8D5D20,
3AFC1A32,
3D4147B7,
BD799E1F,
BD2DD7AA,
BD281A7F,
BD8C6F42,
BCB3BA09,
3C95BCAA,
BC9C4FD0,
3B557117,
BC53A9CD,
BD2E0348,
3D718311,
BBE5EA26,
BC8CF575,
3C98CF8B,
BC80A19B,
BC4BE29D,
3D1D84AB,
BBD8DCB4,
3C8232D7,
3CAF0260,
BB5E684C,
3AE5D533,
3C8F69A2,
3C6D6932,
BC94600B,
3D88F050,
3CB60A03,
3C0E2813,
3D2F8B3D,
BD34C910,
3C0A2C95,
3CB0AB66,
BD86B945,
3C20B22F,
3933F443,
BD922B5A,
BCD41AF0,
3BE5CB32,
BCA3F39B,
BAAE8592,
BC55277E,
BC6B4328,
3B020BD6,
3C3A04BC,
BD0F9281,
BC88A5BA,
BD59E3E9,
BD0ABB3C,
BC6AA3D5,
BD199E94,
BD17364D,
BC6F8162,
3CE7975C,
BAD43870,
3C96F323,
3C895B28,
3D1D164B,
BC406735,
BCBA94B1,
3D44A791,
3C1522AB,
BD3852E6,
3C62D1B5,
BD87BB02,
BD3992B9,
BD2E7BE7,
BD4F0140,
BC603364,
BCECE88A,
BD7CF9FC,
3CAD6857,
BCD3FAFB,
BBBB7DD6,
BCF6DD3E,
BD58361A,
BD137B55,
3D1CD66E,
BB809F15,
BC6B1630,
BD22618E,
BDDEDFD1,
BD02856F,
BCC94997,
BD1430AA,
BCF0B4B7,
BD07C46A,
BCA088C4,
BCC818DF,
3D837B68,
3D39C1CA,
3BF619C9,
BBDAADE2,
3CA9DEB5,
3BE8AC9D,
3B500767,
3C1309B1,
3C4F7ECD,
3A8F6BE1,
3C73571F,
BC8FEB9C,
3C745D56,
BCF92058,
3C9D8E4C,
3CD66106,
3B3C0FA2,
3D69D5CD,
BDF02F85,
BC9B74B4,
BD83DF95,
BD984EDD,
BDD7C82F,
BDB69A30,
BCB878CF,
BB4E1369,
BD6C640D,
3CA073C6,
3C446A9A,
BCC9DC15,
3CDC7A6B,
BC134D3D,
BC25D7B4,
3D8D0E84,
3D2FCDA6,
BC6D6BB7,
3CE3761E,
3B4F3480,
3B425ACA,
BCB070A2,
3D02DB8B,
3BA3F6E8,
BC9E5942,
3D1228DF,
3C894A0F,
BD3F7F53,
BA931B7A,
BD7F401D,
3D26820B,
BC984A10,
BAABACE6,
3C496FFE,
3C95A6D0,
39701332,
3CA354A9,
BA162ABB,
BD3991FF,
BD887C65,
BD3D90AA,
BD517632,
3D7AA715,
3CF6EB1F,
BB019C91,
3CD315C7,
BA6EE350,
3D00CD1F,
39A5F71A,
BCC86091,
BA927F2F,
BC9964A4,
3D151793,
3D1061AC,
3D77D106,
3C170C25,
BC7A00B3,
3D18B6D6,
3C8E4728,
BC9EE170,
3C15FCFA,
BC71E648,
BC795234,
BD2DC10D,
BC4B81C9,
BD1792BE,
3D413EB5,
BBB44415,
BD70DE6E,
3CA4ADF0,
BD2DA5FA,
BD8DCDDC,
3CD383C4,
3D0A38E4,
3AE6D422,
3D39E3E6,
3D5794C4,
BC26F4E8,
BC8D392C,
3CB37472,
BB5787FD,
BC8B3439,
BD379D98,
BC194B20,
3CD85AE9,
BB8D47B6,
BD4BEA70,
BB9D112F,
BC51C847,
BCB8EC50,
3BD89502,
3C8CFE3D,
BD34B26A,
3BC69A77,
3CFA09D1,
3C74DD32,
3CEA7D3B,
BC8F284D,
BD20C16D,
3C109F5C,
BC8551BF,
BC3257B3,
BD075639,
BD033B21,
3D3EC522,
BC1B7DE2,
BC2FA45E,
3CD69D99,
3CB61A1E,
3D6A842C,
3C867188,
3C096044,
BAC6F953,
BDAB77F2,
3D4C6BC1,
3CF0CD5C,
BBB7668F,
BD435B47,
3DA7B432,
3D0A638A,
BDED6A78,
BDA77680,
3D8A137A,
3BCE3303,
BDB8A1FF,
BD8541B7,
3D7127A0,
3D3C3061,
BC81A084,
BE0EB5A0,
BDCCCD3B,
BC188BD8,
3D08C86F,
BCD383B6,
BC5D6E3A,
3DA5B3FA,
3D355108,
3D327CF6,
3BF179AB,
3D890AEB,
3D76D6EC,
BDB0DAEB,
BCBF4C28,
BD2B5AB3,
BD15DD0C,
3C456E4E,
3C6871BC,
BDC5FBA7,
3D04D81E,
3D89B263,
BD91D856,
3CA6B96A,
3D618412,
BD4FB20E,
BD539B52,
BCD921BB,
3BBDC51B,
BCD1AFE5,
BC942172,
BD14265D,
BD257F03,
BD1D34AD,
BD165600,
BD0B59DC,
BD1E7FED,
BD0075AD,
BDD4F2D3,
BDF0D123,
3C8C4B49,
3B63E7F7,
BCEAF7FC,
3D59D109,
3D304516,
3CC63C04,
BD32F4A9,
3D1B88E6,
3D647D36,
BD299A0D,
3B93F801,
BD7C05A8,
BD219B5E,
3D430D75,
BD64854B,
3D5077B6,
BCD9EC12,
BD0FE358,
3CDDA246,
BC43E538,
BD45B6BA,
BC89E07C,
BC8F0E4E,
BD6F3846,
BD828F59,
BDEB3453,
BDF41A80,
BC869832,
BDAADC64,
BE2A906A,
3D3B78BA,
3CC6E761,
BD4AE215,
3A0F3296,
BC56E5AC,
BD02DF8A,
3CBB7538,
3D4FD2E0,
BC86A1CC,
3D23A00D,
3D868FAA,
3D22234A,
3D3A50E5,
3B38E834,
BCA88723,
3C13ABDF,
BCA40F3F,
3D24E1D0,
BB1953E9,
3CD4D9FA,
3CE7E7C3,
3D3CC1C6,
BC3D523D,
BC576F58,
3C68BECA,
3AF95CC2,
BD678C77,
398ED7F9,
3D02182F,
BC253216,
3BFC2A3C,
3D575A40,
BBEBAEB1,
BC2807A7,
3D806F11,
B986D704,
BDC18CD0,
3C6B1764,
3CB4C38C,
BCE063AB,
BD418832,
BD1A2981,
3B8E6BD1,
3CCA6B7B,
BC4BD1FA,
3A95CB94,
3D4CA261,
3CEB54D2,
3B2E4EDA,
3C0796C7,
BC648D41,
BD97CFF6,
BD097987,
BC4743B4,
BDEA3790,
BCF6AD59,
BB984ED4,
BD07BD73,
3CBE4808,
3D1D8E31,
3C998524,
BC24256A,
3B01B155,
BD05598A,
BBEA1F0F,
BD041699,
3D15BADB,
BCB06F1E,
BD8AE76F,
3DB0B6AF,
3B8E9D34,
BD82A05C,
3DB3F78A,
3D3D55DE,
BC965E89,
3CA6F670,
3D734B0A,
3D76042B,
BD884792,
3C2B7092,
BCD1C22E,
BD9E87CF,
BD05698E,
BD0707F7,
3CD7AA9C,
BB882A95,
BD898A99,
3D3F91F3,
BC8137AC,
BDC712E1,
BD00CBBD,
BC9633E4,
3BB566CF,
BDA86AB7,
3D025E6E,
3D98A260,
BE0BBAE9,
BDE0A12B,
BDB10BCE,
BD30A9CB,
BD5A8480,
BE2B09DF,
3AB2E8CE,
BD971B06,
BD33506D,
BD4FFEB4,
BDD4DE46,
BDFD0ABB,
BD313475,
3BC5AB76,
BD8B7FDB,
3C144F55,
BB641FE7,
BD8436E9,
BC9730B5,
BCB7B927,
BD293AB4,
BC1BC5D2,
3D546DA6,
3D39D542,
BAAD1EC0,
BCE1DD5C,
BD503B5B,
3D881536,
BC1B9EB2,
BC9324DE,
3DA34F3A,
3D863C95,
B8FBE2F3,
3CB69A43,
BD5DEA8A,
BC334514,
3D8B8371,
BD0BB82C,
BD2596D1,
BB120ECB,
3D848101,
3C8A2DAC,
3D0F0572,
3D45BEA5,
3DA91C0E,
3D9901C8,
3DF6A1A1,
3D1834DF,
BC800C47,
3D4DA2AF,
3D6309FC,
BC56B519,
BBA8946F,
3D26B4D5,
BDB18F55,
BC310CD5,
3AE4CED5,
BC969B42,
BCB6F871,
3C986D60,
380C8BCC,
BD88F5AD,
BC394750,
BD8A364B,
BDAEC03D,
BD310BF3,
3BF8D94A,
BD80D056,
BD0FFE3E,
3CE92A24,
3C3EAE68,
3D61253F,
BCDAA9FC,
BD1325AA,
3BCFAF6E,
BD3CF0A4,
BCDA1118,
BD123E4B,
BD2D4AFA,
BC29FA9F,
3C73A0D9,
BCBF42BD,
BD10EE41,
3CCBC49E,
3DAEC3DE,
3C0A6A14,
BCBBF5FC,
BBE776C8,
3C9E1D53,
BCBAEEA8,
3D3DEB12,
BD91CC30,
BA6BA78D,
3C94BC15,
BC28AB50,
BD97A1E9,
3D165E3D,
BCE501B8,
BD00FEF8,
3C836ABD,
3DDAC812,
BD236B22,
3D12813C,
3D55D26A,
3D1D808A,
BD138F1E,
BD993090,
BDA28E3E,
BC2D49E6,
BD85ECA9,
BD8A7A0E,
BD7B503F,
BCEF9131,
BD90C3AA,
3C91FE4F,
3CABD2A1,
BCAB167B,
3D80E2AA,
BCBA6028,
BB692CC6,
3CE6BB07,
3CFA960C,
3D3FE91C,
3CEA58C8,
3D0311C8,
BC1A7344,
3E02F7D6,
3D8475C4,
3BFA963C,
3C78B435,
3D2F84F7,
3D9F81C9,
3C9C94C6,
3CFD20D3,
BD21D0E7,
3D77CB34,
BB07D197,
BD6F21CE,
3D6FD643,
3D802028,
BD535637,
BBA9974F,
3D557843,
3D1065FA,
3DC6C98D,
3D901031,
3D50A4D7,
3DE7B3C7,
3DAFF1E6,
3CAE9DD2,
BB74EBCB,
3CAE8F26,
3CD2AFDF,
BD3A694E,
BCC4EE06,
3CAD6801,
BD6CFF00,
BD643331,
3CF26C03,
3D65B3A0,
BC3BCD8E,
BD67F271,
BD036BC7,
BD4C34C7,
3D3C4C2F,
BD73530F,
3D4BA246,
BCDE7A10,
3DCE5979,
3D05C5BE,
BD4E61F3,
BD42F4ED,
BC18E815,
BD0AEDF0,
3AE781E1,
BDD3361D,
BCF198EC,
3D43F3DD,
3C9E0E1D,
3C73D5DF,
BC55F27D,
BC280FB7,
BD6FB2AA,
3D58C366,
BC25FF04,
BD842D45,
3D2B44D9,
3AD1B9AE,
BCD57949,
3D071506,
BD815831,
BCB5D0D0,
BD2B4BF2,
BBFF3D29,
BD4B3A33,
3CD6E59C,
3C0E6CB6,
3C147680,
3C5B9442,
BB8F2B8A,
BCC5A2AA,
BD982EBA,
BD415AB4,
BBF574B2,
3B6AB36D,
BD7588EC,
BDD6B6B8,
3B822A9A,
BD5F5D29,
BCA51BE8,
BDC1C115,
BD1999DE,
3BB1D212,
BC040059,
BDADCAA9,
BC8F0F8E,
BC79C3A5,
BD369C75,
BD0BB8B4,
BCA93AB1,
BC27E359,
BD025772,
BD29850E,
BD898059,
BD31DED6,
3D5D67E5,
BCCF4864,
3CC64A1A,
3DD9D5EE,
3CD9D772,
BD43FE18,
BDA3C6C0,
BD04FADF,
BD365CDF,
BBEF262C,
BDD3FC90,
BDDFE04A,
BD2A294A,
BDC1D232,
3C614952,
BD496696,
BD33106D,
BDD9C30D,
3C50B924,
BCBF52DC,
BD9DED7F,
BC12305D,
BD0121A7,
BDAFA39E,
3CEB5F31,
3D2958E9,
3D27C864,
BC95E247,
3E002F85,
3D6233BC,
3C8B10FC,
BCF41B84,
3C831B0B,
3B9A86A9,
BC8F449C,
BBEEE908,
BD1E3A6F,
BDC9A230,
BD8A812A,
BD5FB054,
BDA8844F,
BE095304,
3D311775,
3C5980AC,
BD2474FA,
3D85F8EE,
3C9A2372,
3CA9BFC2,
3CE5ECAF,
3D55A7B4,
3CD9CB41,
BCD55CFE,
BDB64B4A,
BD4B6D58,
BD3498FD,
BD8D0511,
BDEDB250,
BD68539F,
B83BD464,
3D84253C,
3DFA5AEF,
3D5BD37A,
3CE4A413,
3D915930,
3E3998F1,
3CA87F58,
3DDF63BD,
BCB32D33,
3D0B7F3A,
BC4AA248,
BD86BC20,
BD7BF67D,
BD61139E,
BDF63980,
BD2E2562,
3C8044B2,
BCC3C721,
BDFC252D,
3CFFC55C,
3D1E2C14,
BD788CB8,
3AA19064,
BB8A1979,
BD89DEFD,
BDAFF3DF,
BD2DA648,
3D4A4CC5,
3CBEDCE3,
BBF6A73A,
3C7983C3,
BD6EE5EC,
3CB8AB97,
3CA53C90,
BD149FFE,
BD0F8321,
3D02BE91,
BD6B3095,
BD81020A,
BD0F65F4,
BDE619AD,
BDAD4EEE,
BD8B997A,
BC4AC922,
BD0B21C9,
BD8C2E2D,
3D168C88,
BBDCB122,
BD37C393,
BC218C31,
3B1DAC36,
BCAEA283,
3CB1CF90,
3C9460C4,
3C8E16FA,
3BAA2179,
3D3DCF74,
BD7FB032,
BDCC59F3,
BC9FA465,
BDBE1F0B,
BD666CFB,
BD27A2BE,
BCBC6FE3,
3DCF1677,
3D34EDFB,
3CDADEEB,
3D18BFAC,
BCCD2C81,
BCDD0DDA,
BD8FE45E,
BD20D572,
3A308B63,
3D835B47,
3DAC6605,
3D961325,
3D5F3AAE,
3C84C891,
3B8A5755,
BCC1045B,
BCBB6D17,
BC123899,
3BE64654,
3DC422F2,
3D375D5E,
BE1AF5AC,
BDF2F731,
BDE43723,
BE096F90,
BE26E1B7,
BDB323BA,
BD89BF5B,
3B8F1A3D,
BD2CD5B4,
BD9E26B7,
BD2F7E53,
3C4B99C0,
3CFC5F7A,
3D448D3F,
3D421E2D,
BD9FDCAD,
BD8280E1,
BC8521D1,
BC20BEE1,
BB0C1172,
3BAC5F18,
393B65ED,
3C3646AF,
3CDC6F71,
3D804BC4,
3D55AF19,
3D6B85EC,
3C378336,
3BC0D2FB,
3CA43A80,
BC3173C7,
3986281E,
BCAB173B,
3CFFC118,
BD166DDF,
3C960C33,
3D8C9C8A,
3CEE9BAC,
BBE09E5E,
3D1EA5BF,
3C8A691E,
BCBD499A,
3B54042D,
BCB0C1C9,
BC16BDDF,
3C02B9F3,
BCB3E4B4,
3A461C7E,
3D667452,
BCD1B9DF,
BD354375,
BD329107,
BD51CCEB,
BD714A2B,
BDC3A95B,
BDC91EC4,
BD764DD8,
BCC67A59,
BD828E2F,
BD8E2006,
BC72AE06,
BDA6A15C,
BCCC5894,
BD568D9D,
BD9E717B,
BD21B400,
3CC1D3DF,
BB828015,
3A9437C7,
BC28EF8B,
BD3C883A,
BD631CFA,
3C8F7AC2,
BCAE07B3,
3CDFFBD7,
3D85D668,
3D64CEF2,
3D40FB4A,
BC73E6BD,
BDD13249,
BD50BB7D,
BD26B21B,
BD318171,
BCB0C04A,
3D66D07B,
BD3A136E,
3D2070D7,
3D2E2D0F,
3C2F77F7,
3CF50CD1,
3C60D049,
3CF14915,
3C275926,
BC3340DA,
BCBD037D,
BC5647CC,
BD71AFCD,
BD68281F,
BD40B1D8,
BDF1B833,
BE086354,
BDDE9331,
BDC36749,
BD6A71BF,
BD1F8578,
BC8D5CC2,
3DA1912D,
3CEA9B0E,
BC0E07F6,
3D605A36,
BAB5BD26,
3C514F00,
3B30098C,
BCE8FDDA,
BCCA8EF5,
3BB644A5,
BC217686,
3D1E9631,
3D1E5966,
BC70FD7A,
BCB4F62D,
BD9FD64B,
BD81C5B2,
3D8F1FB3,
3BAE9D26,
BC32E11F,
3C9561B0,
BCA267AC,
BB914BD9,
3DA9A7D2,
3D2C7F0D,
BB6D9BDF,
3D984FFC,
3D63F5DE,
3DB00A96,
BD161AF4,
BD169F87,
BD764FF7,
BD5E9DE4,
BD553702,
BD4B1B83,
3DC4D2A4,
3DC95995,
3DCB3C2E,
BD824AC6,
BD2DE070,
BBC8AF05,
BD6AA9E6,
BDC3F605,
BC99EC52,
3CB92C58,
BD0D0392,
3D1B85CF,
BD40200F,
BDCBFE82,
BD653054,
3CB9F619,
3C0F0B3F,
BC1661AE,
3D4FB4C4,
BCFC7A60,
3BF0BEA2,
