memory_initialization_radix=16;
memory_initialization_vector=
3D0A72F5,
BD656062,
3C673B3C,
BC8F68F7,
BD59130F,
BDC53328,
BD1ED37C,
BC8B0C7A,
BDA105F6,
3E5DC74B,
3DBA35A6,
BDC5BCAA,
3D859413,
3DDA05BC,
3D8DFAC3,
3D3C0707,
BCDDB024,
3B079021,
3D1AC9AE,
BD0DE4C3,
3E2CCBD7,
3DAE7583,
3D3B7B8D,
3CCC9EA2,
3DB74A5D,
3D6BBA4D,
3DE3FF3B,
3D7C2B1C,
3DA41B8E,
BC4C762F,
3D0B7134,
3D936CD2,
3D1D2D90,
BDBD5217,
BDBB6A0A,
3CB8DE0D,
3D80336B,
BD6F6D20,
BDC9C795,
BE534F21,
BDAC8D7F,
3DEE7E4B,
BD1C432E,
BE964913,
3C3A656C,
3DD57E2C,
3DD506BB,
BBA8A42A,
BDA79B27,
BDA05776,
BE37BCB2,
BD9BE087,
BD67323A,
BDD9ACC2,
BDD03DD4,
BC39A436,
BE538FC5,
BDBC08E1,
BD0D0967,
3C45B648,
BDC18450,
BDE7B30B,
BD82C50E,
BB071E99,
BDD2DC2E,
BD3A6115,
BC5B3AA9,
3D87D045,
BE2D3528,
BE5A6175,
BE3E5E1B,
BE414CB8,
BD233F53,
BE11DF8B,
3D89E050,
BDFB23BA,
3DBE8A43,
3DA61E2E,
3E2615B5,
BABB776F,
BDEA058A,
BE174390,
3D351E19,
3E100565,
BDCF56B1,
3C1093CF,
3D51152D,
3E10D7B8,
3D161F8C,
3DA26924,
3E1C51A3,
3C637687,
3E2BF288,
3D7BD774,
3D997729,
BD1A5507,
BDCEFBB5,
BD0DB68D,
BCEF4737,
3C051987,
BD1F75B8,
BD2F6623,
BE8ECB21,
BD365887,
BD1BDC5A,
3D8C68D9,
3D45851E,
BD89855A,
3E01D14C,
3E810875,
3D903B0E,
3D33C82A,
3CA4B1BE,
BD48A3C7,
BCB47077,
BD305718,
3BD863C1,
BD34146A,
3DB5089A,
3D7FC25A,
BDBDA307,
BD6509E6,
3DB8F708,
BDF4D8D0,
BD3F3784,
BD2405C9,
BD8DA905,
3D226D45,
3CE6A473,
3DAC234A,
3D918C97,
3D16BE17,
3DAC4393,
3D97532C,
3DB65FD1,
3DB035F2,
3D759CFB,
3D4F1C58,
3DB5DAEE,
3CCE38F7,
3CD95A6E,
3CC58A82,
3DB9C501,
3CD0E8E6,
3D815A17,
3D711E17,
3BA0BB0A,
BD296798,
3DD28E67,
BE1F6360,
BD0CC474,
BC5D3184,
BCEFF991,
BD33976E,
3CEEE442,
3BC3958F,
BDC4E895,
BD82D262,
3E19C2AC,
3DEC55FA,
BD8E4F87,
BE083FE3,
BD346C49,
BDC2A70C,
BDA971CC,
BEA60A67,
BEB023F7,
BE502536,
3D06143A,
BE9C071D,
BEE0BE94,
BDAB8CC6,
BDC3D534,
BDCFE987,
BDB1E42A,
BDC2EAC6,
3C981DE6,
3D1D8CB3,
3DF11753,
3D688713,
BC9A809D,
3D7CC8F8,
3DEA6783,
BD12481A,
3DE15464,
BD7B3F0A,
BDB99332,
BE3ED037,
3DFB6EC8,
3D411A8C,
BE21E570,
BD9656D9,
BD3392B1,
3D6D2DCD,
BCE5953A,
BCB69CB9,
BD36BE12,
3C2DC22C,
BD498324,
BE09C5CA,
BE3F4434,
BE07FD94,
BE415CE1,
BE8164C8,
BE2D5449,
BDE937FD,
BE9291C4,
BE08864D,
BD10F9C3,
3D84C251,
BC183862,
3CDA73F4,
3C89CF9A,
BE88DAB6,
BC172B50,
BD83F80C,
BD523572,
BD807BFC,
BEAA106A,
BDF47AEF,
BDB0643B,
BC9011B3,
BDA9B953,
BE494E72,
3DE75D98,
3D8E9737,
3D8B836F,
BD11033F,
3DFBA40E,
3D998DF9,
3CBD73C2,
BE07A752,
BDA34C21,
3D94FA5E,
BC0738FC,
3E0099E7,
3BA1A9D0,
BDC8BC46,
3D84A87C,
3DD68225,
3D26886C,
3CFD4914,
BDD54001,
BBBBE8D4,
3D9B79D3,
3BCE0D86,
3D2DAFE9,
3C2D3512,
3B59CA23,
3D0374F6,
3DF8BE4C,
3CF46D3A,
3CEDFFB3,
BD9AB0A1,
3A349356,
3D6E3259,
3C4668A7,
3D8B516B,
3D2EE918,
B9D0954E,
3D8E7891,
BD203C95,
3D0EBD85,
3DF46842,
3D0872ED,
3DA4B436,
3DC57437,
BC17CB34,
3CDD33A6,
3D2EB975,
3DBCEC3C,
3DE156D9,
BE49984B,
BB2973F3,
BCAB5E42,
BE41F08E,
BD90279B,
3E10EAF9,
3E1773EA,
3D3DB300,
BD1A9A2D,
3DFE92BE,
3DA970BE,
3D3567A3,
BCF07B37,
3DF3BD53,
B9069DE9,
BD369594,
BD94CB38,
BCD76AD3,
BD96972C,
3C17672F,
BD66246E,
3D2D2EC6,
BC9D7591,
3B2AAB2F,
3E2DB982,
3DC876EE,
3BC21858,
3CB74E55,
3E627F6E,
3E0115D4,
3E1C91D0,
3D051CDB,
3D4838B7,
BC3D3C98,
3D2C9B53,
BD4E8081,
3DEF8089,
BDEAF5CD,
BCCF7C8B,
3C025121,
3D8694DA,
BC2EC83A,
3B6D522D,
BDA8A88E,
3D708775,
3DD7E8D3,
3D49750F,
3DEF3C98,
3E01B0E2,
3C763E8F,
BB27B5E0,
3CCBBAB7,
BD69FA0C,
BDCDF2EE,
BDC1D76A,
BD640259,
BD351EEB,
BD9C77A3,
3A2F3E8C,
3D18C5AF,
3C0945CD,
BE08AC3D,
BE036964,
3DF7F526,
3E00FC69,
BDEA8251,
BD62E022,
BD807401,
3E0438DE,
BC92010F,
3CDA2B81,
3D49F400,
3E040004,
3DC3DE59,
3B521E3A,
3B0E5228,
3D9BE84D,
3D4DCA0B,
BC9C9099,
BC6FF131,
BE2F8698,
BE346C1A,
BE35E3FD,
BE0A0C2C,
BD6A50E1,
BE08E341,
BDD0ACE3,
BD9FEC36,
BDBEF3C4,
3DF90754,
3C8F6CC1,
BD8708F6,
BD10BE93,
BD9C6DDB,
BE3ECBA9,
BDB7BB10,
3BAA4716,
3CFE6F8C,
BC39E02C,
BE070770,
BABF23E1,
BCE04F80,
3D7D7DDA,
BCD334D9,
3D871C50,
3D9D1999,
3E15A6E9,
3CDD34A3,
3DBBC64F,
3E08D7C3,
BC60D121,
3D53103D,
BE63B479,
BDBBF1D9,
BD218120,
BD6FC28B,
BE2E2663,
BE0A41E1,
BE9B7449,
BE2FD85B,
BCBE749A,
3DD50656,
BDEC603F,
BDF4291E,
3DC8640B,
BCE11D9E,
3B5FF975,
3D20DBE2,
BB40CC2A,
3D0BED23,
B8A3CCC9,
BDCA7059,
3D3A25AA,
BE8E32D3,
BE1A70EB,
3DFAF026,
3D92EA08,
BE387850,
BE15E9AC,
3D7DC96F,
BD8663DC,
BE2AB4D5,
BE2F6E54,
BD7D40AE,
3C59F05E,
BCB6A966,
BD53982A,
BD08AD34,
BDD03635,
BDA6E6BA,
BCBBCB9B,
3E552E0B,
BCFECD17,
BCE2E8DE,
3DAE1619,
3DA222C6,
3C56BE40,
BC602A2D,
3DB2E696,
3DA3ACD4,
3DE2D4DA,
3CF2FD26,
3DC450C9,
3BFF166F,
3DF9D514,
3E0DA0CA,
3D885F85,
BCF1B35A,
3DFC17AB,
3E5A3AED,
3DA1BADA,
3D23FB10,
3D77FB00,
3D8D9113,
3C7AFB7B,
BC0A459E,
3B91A3FE,
3D6DA2F9,
3C6A2E09,
BDBC7C81,
BD9B4251,
BBAB0EAC,
3D8DBD05,
BDB019E4,
BE23D5CD,
BD885D52,
3D33D6A5,
BD616862,
BE2E5CBC,
BE257BC6,
3E0B5776,
3DAB7BEE,
3DED0578,
3E254F0F,
3B9EFCDD,
3CF354CF,
3E0E1D9C,
3DD9ABCD,
3C076818,
3C917775,
3A8A2090,
3CA78E87,
BD8B5242,
BBFDC476,
BDB631C5,
BE3900BF,
3E1801DB,
3C5CFD14,
3D34C1A1,
3D1EA315,
3C67D3C4,
BBDE7A58,
3D272A95,
BDA8911F,
3C8E82AD,
3DF1120E,
3DAA644A,
3C4F30C6,
3D30DC19,
3E75B77E,
3D141F3D,
3DDE024D,
3D46AA92,
3E731235,
BDDD6B82,
BE1D2814,
BD14253F,
BDC27E28,
BD3F06A4,
BE9F1018,
BE22FE22,
BE11BD01,
BC47B6F0,
BE8A4AA9,
BE46611D,
BDAD8E22,
3CFE0B0C,
BD0E5397,
3D254D76,
BC43B8AE,
3D45D70E,
3D025297,
BD418980,
BD04DAC8,
3CA2B969,
3DA55FD5,
BD3C0666,
BD4185C9,
3D748754,
3D18AFD8,
BE4D4A4F,
BCD72886,
BDDC88D1,
3D5FF263,
BC66964A,
BCE6F635,
3CEB7416,
3DD24409,
BD30DA96,
3D5F9631,
BC813FFF,
BCA686DB,
BDDCE8B2,
3DDEA36B,
BDA7D454,
BD844A20,
BDB3CD16,
3CBACFD8,
3C24403B,
BDF13EE8,
BE3F15AC,
BBA278AD,
3D1C748B,
3BD2FE1F,
3D99D5CB,
3D6DEC69,
3E16355A,
3B343FBB,
3C936220,
3B5E7F7E,
BDA5F0A8,
BCFA923B,
BD340415,
BDBBF84F,
BC558A27,
3D61672D,
BBDAA9E2,
BD99E048,
BDBA6793,
BDB760CE,
BDBCE085,
BDADFE74,
BDE43A05,
BE6B45D4,
BE4AB3D2,
BE6CC0F5,
BDC8316C,
BE8971E8,
BE89E546,
BE929EBA,
BD3B969C,
BE16C8B2,
BE6E6671,
BE1020A0,
3E0F5BA7,
3DCBB985,
BC4E0DE8,
BD018CC8,
3E0471E3,
BDA30DD0,
BE106B48,
BDEA18B4,
3DCCFB97,
3D0789F7,
BDC63645,
3DC7BCB7,
3D9BC984,
3DB89E08,
3D0FEA1A,
3D82B2AD,
BD836579,
3DC89964,
3D61A908,
BC828300,
BE44977A,
3A1EC280,
BE4B1707,
BCC3063B,
BE1CF26E,
39A9769A,
BE88B352,
BE3B6544,
3E0B68FA,
3CDBA39E,
BDA21A31,
BDF0F413,
3DE22F72,
3E3D8FE1,
3DCFFF51,
BD0995B2,
BD3A8E5B,
3D8198E0,
3E0EB9E6,
BE212C45,
BDCF8EB1,
3E063682,
3DFA7269,
BE2E52AB,
BDADE057,
3CF1DE7F,
3E3BCBF6,
BD0060D9,
BE7000D9,
BDD2FB92,
BDD6E30B,
BDED2D9A,
BE029306,
3C946919,
3DD96B77,
BD1680BC,
BD6D610F,
3CC8C95C,
3D870134,
BD7FB51C,
BD6EAEB4,
BDFF3E2C,
BD24184D,
BE154F79,
BCE52FD6,
BD900C75,
BD0B3F7E,
BD77A152,
BDBDDC26,
3DF8488B,
BCF1DCF6,
BDB98C8B,
3B027481,
3DD347FD,
3D013E92,
3D447D92,
3D7313B9,
3D5E4402,
3CC8CF82,
3C61D350,
3E1E2254,
3E09D5BD,
3B836549,
BCE75F5A,
3E7727E4,
3BE42C02,
BE0DDEB5,
BE2D1D5A,
3DBE393B,
BC35998F,
3D30DC95,
3C7A8DDE,
BC19D799,
BDF45256,
BD3FAE49,
3DE190D4,
BDC52F8F,
BC38FBDC,
BDA00D1D,
BD9C8960,
BCC32E10,
BE318697,
BE37D870,
3C6DB748,
BD40E8AE,
3D39098C,
3D8A2ABB,
BD797545,
BD1DB31E,
BCAE0919,
BD548153,
3D333567,
BDFD20BE,
BB9BFA24,
3D47A349,
3CBA9C04,
3E00E672,
BDDCAAD8,
3D5D89B3,
BDD67C37,
BD8ED171,
BDFBC581,
BDACE6A3,
BE1EE8CD,
BDC4E043,
BE17270F,
BDB8978D,
BE5E61E9,
3D20EFD9,
3DEF93DB,
3C4D01F6,
3D86E570,
3E15A480,
BB2CBCD3,
BDB93188,
BC6016B4,
3C8A68BE,
BDA3DF04,
BDDD9586,
BDC5ECDB,
BC413C66,
3C74B2D2,
BD3CD939,
3A9FD0F1,
BD8041A2,
3DABBAFB,
BDDC3CF4,
3E0E93A4,
BD3148F6,
BB8CC9A5,
3D621611,
BE23D87A,
BDE57BAC,
BC543D12,
3E17ECA7,
3C73996F,
3D88DEA6,
3C5AEEDB,
3DBF2226,
3D5E0D99,
BDC8F41E,
BD483322,
3D93F1B7,
3E05AA18,
BDD066D3,
BE04DA79,
BD0861C3,
BD7BD641,
3C133806,
BE766B7E,
BDB922E3,
BDA4A02E,
3E03B7EE,
BD3EB1BA,
BE28E911,
3C37B1AB,
3DA64F17,
3D60017E,
3DE3B4B2,
3D6AB5E5,
3C45CACE,
3DBF8027,
3DB00957,
3CF4E90C,
3D1FCDC2,
3D1D8617,
3D5B31DD,
3D3B4FC8,
BC3859E6,
3D842DC3,
3D8888C6,
3B240385,
BBD3AEEE,
BD8F97A0,
3CD99956,
3E3CE8D8,
3BA754C2,
BE209787,
BDBCED6D,
BC4FD8D1,
BD50A53A,
3C7D9E75,
3D743502,
BCA0ECB9,
3CB9F0BC,
3D893CDC,
3D35BE7C,
3DCC7732,
3C6F5380,
3C93B934,
3D08B744,
BE1B0C2A,
3D1B4043,
3D9FD956,
3D7DC227,
BC8D2A9E,
BCFC6084,
3B1D462E,
BD01C0E6,
BCF14045,
3BC2E6FE,
3D3381AA,
3C3152FC,
BD4FC52A,
3E097CB5,
BDE0380D,
BD25ED86,
3CF01D8E,
3CBBC236,
BD8E9935,
BC02C9B3,
BDB24E32,
3D214EBB,
BE968D6E,
BE27819E,
BE14713A,
3CEF6A47,
BD1F74E0,
BC12FEBD,
BDAD1189,
3D5924A8,
3CE52806,
3BA054C0,
BDC51EBE,
3E4CFB2C,
3B34B58C,
3DB4532B,
BD0F85A8,
3DC39A56,
3DFD2D2A,
BC3ACBAC,
BB567137,
3DB8921B,
3E353B33,
3E301F64,
3DFAA566,
3D673090,
3CE4DE09,
3E016C67,
3D6DE32F,
3D6EFB38,
3CEE1C17,
BCA10EE2,
3DA3B627,
BCC11F58,
BDEF6F6D,
3D5DC91C,
3DA3ECDD,
3DD629A0,
BD54B4A2,
3D90CEC2,
3C5FA7FC,
3DF2FE95,
3D88CC99,
3DC091EB,
3E0612F7,
3DDA625D,
3C9AA9DA,
3CE48419,
3E40FCC2,
BE20458C,
3CF15239,
3E3CCC3F,
3E062F53,
BD78055D,
3E4D22D1,
3E0469DE,
BDC4AB82,
BB89BC36,
3D8D54E1,
3E0D1880,
3D92FF4C,
BCBC40F9,
3DF7B225,
3CF38B79,
3D7AA199,
3CE61FFD,
3E5343D1,
3DF37FFA,
3D6DEBD8,
3DDC8881,
3E2415B8,
3E2F0F87,
3DBD4D35,
BDCC3C74,
BD20B451,
BE08F6C9,
3D6A8DF8,
BDD2D1E3,
BDD9A771,
BD962854,
3D5B2EB5,
BDBDDFF7,
BBA0F1CB,
3D6916AF,
3D5DD0E7,
BD85E351,
BD0333C2,
3C2E97AF,
BAFFC24D,
BE1B5192,
BC9E2FBF,
3DBB2D4C,
3E0D75B4,
BCBA9DA8,
BD923C53,
3CE0B5B8,
3DB77260,
BDA7144A,
3D9FF6FC,
3D518FA3,
3D5099FC,
3D18579E,
3D519F27,
3D1D10FE,
BD455596,
3D48652B,
3DA64D84,
3CF370DB,
3D5898A8,
BB5C460A,
BE5E7BA9,
BDA0E08D,
3D1B7A75,
3D6FDC64,
BC3820A2,
BD8ED2DC,
BBC03497,
3DEF4FB6,
3DE50E5A,
3B288E00,
BB55AC15,
3D82AC84,
3D416961,
3D8DCC0E,
3CF3ABCF,
3D65AD59,
BAEA1644,
3D51DEDA,
3E1BDC6B,
3C0500FF,
BD0353D2,
BE14F4BD,
BC8D8882,
BE9A815A,
BD3412D5,
BDF05974,
3D01EAE2,
3DA62E0A,
3D8C6795,
3CB5F5D1,
BE812564,
3DEB589F,
3DAA92A5,
BD9C85FB,
BE549FBB,
3DB71964,
3CC962C0,
BD94E017,
BDB696FF,
3D8452CB,
3E40C085,
BD8175FE,
3D86337F,
3DA1413C,
3DA42418,
3DA6953D,
3D9EB40E,
3CBCB189,
3DDFFA67,
3DA92F07,
3DEEAF50,
BD9DDB05,
BD3301A9,
BCBDBD6A,
3D79008D,
BD59C6CB,
3D907F18,
BD8E682D,
BD0FE945,
BE0A7186,
BEB17520,
BE2FB2B1,
BE84692A,
BE0E9335,
BE6B03A1,
BE3DBF47,
BE58BEB4,
BD9FBFF9,
BD66BF5A,
BDB59ED0,
BE1EC7D5,
BDFDD8D5,
BDBEE048,
BE61BFFF,
BE1601B2,
BE327FF2,
BD6329CD,
BCDE4860,
BE47EC6D,
BD90F77E,
3CB073B4,
3CA5DE8F,
3E3E3C1A,
BDA6A816,
BC82633D,
3D0368EC,
3DE584C5,
3D503719,
BDB7EA54,
BD435F2A,
BD8E33AD,
BDB39BD4,
BDCAF30A,
BE298FB6,
BE3811F9,
3D92C740,
3AB07A70,
BCBCB10B,
3D3B8BB5,
3D84100C,
3D88F81E,
3D837ABF,
BBB96F26,
BDEDE2FC,
3D979DCE,
BC315B6B,
BD093307,
BCDFD279,
3CE95B3D,
BDC932B1,
BE256D09,
3E15F67F,
3D00E55E,
3D83C43B,
BC01888B,
3DEA47E2,
3D4E5513,
3A2CF42E,
BE3488A6,
BCB93237,
BD920E4A,
BC87ED88,
3CAB9215,
BC756170,
BE424CEC,
BDB2B99B,
BDF3F82D,
BE455E6F,
BD160FF8,
BD1E5F77,
BE18E8E5,
BDD64B93,
3D5A8944,
3D44D260,
BAF5EE7A,
BD45BBDC,
BCE27A29,
3D8374EC,
3D4CA1D4,
BCDAFC25,
3C61671C,
BD6ED564,
BCEB6340,
3C3691D7,
3AB09CAB,
BC025AE4,
3CBB3ABD,
3DDD07A1,
3DB292E8,
3CC89687,
3D2F79E8,
3DB35B9A,
3BD87AF5,
BDA3856D,
BD6880C1,
BD5F65C3,
3C9CE96B,
BD70C2D0,
3DFE5A77,
BCBBA117,
3B7E57BF,
BCBB481C,
BDB1D06A,
BC11412A,
3D8739A5,
3D58A7BD,
BE04150E,
3D652550,
3D7DBCC9,
3D389A8A,
3AF931A2,
BD73ED1D,
BD8B748C,
BE042EB8,
3D5CD765,
BCB3E5BE,
BD11BB33,
BDAF04B4,
3D5E2AD9,
3DB2F325,
3B05F2EB,
BDB6C415,
3DCF0CE1,
3A02DA76,
BC48F608,
3E001163,
3D5C83D0,
3DAA22A0,
3CDDB194,
3D9B99CB,
BB4878BA,
3D812807,
BD077FEC,
3E419CBA,
BCF2C686,
3DAACC3C,
3D6EBD80,
3DC2E910,
3DC48479,
BD7855C8,
3C2AFF30,
3CDA846A,
3D82B051,
BC646AA5,
BC79F850,
BDD59CD8,
3D33D460,
BDD9AEFC,
BDE8F144,
3D0E88FD,
3E1C5B7F,
BE23E07B,
BD92401B,
BD6E0EAF,
3D6FA635,
BE0B6C54,
BD0B5793,
BDBD0D84,
BD8C04AB,
3B8C9789,
3D1E5D01,
BC358F3A,
BB7CCECC,
3DA8ED19,
3D9965CB,
BC836DBC,
BD8572A9,
3DA23AE4,
BC13BD4C,
3CB21DB1,
BC79A323,
BD037D15,
BC0C4CA1,
BD38C409,
3D7A0291,
3DE92AA0,
3D32F41C,
3DEFD364,
3DB959A0,
BCDAD661,
3C31C074,
3DAB427B,
3D48E894,
BCEE65A9,
3D59B665,
3D8E6D4C,
3DA1F340,
BDCFC330,
BB92E9DC,
BBE23E2C,
BCB0F6C8,
BE146F82,
BE5F3A60,
BE333D4D,
BE62D3C5,
3BD7C457,
BDF5FCDB,
BDE1B9E3,
BE806606,
BD1C395F,
BD0890C4,
3D262833,
BD93F1BC,
BDAB639C,
BEA81FBD,
3D2966F5,
BE6FD8CA,
3D5F918B,
3D8FECFA,
3D8EBFCF,
3CEA1529,
BB2E1E36,
3C969D03,
3D4168B3,
BDB3AF98,
BC2FF618,
BD02A4B8,
3DD1789C,
3D66E64C,
3DA639C7,
3DE919AC,
3DF23210,
3D8FEA13,
BD8BB913,
3DCB8800,
BE299DB3,
BDD5E88A,
BD397388,
BD116329,
BD854417,
BE29736E,
BE148E86,
BDF3C8FB,
3D09B27E,
BE21A83D,
BDDCDAB2,
3BAD592B,
3D6D0A9B,
BD2BB537,
BE366E82,
BC31FC51,
3D3468DB,
BD51CF35,
BE5B64D7,
BBF9E24D,
BD0DA60B,
BD87CB0C,
3DAA3979,
3D4C0B1B,
BCB1FB74,
BC3F2D4C,
3DC6E5D2,
3D34E71C,
3CF7535C,
BD3B914C,
BD3EACB5,
BCFC7C3C,
BCD27AC7,
BC7C8ED1,
3E243099,
3E263E82,
3E1190D3,
3DA5C5E3,
3DC756AA,
3C526E95,
3DA2B412,
3E3F3D59,
3CFDFEA8,
3C97C054,
3C1F640E,
3D8631D0,
3E2A9FFC,
3D29C88E,
BD97A12A,
BDABCD74,
BDD77BE6,
BE419227,
BDD2ED07,
BBF255AC,
BE002D62,
BDE5F695,
BE06A34D,
3E129F48,
BD53A66A,
3D509A6B,
BDDA392D,
BD9C70B6,
BD53C8C7,
BDD1A94F,
BCC47A15,
3D719A8F,
BD54BD96,
BE1200BA,
3D904983,
3D580964,
BD19B148,
BE028E47,
BE19BF37,
3C36F86F,
3CB34136,
3C0DF82F,
BC26BBAC,
3DCA3FC0,
3D930385,
3D0D3BEA,
3AD64438,
3D723155,
3BE567FC,
3D6F31BA,
3E0D26A1,
3DCA2D38,
BBAFA821,
3D12A90B,
3DA894E5,
3C931AC6,
BE2DE38A,
BDAE9412,
BE0DB92B,
BDF744B5,
BC6975AB,
3D74A278,
3BCB39C4,
3D70D455,
BCE3B680,
BDC9A93D,
BDA1A693,
BD6526C4,
3C44EFA4,
3BA4FAA9,
BBE971CA,
BC9DEDF8,
3D845B30,
3DD69A65,
BE11D420,
BCD44506,
BD54BEC4,
3D2F0259,
3E5ED74A,
3DED926E,
BCA2483B,
3D5AFCE0,
3E23EE99,
3DBEF414,
BD9BD5A3,
BDB0AF1D,
3C7C8EDE,
BD5564B5,
BD6C60A0,
BE13A70C,
BE0E82DD,
39906FA6,
BDBB0668,
BD589245,
3B001374,
3D013B83,
BDD9915D,
BD9BF223,
3D0D64AC,
BD860F7D,
BD956090,
BD54D4E7,
BE4F3C93,
BDE9EE96,
3DA04D1C,
3C9CE2F4,
BC8DF886,
BD4ED48E,
BD771CA1,
3CDDD106,
BDB4AADB,
3D10B366,
BE0C9FFA,
BEB06DE5,
BEBA3EC3,
BDCC6B18,
BE815D28,
BE5819B3,
BDE278E0,
BD5AEF73,
BD6F6099,
3CC0FBD8,
BD6FCE45,
BC67764F,
3DC1302E,
3DEC80BD,
3B3EC9BA,
BD113041,
3D5A519F,
BCCE4540,
BE39C28F,
BE840BFE,
3D7BA6A0,
BE08FDAC,
BE01B84F,
BCDD829E,
3AA586E3,
BDAC798A,
BDD3CC32,
3D5276BE,
3C929745,
BD6D6700,
3D3EB182,
3D1DB72E,
3DAED4EC,
3D4CB726,
3D046AFD,
3CEE0E78,
3D5F8490,
3D1A862A,
3D80726B,
3DFEACA7,
BDD4569A,
B99BD489,
3DA0F82D,
3D8F7B41,
BDC98137,
BDF090A8,
3D92F737,
3D65F854,
BE0AF5FC,
BC1A6B1A,
3DF0B9E5,
3DAA3051,
BBAB7E9D,
3D983991,
3D98A7E3,
3D436379,
3D9AA5E5,
BC148DB2,
3D36AC64,
BD55186C,
3CBBFF67,
BDC94935,
BC506A33,
3D872C7F,
3D7548E2,
3BC03B99,
BACCDD74,
3CECCEDE,
3D9AABE8,
BDAE29B6,
3CE2F2E6,
3D9588DA,
BD9794AD,
BE65F042,
BDCC6442,
BDF48840,
BDC3B051,
BE5AF441,
BE1425F2,
BD8EABF8,
BBF85F0E,
BE9917A2,
BE2380E7,
BCB39B0F,
3D75FCC3,
BE2D8594,
BDA83470,
BCD4C7EF,
3C23A6A9,
BE0D458F,
BDF26212,
BDA31F0D,
3D621442,
3D8A028D,
3E123053,
3BF698DF,
BBB14BCD,
3E01A4F2,
3E856C11,
BC67E656,
3CB2F36D,
3E264138,
BC772C0F,
BCE98DDB,
3D1A564F,
3D8E222E,
BD0A722F,
BCC7F8D5,
3D6D4F87,
3D9D28F0,
3D654AB2,
3CCB85FA,
3C5E44E4,
3BFE1BC7,
3D56A4B5,
3CAC6AC8,
3E2383F4,
BCE0EFDE,
3D44815B,
3DB30DFF,
3DC4422D,
3D09101C,
3D4BC1B7,
3D97BB5D,
BDE99936,
BD3770CF,
3D2BCCBC,
3DB90294,
BE30C706,
BC8210C5,
3DCFE572,
3D1B633C,
BDD67FAA,
3D095408,
3DC72284,
BCE3D1C2,
3E15659E,
3CF1FB18,
3D88970D,
3CC253C6,
BDD276D6,
3DAB9CF8,
3C158B40,
BD4C0B2A,
BC7F3B67,
3DD013A6,
BBEB78B7,
BC4E7043,
3CA26C3D,
3D9F4A3C,
BD30EEB4,
BD229028,
3D5379A8,
3E10616C,
BD6EF866,
BD85E3FC,
3C26B2E7,
3DA9C9F0,
3B8BE174,
BD7FC181,
3E0DD595,
3D94B327,
3DFB07CE,
BC6C7A93,
BD511616,
BD230D63,
BDFE71B1,
BDB22E96,
3C930A61,
BD8F6F52,
BE3B5C68,
BDC35D5C,
3DDE767F,
3D38FCC9,
BD59C566,
3E1A5E35,
3D454BB8,
BDA84FCF,
BE06155C,
3DEFD1B7,
BE3A5B2D,
BDCD9B97,
3D4677F6,
3DCA04CF,
BE0790ED,
BD509D40,
BC83A1DD,
BD1C31DC,
BD4DFB45,
BD25D90A,
BDBB33AC,
3DA86FDB,
BDC4425A,
3CE9C662,
BD6E552C,
BD0FED20,
BD9F9877,
BB937057,
BDFF47BD,
BE2C9809,
3D97D08D,
BD25B0A9,
BD85DBA9,
BCF67FAC,
BCB1D01D,
3CC3AE29,
3D890C9E,
BDFDC821,
3DC8D093,
3DC60A30,
3DADF9AE,
3D805697,
BA9E7C47,
BB20BF56,
3D9C6709,
BD03B3D3,
3CEE1EBC,
3D411266,
BD39FC5F,
3DD65C16,
BDE96C33,
BE3537AE,
BD4B6BB0,
BE33F9C1,
BC9357E7,
3D8E17F9,
3C8EFBC3,
BD1D0427,
BC13FF1A,
3C153562,
BCEBD774,
BDA47C44,
3CC744B2,
BC06CDDA,
BD561082,
3AC55E64,
3DAA7806,
BC739446,
BC8D08EE,
3CEDED11,
BDC68D9C,
BD6AAD22,
BE5059F1,
BC828732,
BE3FE16A,
BD4CAD89,
BDD08236,
BB99E949,
BD50AAB7,
BC82BD3B,
BD64B336,
3D9636FA,
BD43B1C2,
3D6D56FC,
BE3CF843,
BE4EE618,
3BBEE832,
3D552041,
BC032665,
BCF03D28,
3E6F4E4A,
BD300DDC,
BD77CF20,
BD0A58BA,
BD1D87BB,
BCEE50A5,
BC11F12F,
3C962D79,
3DBC601C,
3E0A5E58,
3DCF568A,
3DAF18D6,
3D9DFA0F,
BD7D49F3,
BD5EB4EF,
BE08D745,
BCCA8071,
BDE65437,
BE262C7F,
BD674EA0,
BD882BD6,
3C9C3E33,
BCB774B5,
3D3784EB,
3C6A00EC,
BD3DE2D6,
BD1A91EE,
BE1FE760,
BDC44AC5,
BE478C4E,
BDE3911E,
BE09EB94,
BD952532,
BE589CE6,
BD739AB9,
BD715862,
BE09125F,
BE318A85,
BE17DE9B,
BDA48176,
3D4DCFBA,
3D7E4694,
3D994031,
3D9C597F,
BD87F717,
BBB1E44B,
3DEE4B95,
3D3094FB,
BA53BCC7,
BCD7CBDA,
BD777D5A,
3C1A90E7,
3D0AB8CB,
3CB3D2FB,
BCFAC6CC,
BD3A6077,
3D111912,
3DFAD80F,
3D28B014,
3CE74B36,
BDE05EE6,
BDF808DF,
BCDBE8A1,
BD6BCCC7,
3E06F908,
3CBCE88D,
3E14204D,
3DE0E331,
BDE4876F,
BC830E59,
3B61ADF0,
BD16B9AC,
BD486FBA,
3B08B1AE,
3CD4EC94,
3C9AA7FF,
BDE9F452,
BDABA875,
3D764945,
3CF7DD9F,
BCB6A68D,
3C43BAE6,
3E26D0EE,
3E36CA1B,
3E0E86C4,
3DB7C9F6,
3E094770,
3E06D092,
BAF92BEB,
BD0F0C19,
3D4E3C6A,
3C3C1DB3,
BD488385,
BDEAB5EB,
3AFFF551,
3E0681E3,
BD382876,
BD77B02B,
BCC6C3AC,
3DB78D84,
BDBF17A4,
BD82C5F6,
3CE2BBE4,
3DF03544,
BCBEECB5,
BCDCFCEC,
BC9C0A5D,
BD67FF8B,
3DD247A7,
BD221FE0,
BCAD7A2B,
BDD60CFD,
3D1B8DEE,
3E0357B2,
3D4B2792,
BCC6AE81,
BC67772C,
3DABC4AE,
3D089942,
3D6786B3,
BD41F48A,
BD3FD9D5,
3DB2FEDA,
BE34FF46,
BD30554B,
BDDDC374,
BDB745FB,
BDDC4D3A,
BD9DE3D8,
BEA37F90,
BEBD8F43,
BE6740F3,
BD38075E,
BE31DB78,
BE70EFE2,
BDCF3000,
BDCA3DE4,
BCFE8E4A,
3DB54FEF,
BDABC9AE,
3CD71C82,
3DAB944C,
BD8773CB,
BD02AC65,
3DF21763,
3DE2C587,
3CBF40EE,
3C9F231B,
3DCD2AA6,
3DFF7C55,
3D79B5AA,
3DDC0524,
BD63DFFB,
BE7D8E2E,
BE059F74,
BE57FB3B,
3B53182C,
BD8BC5AA,
BDDEBCD6,
BCCE5B19,
3D1BC33D,
BCC2188C,
BCBC957F,
3D7E9D3E,
BD9272C0,
3D9110D0,
BC6BCB64,
BC56384D,
BDFCC7C4,
BC64D137,
BD582184,
BDFB1136,
BCDB45F4,
3D762D74,
BCA5E76F,
3D2DF76C,
3D831701,
BAD27C78,
3D6CF9AD,
BE4410FC,
3D6BF95E,
3E0AF3B7,
3E4886C4,
3DADFE5D,
3E6D26BE,
3E1C3E28,
BD4A6B05,
BD681AF0,
3E436375,
3DEB1F90,
3C27CFBC,
BE2F12CF,
3DA0C326,
BD4B5DE5,
BDDF405D,
BDAA912A,
3DB91184,
BDA2B476,
BD7D6269,
BD3EE2DB,
BC358FDF,
BCF9151F,
BDABB78F,
BCAB8731,
3DBC1114,
3DB39E95,
3DAE805B,
BC8B456D,
3DE60583,
3DA61C90,
3DDD8A1F,
3E18D838,
3D80E57B,
3D33FE5D,
3DAC7818,
3E13169F,
3CF3AFB2,
3D9B6282,
3CDCDCA6,
3D847D06,
3E19FCCB,
B9375698,
BDEBEB2E,
BC42AB18,
3D284D7D,
BD43B678,
BDF02464,
BD9E85F0,
BD90D00B,
BD5CEF33,
BC9321E9,
3DD10232,
BDB8CA5B,
3DED5DC6,
BD1ECDC5,
BD64B781,
BE3E5A5E,
BCB52B0F,
3D0ACD51,
3B5C18D9,
BD49350A,
BC955385,
BDE121CD,
BDA2434B,
BC454083,
BD8E8FB3,
BD8C9A30,
BE0AC7C2,
3DAC6E44,
BC9654BD,
BD0D940F,
3CE6E5D5,
3DCBDA40,
3CC92324,
3E0768B7,
BD97EA83,
BE6DE33F,
3D125C5D,
3D81C482,
BD122B4F,
3CAE9B8C,
3C918D50,
3D09E56B,
3BAAED87,
3AA84B8A,
3D1182FC,
3D010917,
3D22B899,
3DA80FBE,
3DD53A4B,
3D7CACF1,
3C89A54C,
3D8E2940,
3E0B33AD,
3DC9012A,
3D19E52B,
BD45364C,
BDE16FEF,
3CB1652E,
3C21AB0D,
BE69E277,
BD29CD79,
BE71F158,
BE7BDA27,
BE0121C4,
3D061AFB,
3A52AAE6,
BDA824CB,
BDF9A0C9,
BD893D12,
BDD32C17,
BE45B7E7,
3DE3E315,
3C96859D,
BD33E7D9,
BD7C590C,
BD25B025,
3B5A7FF5,
BB8AD668,
BD26ACCE,
3CB96FCC,
BD2C272A,
3CA852E4,
3CFB4134,
BD7234C4,
BCFD0348,
BC744F3D,
3D1413BB,
3DB94B9C,
3DA688D2,
BC1C9B57,
3CB46CDB,
BC4309CC,
3B5EFA08,
3C4FF1E0,
BE3CB511,
3C8AD330,
3CB4219F,
3CCADAC0,
BE45A62D,
3C0D0BFB,
3DBFBC3E,
3E06DB67,
3BCA439A,
BDE16805,
BDF8E26E,
3E0FAEEA,
3E0C1C58,
3E0BDEBA,
3E20974E,
BDA2D630,
3D814682,
3E1E3254,
3CC2AAFE,
BD7DBED4,
BCE4F3F2,
BD0CDF79,
BDA2B1F1,
BE8ADFDC,
BD4EDA8F,
BD6B03CE,
BE1C41FF,
BDA931D5,
3CAD40D2,
BE514CA6,
BE5BDE92,
BE8ACE71,
3D851EB6,
BD01A3B4,
BDBEFC7D,
BE220BB2,
3CE26AAB,
BDAA2E2A,
BE0F0545,
BE5B7E50,
3B78B576,
BE8D4F94,
BEA1DD67,
BE9E542F,
3C9FABF8,
BD177A79,
3B887411,
BC83AC80,
BB4D3B8C,
3D070B13,
3D009227,
BE11C2A5,
BBF7D4BD,
3D87AA4D,
BD3E193F,
BD93C5A4,
BB915C72,
3C257A46,
BD48075F,
BCD0269A,
BCB4C5EA,
3D9BBD2A,
3D9CD226,
BCDFC60F,
3D93E2F7,
3E68C37D,
3A9A3FF0,
BC66D8F2,
3CBCAB6D,
3DA68CD5,
BD63A633,
BDB97705,
3CED7EE4,
BD35FBFB,
BDC34075,
BD5035DE,
3CD50714,
3CBE8835,
BD5BEECC,
BE2E5264,
BD7868F7,
3E7E89B4,
BDA6FC03,
BD99D541,
BE03F73A,
3CD5357E,
BD507D25,
BCD56184,
BDAF506F,
BE0C25A4,
3CD3B93F,
BE414FE0,
3D865D72,
BDA75F4C,
3D666FDC,
BBE3B7A9,
3DD9F7CE,
3E44C5CD,
BDB4F25C,
3DA5F71A,
3DA9CA2E,
3BC3C42C,
BD64A825,
BD40005E,
BD85923B,
3C236FF8,
3CB6C971,
3D7A7484,
BE1805D9,
3DC8FB29,
BD691EBD,
3C8F831B,
3D0ECE6B,
BD3FA736,
3D3223A9,
3C6ABC8A,
3D55BFBE,
BC38C64B,
3D6A3CEB,
3CEC1DFD,
BB4D1F80,
3DCC748F,
3DA35C75,
BDC29ADA,
BC1CB7C4,
BDDF0FF3,
3CBECA57,
3DE66057,
3A5A9B86,
BE0A4D43,
BE1E9F40,
3DE39E72,
BD1FC629,
3DB9848C,
BE8E1891,
3D09B58F,
3D646BB4,
3DBDB6FD,
3D8142B7,
3DF94408,
3DC2912B,
3D25038F,
3D2FC6C9,
3D30CC45,
3C05AE60,
BDB6648F,
BC589058,
BD430C7C,
BD5D3540,
3D0D5039,
3D9A551E,
3CD33172,
BD710FCC,
3D224AAD,
3DEC8266,
BB636494,
BDBE7D71,
BE0DF5AC,
BE50DE54,
BDFD34C3,
BC71AC39,
BD0BB0FB,
BE6C7CAA,
BE9AA147,
BD928BCF,
BB1142F4,
BC0C5D72,
BD79CB54,
BDDCAEF6,
3D4C49D1,
BCFA7A89,
3DC3B18E,
BC7F2970,
3DAA7C90,
3C847AC3,
3DCA171A,
3E022699,
3D589ABC,
BD55EE8B,
3BA32634,
BE32CB25,
3DC5C3F7,
BDB867D0,
BDFF4FFD,
BDB89E91,
3DACA73D,
BE0F407A,
BD9A641E,
BDFCF1FD,
3BB6973E,
BD9D629B,
BE047D43,
3CD37369,
3CD2BF8A,
BE2DCAEB,
BE0C06F7,
BE18567D,
BCEBDE5C,
BE119F70,
3D144B34,
3BFF45C2,
3DD2E118,
BDA9E1E4,
BC816917,
BCA281F4,
3E0B1C4E,
3E0CA99F,
BDFF1845,
BE283E41,
3D6AF9E1,
3E27EA17,
3D40FC91,
3E06C325,
3BE3C450,
3E117428,
3E23500E,
3D28F188,
BC019444,
3E275FF4,
3E21534F,
3E448CF6,
BC5C8D65,
BD4370D6,
BD8EDD62,
3DC7512C,
BD9812BC,
BE39A92B,
BD10F184,
3D99AA29,
BD4CD1A0,
3DCF93FC,
3D385535,
3E3037D9,
BD780420,
3D4649E5,
3DB6483E,
3DAB76B7,
3D2EA28C,
3D25C016,
3E5FC23B,
3D9A3572,
BDE5C809,
3DB7CE09,
3E2D690F,
3BBE1CA0,
BE2F0F61,
3CAA64D0,
BD87D5EE,
3CEB4654,
BD8D3ADB,
3D38D80E,
3D902E66,
3E37CB95,
3DA3D0E6,
3DAA7519,
3D84DC4C,
3C47DB3F,
3D698975,
3E13E79C,
3D9A6548,
BCE2638E,
3E085B80,
3D9057B9,
3DC17C88,
3C4C6D97,
3D50F7F8,
3DCF0A81,
3D6DFB1E,
3CCD7527,
3D127128,
BE3E9364,
BD8F8625,
BB132313,
3D0A0F75,
BD63D0C0,
BD47DEDC,
3D245628,
3D3325F8,
3D1208E3,
BC2EF5BF,
BCC55C33,
3D9F52B1,
BBFA446A,
BE167833,
BDFA7D35,
3C21DC85,
3DB96526,
B9FDB896,
BD19F636,
BE42CDE7,
BE4DC99E,
BE5DD1B0,
BDBC545F,
BE7BF4E3,
BE0DFC06,
BE54DDAE,
BE1D8675,
BE07BD87,
BDD5035C,
BDDD6FB5,
BD3E8BF6,
3C031588,
BDBEE18E,
BE9C6DD4,
BC891F63,
3CA63D8F,
3D4C6155,
BDE69C04,
BDEFCB47,
BCED1F0C,
BD114092,
3BB6F286,
3E059BA1,
3B9CA025,
BDD5E879,
3C50AF4E,
3E15D23C,
BDD07132,
BDB15903,
3CF6B02D,
BE58765C,
BD238349,
3E02288D,
3E49AFBE,
3E2D8122,
3DD1FB8D,
3E17EED9,
3E4CB0B7,
3D4B2D06,
3DA3EDCC,
3E2639A1,
3E45A8C9,
3D92A957,
3D81E7EA,
BCA9F12A,
BE0FD10D,
BE09043E,
3D8A1701,
BE587421,
BEB24A0C,
BE99B7D5,
3D9BABB9,
BE2A84BE,
BDBCDFD8,
BC942B31,
3DD19BD2,
BCF3620A,
3C981CAD,
3D8FD62C,
BDC7140A,
BE1F3522,
3C542C7C,
BC946970,
BE022959,
BE0163C9,
BC9A517F,
3C8D5DC3,
BC8275FC,
BD099AE1,
3D8128EB,
3DB99439,
3DE2B651,
BD2D5254,
BE28AF18,
BE35C7D5,
3D6F0F9E,
3DA18460,
3DC17C1B,
3D85CEC6,
BD9ABBDA,
3CE0FA2A,
3D6787FC,
3C4191DB,
BD34F998,
3D73C500,
3D6CCB21,
BD49A190,
BE9D7652,
3D2F74E2,
3CBF1446,
BD724003,
BCB5A211,
BDB8E24C,
3DD36F22,
BCE24DCC,
39607A26,
BDFCBF1A,
BDA274A9,
BDCE0A5F,
3D803813,
3BF36A57,
BDB5BB2C,
BDEE5D7A,
3DE01B72,
BADF3E0F,
BE3BA34C,
BD09297F,
3C8AA8C9,
BD73FB75,
BDDBB316,
3D925137,
3D9E0F70,
3DD7E95B,
3D8AE92B,
3CD05162,
3DC80193,
3E2636B3,
3DBE4AA4,
3D2562C2,
BD63DA56,
BD5DCBA2,
BDAF2ADA,
BBD2882C,
3DBB3744,
BCC033ED,
3E01D55F,
3D8F6A3A,
BCF09538,
BCA019BE,
3DEB6576,
3D94879A,
BDB519D4,
BE1FAE44,
BCB608B2,
3CED7F9C,
BE5EF6F7,
BE229CE1,
BD0040FE,
BD146968,
3D065865,
BDD999B4,
3AE89B1E,
BCA325A6,
3C789372,
3C664D87,
BAF7A144,
BE15C914,
BBCA3BEA,
3DDE87F9,
BCE05918,
3DD6FD36,
3C6C0A05,
3DA71279,
3CA53FD9,
BD2598F3,
BCADCFEA,
BD90096A,
3C3F15AD,
BDAA04C0,
BE0834DE,
BDD9DDB6,
BE399021,
BE5D9742,
BDA303E7,
BE1CD900,
BE2626F8,
BE7DB479,
BE23BE8A,
3D867B6A,
BC008AF1,
BDF9D556,
BD7E6466,
BD40E765,
3D95702B,
BC6877B3,
3DDADE10,
3E15AA0E,
3DA2EDC7,
BD72CED5,
3D895308,
3E4DD224,
3E1E86C0,
3C9E7D12,
BD366313,
3DC7E4B5,
3DF986EA,
3D8A1470,
BE227EA2,
BE1C744A,
BDDC1D1C,
BD867209,
BE321C81,
BDB19025,
BD95C94F,
BE2D9BE2,
BE426F4E,
BE5F59FC,
BD07E621,
BDC0E965,
BCCF0D85,
BE60BC41,
BE1423A1,
BE284062,
3D534E22,
BD9EDADC,
BDB5E89B,
BB965D07,
BCEA4D53,
BD697812,
BDF8D559,
3D30907C,
BC7533C6,
3DE92BBF,
3B0D235F,
BCAB244C,
BD44D7F8,
3B97DC0D,
BD5F9ECD,
BD557BFB,
3DF37A2D,
BDBC4D1A,
BD674635,
3D704077,
3C87C804,
BE6A3510,
BD835489,
BCC0A642,
BDE30E3C,
BE8492E0,
BE23E0C0,
3C115D83,
BD7945EE,
BD98D81D,
BE2AC0DF,
BE73AD68,
3D7AA6A2,
3D744E2D,
BC2DFF19,
3DE292E3,
3D14FCE7,
BD246524,
BDB8F1A1,
3CB4DF62,
BD96C8C8,
BD5DEDF7,
BD3FB8A0,
BC4137C0,
BD98ADFD,
BD0D2362,
3AA12AB8,
BCB53814,
3CF63775,
BD666CC8,
3D8D6384,
BC80BF6D,
3B343B42,
3D0B3FC3,
3DC97885,
3D7FC1BD,
3DAB3C60,
3D800BCE,
3D953EB7,
BC938158,
3DD251AF,
3DE95D66,
3D7F4743,
3D10E9DB,
BE2E6D66,
BE11569D,
BDB59EE4,
BD1B552F,
BE20B902,
BC4A3DA9,
BDBE529D,
3DB511D5,
BD8C9DA8,
3DA76B57,
BDE62215,
BE9BA03D,
BC83EE45,
3D484530,
3DC877B3,
3CD946F6,
BDA852CF,
BBF69BB4,
3C427F8E,
BDE18104,
BDAF03EB,
3D59DCA4,
3D485681,
BD096553,
3BAE0F9C,
3D460AE7,
3D324531,
BD4935F0,
BAE1E660,
BD3E536A,
3DA48AC4,
BD89F257,
3C853F90,
BD99050B,
3D63C1B4,
BB456140,
BE1A72B9,
BE14D9D6,
BD3D7AC7,
3B8272B4,
BC416731,
3D933998,
3E090F7F,
BE09FDA8,
BCDA9F8B,
BCFBA6DE,
BDF48B9E,
BDA0D56E,
BC874FB3,
3DA64B24,
3D5BA025,
3DC073F8,
3D772582,
3DC64171,
3D93EEE9,
3CBFA903,
BCA7D9CF,
BCBAB6F3,
BB5B3FE8,
BE23C8B4,
BDD44EF2,
BD2C5BC5,
BCDDE170,
BE199AF2,
BC7E3752,
BD4FAE33,
BD7D3D6C,
3CFF5A70,
3DAEB688,
BDFEBF8D,
BDF4CDD2,
BDBAB12E,
3C2BBA07,
BC93F161,
BD8BFFB9,
BDDDD433,
BDD2604E,
BE0594E5,
BD29831E,
BE502751,
3DA096EF,
3CF9355D,
3DE61131,
3E21DBFD,
3D735A2C,
3D957E5C,
BB5EEC38,
BD04477C,
3D24096C,
BD51AF44,
3C5C63EB,
BC9BDC1A,
3C7FE452,
BE2C439E,
BE4D57A0,
BDD0F6E0,
BD90A706,
BE266CDB,
BDEE24B3,
BDA21125,
3C199613,
BE072723,
3C87205C,
BD94B558,
BE98F74E,
3E097DBE,
3D0D8D01,
3E016209,
BDC0A640,
3DB7FCBF,
3DBDA6B7,
BBC67681,
BE211D20,
BE16C0E1,
BDBF8622,
BE3FCC39,
3E2C5571,
BE0370F4,
BD92469D,
BC8C7D8D,
3D7AE42A,
3E29E410,
3E6E22EC,
3DEE9902,
BB9659EE,
3D7C2716,
3DD09B57,
3DF7D7DC,
3D587024,
3E338AB1,
3E7E2E7A,
3DE80C1E,
BD739282,
BE07CD94,
BD85F01C,
3B5C9F39,
BE035585,
BDE6A62F,
BCEBF7F3,
3B7C8975,
3D4730BD,
3C831F53,
3C245445,
BDC8F376,
BE0699B6,
3A5D8AD4,
3D464E58,
3D41FE5B,
BE1BB998,
BE181317,
BE27AB4D,
BE204FAF,
3D028609,
3E46E378,
BD329517,
BE14726F,
BD68F697,
3D4CF3D6,
BD10FB27,
3CA05CD8,
BD97E061,
3D6B3528,
BDBEAE36,
BDCDB9F7,
BD1FEF54,
BE62D74D,
3D170CFA,
BE37F503,
3C66F7C3,
BE2245F0,
BD9672E6,
BDF376DD,
BE22552D,
BDCF8D6E,
3DE8FE12,
3D2B481D,
BE1B9631,
BE82A632,
BDD920B0,
3CE6BFDE,
3E1772D0,
BE1148DC,
BE7C0781,
3B2C1D20,
3E618CC8,
3C4E0BBC,
BE3FC169,
BC3E5F32,
3DD76633,
3D534B35,
BD186C39,
BBFA4A09,
3DE294A6,
3D56BEF0,
3DA819D0,
BD96DCD4,
3D8064DB,
3E86AE90,
3E77C364,
BE0C5A62,
BD659D01,
BA9BD94C,
3DFDC2E0,
BDE87AC4,
BE0BD9BC,
3D9F1217,
3DD7F267,
3DAD7229,
BC580D81,
BD8D0B07,
3CA9BEC4,
BC3FE820,
3DB63EF8,
BDE43481,
3D6456C2,
3B1C0C6A,
3C9B24A3,
BD6335FA,
3CA916C7,
BC71EC4B,
3DA2DB8E,
3C99AA7D,
3D32A4D7,
3DAC1F23,
BDCE397A,
BDA81482,
BD466A97,
BD8E026C,
3CE75DC2,
3D2398AE,
BDDE702D,
3C1AFD57,
3D58A626,
3D9389E0,
3C9A4C10,
3DDC746C,
3D7F89AC,
3DB9C9B8,
3CFC5DE6,
BDA86125,
3DC78A03,
BD45F1F8,
BD903B34,
3D32A713,
BE009AB5,
3C2B2664,
BC68C5A6,
3D9ADCFA,
BDFEC9AD,
3C68D079,
BA6E5885,
3D98FF5D,
3C95B95A,
BE159EC2,
BD8193CE,
BE1A5557,
BCE4BDA6,
BB063C4E,
BD7DFBB8,
BCEC8E2F,
3C04031F,
BE004C68,
BE415F31,
BDA5B478,
3E470A67,
3E67AB53,
3EC0F328,
3E28CD65,
3E0F217F,
3EAAE70E,
3E9E8F47,
3DDDF7F2,
BD3DC409,
BD853312,
BD4D6B50,
BD2D0B40,
3D0FB49D,
BE635E8F,
BE538E55,
BD42CB9A,
3C0EC754,
BDEA3FF3,
BE248472,
3C7D55BE,
BDA02AA2,
BEAE349B,
BD83D9A1,
BCC6822B,
BC2D5DB3,
3C94AC55,
3D08D333,
BDCE7948,
BD28AB35,
BD5C360D,
BE402EB4,
3DFC6F44,
3CF31CDC,
BDBA6540,
BDDEFBC4,
3C5E7298,
BD07CE97,
BCCAEA05,
BD54A20C,
3CBCEC23,
BD383D91,
3E080A0E,
3D77FBEC,
BD3980CE,
3C37F9F8,
3D3887C8,
BE5751E9,
BE2D0534,
BC84BC1D,
3DA8492F,
BCDB9930,
3DE9FD7F,
BD4A960D,
3E14F86C,
3E508790,
3C8BF07B,
BDF6C15E,
BD9A96EE,
BDDF7FD7,
BD822765,
BD34222F,
3DA06023,
3D237228,
BE220D83,
BD46D518,
BC990B0C,
BDC530A3,
BE3E0187,
BE5530BB,
3C271C5C,
BD3C2B7C,
BDFDBAD7,
BDCBF93F,
3BCDE402,
BE04B071,
3B9BE475,
BC3A8726,
3C1D90F8,
BDDFD3A2,
BC7C17B8,
BCE1A491,
BDB869F1,
BE04F350,
BB8ECE6E,
BC864ADA,
BD38E61A,
BD0CDF0F,
BD3DAA62,
3C456753,
BD9BE62E,
3CFD1AE6,
3E13DF84,
BC94CFCF,
BCE853B5,
3BAA4D1D,
BAD7A5CE,
3DA09595,
3D2FF031,
3D4CB532,
3D27CBAA,
3CE519C7,
3D6B0A89,
3CA79B44,
3D0957C8,
BCDFE6E8,
BDFDDD8F,
BD0F6E27,
BD1A95F8,
BA4F95E7,
BE537464,
BE60E1F3,
3D3C743A,
BE2D0D4C,
BE0956F8,
3C44BA5F,
3D96F43A,
BD55AEBB,
BD2B6093,
BE1598A9,
BD1D01D9,
3D5AE665,
BE4EC100,
BE227E2A,
BD4C339C,
BD1D156B,
BD82F591,
3C6EAAD0,
3CAA1EFA,
3DDAB0BD,
BE303CA2,
BE703543,
3D369CBA,
3D7F2CC7,
BCE7BC7E,
BDC3B332,
BD247DF8,
BCEA58BF,
BE11B56D,
BE4DD9F7,
BDAA7FFE,
BCCB82C3,
BD25BD16,
BE885794,
BDF3527F,
3DC84D57,
BD572FCD,
BDB28D45,
BDBDB3F7,
BC8A9D4A,
BD9A1E17,
3C49A553,
BD80B87A,
BC0AB687,
BDE4CB08,
BE24A61A,
BD165843,
3C8BA68C,
BE4CBAC4,
BE1B24EA,
BD450017,
BB0CCE47,
BEBF07E6,
BE707220,
3D41F45B,
3DA4A6E8,
BE023D65,
BE376C4B,
BB103349,
3D35FACE,
BDF6DFED,
BD47A3F0,
3D5CABEA,
3D809FCD,
BDEA6E56,
BE011D40,
BD52D4FE,
BD8CA078,
BDC8BEBB,
3C1A4F73,
3C379D82,
BDCEC43D,
BDECCF49,
3C80279D,
3E1A3B2B,
BD4A926B,
BD90FEB3,
BD1F4706,
3CE01A1D,
3CFB364C,
BDEA330C,
BDF97F12,
3C3500DB,
3D952BB4,
BC2F9F15,
3B9AFDE8,
BE199619,
3E06B50D,
3DF6EE70,
3C7E582D,
BD8256EA,
BD3A0DC3,
BCB5B3BE,
BD7406CD,
BDB344DB,
3CCF251B,
3D5F061A,
3D2E92C5,
BD500796,
3D6C4129,
3D8C83F1,
3DC3DC85,
3E130BA5,
BE1A0F43,
3DDA5544,
3DD5A4E6,
3D2B1179,
BE014702,
BDC3674D,
BD62ACCB,
BDB770B2,
BD9594D5,
3D8FD5B0,
3DCF8F01,
BD740B14,
BDC38C94,
BDD19006,
BD794832,
3CE797FE,
BE2D2BC0,
BE79F345,
BE1C1D1F,
3D6968AE,
BDC09515,
BE20BC6C,
3C806B87,
BE0CACF7,
BE411ADF,
BE011112,
B908C063,
3DB32158,
3DD700E7,
BC6834D5,
BE12C9FE,
BDD7DE59,
3E251402,
3D6AC9A4,
BD5AA01D,
BE0C4249,
BDA2C63C,
BD7C7C04,
3DAA449B,
BD8A4C4E,
BC49402D,
BE30B0C8,
BD4A17E0,
BD75E0D0,
BDDA2911,
BE29AD2B,
BE2C83AF,
BE69EFF9,
BE21C827,
BE9AE16F,
BE8B001F,
BE73E774,
BDE4BCE9,
BDBEB517,
BDF6BAC2,
3D084A04,
BDCD461D,
BE8E015D,
BE668FEC,
BCB95E01,
3D92313C,
3C552B87,
BD624C1B,
BD99934E,
BB281D18,
3DDB525E,
BDC1DBE5,
BCD09DD5,
BCA6199F,
3D915770,
BC9E604C,
3D6E66EA,
BDA6D895,
BC59E5C4,
3CA492E6,
BC2EB65D,
3D9D31AE,
3E18E699,
3E07692B,
3DB65E3A,
3CF58A7C,
3E107709,
3E1AF296,
3E2E281E,
3E20C237,
3D12EFFF,
3D87E5BF,
3BC9B4C6,
BCA9327E,
BDBCD039,
BD76866C,
BCBBA5FA,
BCA586CE,
3DBEB163,
3E018BBE,
BD16612E,
BE0C68EB,
3D7E281E,
3E0459B5,
3D2AB022,
3DF99EA6,
3D532B2B,
BBEE8964,
3DEEB709,
BD151060,
3DC44667,
3BE4101D,
3DB8AA0B,
3D4BDFE3,
3D0D900D,
3D110FDC,
3D55BD04,
3E0BD8EB,
3DBA6281,
3DDE1932,
3C6ABE01,
3D2438A3,
BCFEA7C9,
3D9075B0,
3CB26750,
BDE4500A,
BBE81049,
3DE511D7,
3E18A736,
3E2EBF47,
3D49F112,
3DE19486,
3E1D6D80,
3D928646,
3D02F38C,
BC05D53E,
BD9B610B,
BDD17E72,
3D97E4A1,
3DB305EA,
BDB90AA7,
3E1BF524,
3DD1076F,
3B39B9C6,
3E1E6CFC,
3E087377,
3DB3522A,
3DD0264A,
3DACF029,
3CC5E864,
3E02FA60,
3DEC93C8,
3D5093AE,
3D0133FC,
BAE29181,
3D12B56E,
BCB69347,
BC77D6F7,
3D26A6F8,
3E29F2F8,
3D0CAA8E,
BBDAEE6B,
3D78921F,
3DD8CE41,
3D99AF16,
BD4EBE1C,
3CB5CAD9,
3DA0FB1A,
3D8D6BE0,
BE190BF8,
BD8BE8C5,
BE0641A3,
BEA330F1,
BDD2F21A,
BD98D939,
BE8FE72A,
BC375FD4,
BCA3E39B,
3D308480,
BDAE348B,
3E0315AD,
3DB5CC2C,
3D3D17FE,
3D954203,
3D2C63A2,
BC60970B,
3C58A8E1,
BD0C76C2,
BDA17EE3,
3D0E8E95,
3A47C05A,
3D007D8E,
3C853DBA,
3DA0F527,
3E2AB6CB,
3E277DA9,
3DD01B1F,
3B3AE882,
BCF61BEB,
3CEF0F8B,
3DC6061D,
BD88C37E,
BD89EEB2,
BD676539,
BA93DDF5,
3E100CC0,
3E204F60,
3DE73869,
3C6173CC,
3CCE4D7C,
3E39C0AD,
3E2FCEC2,
BD0BD5CC,
3D82AD84,
3D89DEBF,
3DB7CF7A,
3C8032D7,
3CEEC91F,
BD5E94C9,
BD427F8F,
BC3D3B15,
BDBFC994,
BE6A73E9,
BDEC6807,
BDA39A61,
3D7C1D63,
3D7D47EB,
3DB04900,
3DD9E785,
BD58D940,
3B926DCE,
3E023D41,
3D8E27CE,
3CF57E93,
BD0C454E,
3D7FB644,
3CC9F8D8,
BE3D1CB2,
3C043247,
3DE81B3C,
3D70C21A,
BE66F1FB,
BC2F8EA8,
3E18732B,
3D75E535,
3C9CF2A7,
3C8151AF,
BD8BAE78,
BD37716B,
3D08856E,
3D9ED9B4,
BD1167BA,
BAF0AFA4,
3C933B9E,
3D0D7574,
3D32E53A,
BB3619F5,
3D9A18AF,
3DD6F1BD,
3D4F57EA,
3DD809EE,
3E1ECA0E,
3DDCEEE5,
3DBCCF25,
3E13E3D3,
3C3C7834,
3D8F1157,
3E00DAD4,
3C8F4CE9,
3C537FDF,
BDBF75FA,
3B939708,
3BFC0BAA,
BD661957,
BDC7BFD9,
3CE2CB73,
BDEF1BDA,
3CCE2B20,
3B5D6BF0,
3D90B13B,
BE5310D7,
BE2277B9,
BDAEEA19,
BDFB25E7,
BE48A742,
3DC0E191,
3D5CBE2D,
3A8832EB,
BDF85983,
BCDD9961,
BE6074FA,
BE696660,
BC2876E0,
BDBDA2F8,
BE50E0D1,
BE5EF879,
BD609552,
BB89E8FA,
BDD32A0D,
BD46EB82,
BD83E836,
3E0D44D9,
BE6AF336,
BE1615BB,
3CE9D120,
3CBD54C1,
BDD75653,
BDF98034,
BCFF228D,
3D7AECAC,
BE553257,
BE435E9E,
BE4F1E3D,
3D0D8F40,
BD83B542,
3CE62E39,
BDD8031C,
BDF18B69,
BBF7F93D,
3D912065,
BE1A6090,
BE044C26,
BE80EE44,
BD55B5A7,
BD831099,
BE571BCB,
BE0BB9DA,
BDDF5CB1,
3A3766B3,
BD51DB45,
BC4B0477,
BD323088,
BB93EFCE,
BD7536ED,
BC181C88,
BD1094C5,
BE394378,
3D478E4E,
3D7FA0C0,
3DE6F67C,
BDF0A628,
3CD838FB,
3DAD20C7,
3CF073C0,
BD639D8C,
3C4B687F,
3DA33E8C,
3B57EC7A,
3CA12A9D,
BBDC7786,
BDA3C1C4,
BDFA2847,
3C860997,
3B6F189E,
3DA5848B,
BDEBD680,
BD686CBD,
BCB782AD,
BDADF203,
BD8B60EE,
BD43CBBA,
3B8CBA51,
3AA101E3,
3E09F21E,
BDB416E5,
BCC25C77,
BD88E65F,
BC63F163,
BE4843E7,
BD621B99,
BE0F8976,
BE2DBC91,
BDBF6F28,
BDE08ACF,
BD84A51D,
3DDCABE6,
BDA795B7,
BD997298,
3CA67E82,
BDA1A1C2,
3CA5BC48,
3DAC2D0E,
3C9AEE1D,
3CF20FBF,
BD79FCFC,
BC28F5F7,
3D2DD763,
3DCCCBC0,
3DD296D5,
3DAF4207,
3E3768A4,
3E281A1F,
3E68DE01,
BE2F110A,
BDF627E7,
BDF8DF05,
BDB419CD,
BE3AAFF3,
BCD84FE9,
BE0F7DA2,
BE1A7CDC,
BDA8199E,
BE128070,
BE13CB9F,
BE1C00EC,
3BA12FBC,
3D523794,
3D8F75EF,
3D6D90EA,
BDB86144,
BE2D1314,
BD851F14,
BC8B19FF,
BDAA1153,
BD0EE06A,
BE13A311,
BBA76969,
3D99780A,
3DE01383,
3E0D1EFD,
BE87CF60,
BCB04ABB,
3E0CE4DC,
3DB9B845,
BD16CDD9,
BB5E6FDD,
3D819927,
3D3BA2B6,
BD29C23A,
BD5075EB,
BE840ABE,
BE37EA1D,
3B9B9209,
3CD6049D,
BEA04938,
3DBF1C18,
3E4D5231,
BE1E7678,
BE9A9355,
BE4E37F7,
BB75BC05,
3C8D5959,
BE055C50,
BC3CB9B1,
BDD2B414,
BD78914C,
BE2D1650,
BE06B7B0,
BDE25D4C,
BDF99E08,
BE6DDEFF,
BE5070B4,
BE0E8892,
BCCF57D0,
BEAF6C46,
BE8F1815,
BE660BC5,
BDA2713F,
BCBE98BC,
BD9FE959,
BD8ED340,
BDA7D5DB,
BD4013AA,
BE49D8A5,
BE141BF4,
BE4E6EB4,
3D61562A,
3E46AB94,
BE19E678,
BE13B88A,
3D153ED7,
3D540A6E,
BDAAB2EA,
3D4DC8C6,
3D15F87A,
BC03FC26,
BD8E173C,
BCFE831F,
3E1A0EEC,
3DF63AC3,
3E0FAE3A,
BDDE0F5D,
3CA7CA82,
3DED8BA0,
BB10BB3A,
BCD2915E,
BD7A03FC,
BDA8C81B,
3C5F6C8F,
BC701FD7,
3DC67E55,
3D60382E,
3CA3C9CE,
3E2F8BD4,
3DECBC5B,
3D3A4525,
BD914EC8,
3DFFCFC4,
3DF47B53,
3E17C325,
3CEA6E4A,
BE42997E,
BE078E74,
BD32983D,
3CE94B4F,
3BE57500,
3D93F8D2,
3D1C2A6D,
39ED3D5C,
BDB538CB,
3D1D4979,
3E1F6D2B,
BD2B5011,
BE5E9BFD,
BC09CF30,
BD534B60,
BDABF93D,
BE2FD170,
3D8D2782,
B9E4C1B8,
B9F5BCCE,
3D540F1F,
3D990036,
3DD93788,
3CF9BDFE,
BD9ACBA9,
BE152C62,
BE77AEFF,
BE006ADE,
BE22394B,
BE5E53C2,
BE8E6075,
BD9704E0,
BE0E51BD,
BDCAEAED,
BBE94115,
BE100DBB,
BD266B4C,
3D1052CA,
3AE4D5F3,
BDCC62E4,
BD65FE56,
BC991225,
3DD1623B,
BDB7D91D,
BDB990DA,
3D33FFC8,
BE0A8076,
BE47CB17,
BD580209,
BDB8E76D,
BDA4441B,
BDEFBE83,
BDA10316,
BDB02983,
BD6B7749,
BC35FC3E,
BE0C15BB,
BD9195AC,
BD8EDADD,
3DF1EDBD,
BE6F3F2B,
3D6926F9,
3D8BF17B,
BE650A37,
BDD86510,
3DFE8DF4,
3DF64AE2,
BD4600A9,
3BAB8704,
3D118F0F,
BCF5B555,
BD7F29D6,
3D33D389,
3B987D7B,
3DBBD6D7,
3B93AF2D,
BE809E7E,
3C524EBF,
3D33999C,
3DEE704E,
BDDCFC1A,
BC85CAEE,
3DF63027,
3E24A8FC,
3DB2225F,
3E289497,
BC0C3A5C,
BD812EB3,
BD6A67A6,
3DF49182,
BCEDB48F,
BDCE8BC1,
BCB6C52D,
BDC9AB3C,
BE96FC8B,
BE10F27F,
BE21AEF2,
BE37E739,
BE6EB016,
3CA345C7,
BD2B6994,
BD701256,
BD066C23,
BD19151A,
BE0134E2,
3D140035,
3DB013D3,
3D0468C6,
BCA944D2,
3EC46172,
3E947456,
3E00CE36,
3D902E0E,
3E60D036,
3E4BAB48,
3B8D6E98,
BDBB2B97,
BDBBDF7E,
3C96F2FB,
BE1A72F3,
BD6F4B52,
BE627327,
BE112ADB,
BD87EAAC,
BD584A52,
BE5729F2,
BE8788B3,
BD67CF9F,
3DE695D5,
BD00B614,
BE192889,
3D62C595,
BD918BEB,
BCBCF4DD,
BDA049F5,
3CA77203,
BD421036,
BE6BA8E7,
BE54730F,
3D98E72D,
BE9609F9,
BECCDAF2,
BDE1B7C6,
3E135B73,
3DDE541B,
BE397C6D,
3E22EDAC,
BC6FABFC,
3CE467AB,
3BE2562E,
BC801B4C,
3BA5D115,
3CCDA891,
3D8EFD09,
BD531799,
BC313176,
3D1E12FD,
3D0701F7,
BCD50738,
3B9CB2CC,
BC1A359B,
BDAC77C6,
3C2C6BA7,
BCD71E9B,
3D0A5D31,
3D9D6309,
3DE292C5,
3D96968A,
3D884DBB,
3DF590E0,
3E1A1C8E,
3D1F01F0,
BE1F6262,
BDC1E1D1,
BC88A0ED,
BD814B5A,
BEBD3245,
BEA8DA7E,
BE8DF3ED,
BE3A1062,
BDDF1DB1,
BE207E08,
BD5F563F,
BE2D5F72,
BC73BAC0,
BE2CCC61,
3C9A211C,
BE14DDDC,
BE714887,
BC3469B7,
3DC542B6,
3CF7FF13,
BDFAAB64,
3D863F8D,
3DFB2AF9,
BE06B8A5,
BD6A5DFD,
BDE10AC3,
3BD17EF7,
3E299BBA,
3CE618BF,
BD498D4A,
3D6BB0D8,
3D838C73,
3C2B1DCA,
3C815D5C,
3DAB8C3C,
3DE98A9B,
BDDE291D,
BD2D8467,
BC0BCD50,
BDF33E3E,
BAF44C17,
3CF6E1EC,
BDA5CD2D,
3E72CB3C,
3C9A848C,
BD578080,
BE515DCA,
BD06FB01,
3CB5717A,
BDB0C0D9,
3C52C09B,
BCC365B4,
3DB9EFEA,
3DE499D5,
3DF99C4B,
BD8CC26F,
BDA37C5E,
BE257AB1,
BD855223,
BD70E767,
BDC9F744,
3C7CEC84,
3D9BC965,
BDB6F812,
BCE6ACF9,
BE15FE0C,
BCA58C91,
BDE40A9D,
3D3262EC,
3B893E33,
BC844DE8,
3DA377FB,
BC7F5442,
3D17EDB4,
3C6474B5,
BD0DB135,
3E1B2705,
3E2B3FBA,
BD73EDB2,
BDC87147,
3E2D87E2,
3E3D9EA0,
3CC59F9B,
BE3F9714,
BDD6AC3F,
BD69A926,
BD49E5DE,
BD1853AB,
BCB5D61A,
BE4E00EF,
BE24D215,
BD8615B5,
BE043B12,
BE76BF0F,
BDB76A4F,
BD1CCE9E,
BE8EF9F8,
BEB6C385,
BE9FDE85,
BE738629,
3BDC4CC7,
BD159D11,
3C8F13ED,
BD62565B,
3D1E1E70,
3D86C4B8,
BE71709A,
BD1C2DE1,
3C588699,
3CCD947E,
BD206413,
3D0800C7,
BDEDBD1B,
BE0FDBC6,
3DB6169A,
3D72EE12,
BD85D5BF,
BDFA89A7,
3DB953A5,
3DDC5CDF,
BE072E6E,
BDDC87B4,
BD96ED07,
BE1A5173,
BCA0EE13,
BAE07A42,
BDE5A754,
BE524904,
3E13FC0E,
3E3A6A81,
3E1D5E9B,
BE2CC2FF,
3DD21CD1,
3DDCF83B,
3C076215,
BD98D200,
3DAB692C,
BD76FC6E,
3D6BC34B,
3D0CE844,
3E094619,
3DC9DF7B,
3D6B3C0E,
BC237F0C,
3E0620D6,
3E3D17CA,
3E305FEC,
3D1797A0,
3DE3AA47,
3D2B44DE,
3CDA69A6,
BC1B6B3B,
3D951D25,
BDE7F70C,
BDD6C93B,
BD43C9FA,
3C98B03B,
BEB92789,
3CE5A6B4,
BD81FA49,
BCF1107C,
BDD19268,
BD350129,
3C0030BA,
BE02C6C3,
3E0AFA6C,
3D04442B,
3DE33B1E,
3DA6F12E,
BDD908CA,
BDCC39B3,
BD5218CC,
3D578251,
BD85FB43,
3D33E07D,
BA24A4F2,
3E2153FA,
3DACFC31,
3D94DB7C,
3DE324ED,
3D9D7CB2,
3E0BE938,
3DD48E68,
3E12464A,
3C4819FD,
BCCB4CDF,
BD44FE72,
BB476022,
BC0A1C2A,
BCED0DF9,
3D8B4A02,
BC814D81,
3CF452B2,
3DA68F00,
3DF8FCB5,
3CFBE3C9,
3DBB290C,
3DD7F2C5,
3D81F4C7,
3E0B64E3,
BE055847,
BE2F2643,
BD72826A,
BD95CCDC,
BD50CC32,
BC6EF3C7,
3D26D02A,
3D4809E5,
3DD2EEC8,
3DB52553,
3D70781C,
3DE01F33,
3DEF9F8E,
3DD1B229,
3C8C550A,
3D4398E1,
BCF1B9A9,
BD0A8E85,
3E1DFEB9,
3DC982B8,
BD07CAF1,
3DCFEAB5,
3E1A1BF0,
3E5E4A58,
3D069CE7,
BC8CE33F,
3E006C74,
3E6D20D7,
3D14F569,
3D0E4886,
3D4B4EA3,
BE1246B6,
3D0BB075,
3E008601,
3DBF6355,
3C97C184,
3E415B1C,
3E381D4A,
3E5AE0C3,
BD3E1CB2,
3D6358AC,
3E0529DE,
3E052DA5,
BDA0E295,
BDF22794,
BD91FA04,
BD83205C,
BA447E26,
BDDE92F1,
BCA7D3CE,
BD1DCF50,
BDBD97A6,
BE138C0A,
BD8AAB03,
3CB32309,
BD1100F3,
BD524708,
BD29E34F,
3C306C96,
BDA97E22,
3DCB27C2,
3D995023,
3BACBDFB,
BCA93729,
BE19C080,
BD9EA542,
BD967537,
3D27C29D,
BE2B8589,
BE301F73,
BDAF3239,
3DD31713,
BE8211E9,
3B5BB855,
3D9CEBBC,
3DCD3391,
BDBE87E8,
3BAB3C96,
3D9C2636,
3DDD6245,
3D3ED1C6,
3D42D6D0,
BD2CF086,
BD819860,
BD303D77,
3E52F533,
3E27AE7B,
3DD42037,
3E280A26,
3E687956,
3E43481C,
3E3FB97E,
3D52917B,
3D86B5ED,
3DBCAD19,
3D873C80,
BCEE5731,
3D5114E8,
3C3AA393,
3DA5458F,
3CAE4724,
3D0CF60A,
BCE2F507,
BD0A991E,
BD09AA35,
3D974489,
3DA2B7C6,
BAA002C2,
BD87EDEB,
3DD23620,
3DDBBF30,
3D9FD607,
3CA67D16,
3D1FB09C,
3D7DE68B,
3DED5107,
3CCEBE63,
3E210E19,
3D98D360,
BDF07410,
3D9A08C9,
BCF941FA,
BD806EB0,
BC138995,
3D320F06,
3DAB82C4,
BDA61B06,
BD17668B,
BDE69629,
3D1CA78E,
BD5BA4F0,
BDFF8137,
3D74F3DB,
3C844A6F,
3D9625F8,
BB97BFE1,
3D85D219,
3DD70E43,
3E1BDF43,
3D71AAEC,
BBE8F932,
3DE877AA,
3DFF3FBF,
3DDFCE5C,
3DFC5ED0,
3DE03D61,
3D642470,
3D8A4F48,
3BB77638,
3E23ED67,
3DD0B003,
3DB00C8F,
BD43F6DE,
BA2BED18,
3D8C38F1,
BC8BE043,
3DAAC0EF,
BCFE79CB,
BD9B9181,
BE2E98FC,
3D251A0D,
3CC20FDE,
3E18B04C,
BD6B97BF,
BDC4A9F4,
BD2BD051,
BDE47C6D,
BC76E94A,
BD5AB370,
BD891507,
BDD86EA2,
BD6EFDBF,
3DEF33C0,
3DDBB0FD,
3D48FC71,
BE5A2573,
BDBC5357,
BCB7D9F8,
3D57F95A,
3D98B78F,
BD7BD520,
BD1D3DD1,
3D474CF1,
BD3F5C32,
3CCEA51A,
BDDA33E5,
BD2302C8,
BD9AAD11,
3E34411D,
3D996CBE,
BCD49AAE,
BE9EB2E6,
BD05CA57,
BD978850,
BE1F8D06,
BD961E48,
3D631034,
BD3DFBF0,
BE586159,
BDB83461,
3D2A1331,
BE59A8D2,
BDAB8C0C,
BDE3D508,
BE023B93,
BE2123BC,
BDD2C3D0,
3C410F39,
BE26FA8C,
BD66B64F,
BDFE5AAD,
BCC036F8,
BD06CE23,
3E0EAF06,
3E1D03A2,
3DF0B5CB,
3CF02097,
3EAFF2D1,
3E9E5DB6,
3E14C04C,
BDE18184,
BC7D8E35,
3C95D569,
BD4B791C,
BDFFAE0D,
BD206E25,
3DF634F5,
BC8B220C,
BDA75689,
BDE22001,
3E421169,
3D55EE6D,
BDA267E6,
3D1B55BB,
3DCC9FD5,
3D302A5C,
BD87DBD1,
3DA76276,
3D503DB0,
BDFC4C03,
BCB40FE1,
3DBB2D29,
BDF97086,
3DC05208,
BDA4786F,
BC941DC8,
BD47CC85,
BC145138,
BDE2F99F,
BE3DFA7D,
BE4D746C,
3CD4912B,
BD5FFF93,
BE850F48,
BE108BC0,
BCA5F45C,
3D4CE772,
3CB331A4,
BC2E444D,
BDA29E7C,
3D83FB66,
3D9678B5,
3DE8BF74,
3C68C473,
3DEE20B7,
3D8346CD,
3DA75684,
3D639314,
BDB6FF44,
BD2212C5,
3DAF6542,
3D603495,
BD3A9D18,
3DBDAB7F,
3D87CD00,
BDB6B338,
3DBFBB18,
3D168094,
3C48BD08,
3DC5B46F,
3D73C55B,
BCE1130A,
3D1EB51A,
3E49A4FA,
BDF7451B,
BE4E9A34,
BE043A0F,
BE040331,
BC23E0A9,
BD3D5EAE,
BCB32C2E,
BD8368C1,
3DAA645E,
BD903D8C,
BD6F555F,
3BF9D68C,
BD3348D4,
BE23F968,
BDC7CE40,
BD972242,
3D25A6A9,
BD5AD82A,
3CABE8DA,
3D53187F,
3D0814C9,
BD09125E,
BD522A34,
BE31639A,
3D11E991,
BC732E2C,
BD6099CD,
BE119367,
3C2D1D49,
BDCAC014,
BD55ADDA,
BDF65203,
BE1A57D6,
BDEDCFB1,
BC8CE3C7,
BD88879A,
3B1B7328,
BCF9F8C3,
3D740D7E,
BD873A3F,
BD9E9179,
BDD3575A,
BDF87FF9,
BC19DAC2,
BD9AEA1C,
BE790FA3,
BE2559D1,
BD5C7292,
BE9F2BE9,
BD9F16A0,
3CA37A49,
BDA9C945,
3C0D1030,
BBC6C1CB,
BCB76565,
3C09A709,
3DA50E99,
3DC5CBA7,
BE0171F0,
3DBA823B,
3DA05B12,
3D585CA1,
BE1A1BD3,
3DFB6D22,
3D942469,
3DD9C1FA,
3C9D5354,
BD427614,
BD7D4A81,
3DB5823E,
3D5791F6,
3DFC63F5,
3C6430BD,
BD10014A,
BE5537BE,
BD1DFB30,
BCABA984,
BD9F8795,
BE004E8B,
3D750EF3,
3D06296D,
BE191FE1,
BE3020F0,
BE8397D6,
BD11776F,
BE27BC5C,
BB8A1A03,
3C3A5C52,
BDA1BBE3,
BD8E621F,
3D8A4385,
BD12C22E,
BD9A9709,
BDFC5943,
BBB6D650,
BE1C48BE,
3D79230E,
BD9754C3,
BDE53092,
BE79C02F,
BD8C7B17,
BBEE35D6,
3DEB9101,
3C832FF0,
BD5C518C,
3B17091A,
3DEFC0C9,
3E557AE2,
BB5278D4,
BD33D158,
3DCAABE9,
3C747BDF,
3B91755E,
3C838033,
3DBD9392,
3BEAE2C3,
3B8A764E,
BCC58BE7,
BD1698A0,
BE14D2A5,
BDA7F4FE,
BE1C242B,
3C3DF483,
BDF56F87,
BD62F5F8,
BE394563,
BE382BC2,
BE2943D5,
B8834DDC,
BE419857,
BDD5EB23,
BDE69CFA,
BC8874F3,
3D9F375C,
3E173AE8,
3DC5FF4D,
BD4186E1,
3D539812,
3DF05492,
3DDABD6E,
BDAA0320,
BC817C8A,
3DFFEC29,
3DFD6F00,
BB110D20,
3DBA6287,
3DB9E257,
3DA5FC22,
BC783DCC,
BD6351F2,
3CCBCC04,
3CC14812,
BCED68B4,
3D81DD32,
3E2E0B88,
3CD8FDB4,
BD66E5FC,
BCEE701C,
3C5EA5A6,
BC26BBFF,
BCA4C4BE,
3D1D6D22,
3D86085A,
3C986143,
3D858656,
3C763B37,
3DD919BE,
3D874032,
3D5BEB41,
3DC7AA32,
3DBEA6F2,
3D98E614,
3CB3ED8F,
3D97A96F,
3DF8E138,
3D87696D,
3DEB6A90,
3DAC9706,
3D80E717,
BD9571C8,
BBC056EF,
3CEBE9DB,
3DA94CFF,
3CD80C18,
BDC6C517,
BE00DC49,
BD8B2C34,
3D071BB7,
BDA2684A,
3D064BAB,
BE0680D6,
3D0CBB42,
BE0B1625,
BE010413,
BD93E187,
3D71E5A0,
3D5289DD,
3D02997A,
3E07E393,
3CC8A469,
BBF98115,
3CCA6561,
3DE4997A,
BCA77717,
BD8EBA31,
3DB7A0BF,
3E455D75,
3D0FC6F9,
BB9C574D,
3C8D1694,
3CBB94D1,
3D1AB82A,
BE0123AE,
BC86EFD9,
BB692A60,
BDE90255,
3D98BA70,
3D3D1E66,
3DADFFBE,
3D36C8B5,
3DC5FB93,
3DF85C04,
3D9B8B78,
3C1DAD99,
3B2392E0,
3C8FD880,
3CEBF97C,
3DBDEF7E,
BDC74528,
3D3662DF,
3DB401EE,
3E2CECE5,
BD05C62D,
BDCD3DA4,
3B550B87,
3DC8E01A,
BD8974A8,
BE62D799,
BE4DA1D1,
3D65FC13,
3D85D69E,
3C85A1F4,
BDF93AF5,
3DE1070C,
3C893A9F,
3D8D2518,
3E2F62DC,
3DE6A40A,
3D8D89CC,
3E2C3C1A,
3E2ADA3B,
BE06A228,
3D6E0AC4,
3E021E88,
3DBDD4B4,
BDD2F864,
3DAD8467,
BD616BB9,
BD4BD22C,
3DB44808,
BD035B00,
BC59484F,
BC475DDF,
BD071D13,
3B029F38,
BCEB1BCE,
BCDB762A,
BE1AAF33,
3E2B9E88,
3E084269,
3DC8B6D8,
3E17774C,
3E4572FE,
BC1960D3,
3DD9E7B2,
3DCAF962,
BCB51479,
BDBD18E9,
3B865F7C,
3D669112,
3DC7623F,
BDBC5ADC,
BDF1EC7A,
BD341F31,
3D0BD6DD,
3CA4EFAC,
3DCB3FCC,
BD24A9D0,
3DB5A822,
3E230486,
3DF694EB,
3D88CC19,
BC84D8AC,
BD1B7F88,
3D35A8EB,
3B54C168,
3D88A906,
3E11E54B,
3E29B980,
3D4C088F,
3DB82495,
BCCD741C,
3D37E6F7,
3DB6CD50,
BD03BE02,
BD7A3084,
BE178056,
3C0D72B6,
BD03AB63,
BD083D70,
BE0B80B0,
BD045831,
3D9A736F,
BD1D60FA,
3C979E51,
BC9946EE,
3D9E9567,
3D89BD71,
BD87A425,
BCB6BA96,
3DE7B84D,
3D9744E4,
3D6A1BDE,
3CD1FA8E,
3D8D3F8E,
3E0440B1,
3DE15D94,
BD5E2CDB,
BE30ADCB,
BD3235FF,
3DA38A81,
BCA3A76A,
BDCEBDE4,
BC9AE4BE,
BE1E4017,
BD6B23D4,
3D9142E3,
BD84E230,
BDD674F9,
BD1E3EFB,
3C28E84A,
3DFB8851,
3DB55A2D,
3D66CE2D,
3CCD1454,
3D0CA733,
BA61A286,
3CE19123,
3D90853D,
BD2226DB,
BD259A8D,
3C4772A0,
BC3E73B2,
3D453266,
3D83B176,
3DA1126F,
BC873BD0,
BD893BDD,
BD90AF29,
BB912618,
BCAB0244,
BDBC174F,
BD896B37,
BDE57537,
BD2097FF,
BCA43268,
BD2822AD,
BE6B079B,
BE0F5327,
BE24035C,
3DCEB1A5,
BDBDBE09,
3D263215,
BBB0DAF1,
3E08F547,
3D5F5CBC,
3CA75664,
BD871900,
BDA2205C,
3D2B0FBD,
3D05D54F,
BE8020EB,
BD15F735,
3D797FDB,
BD1C2C21,
3DDE4104,
3E087442,
BC90AD63,
3D00D440,
BD692A4B,
BDE74A14,
BCF87D0A,
BD2858DF,
BD45B638,
BDD40728,
BE223E49,
BD72BF60,
BD093CC7,
3D02ED69,
BE271A21,
3D8247EA,
BDAC63ED,
BD34A830,
3D715CB5,
BBF5CA3A,
3C6791A5,
BD57320E,
BD058ACD,
BDEC0B9F,
BDC41C57,
3C3A6EA9,
BE716E79,
BDBEFE4D,
BCA6C0DC,
BDB1D768,
BCD16C52,
BE005F26,
BE0C825D,
BDEC0F49,
BD4AB676,
3D59F00F,
3CF23F6A,
BD1B7D9D,
BD5DA607,
3D5057BB,
BD9C41D8,
3DB3E7E4,
3C477906,
3E15FECA,
BD96AE92,
3D3CB95A,
3D04AA0F,
BDBAF95A,
BDAF9B38,
BDF1A8C6,
3D4AA8A2,
3C82D965,
BB18678C,
3D223C80,
3CAF3AC7,
3DDF9BDC,
3E1328CF,
3C0F7DB9,
BBCF543D,
3E1DC12B,
3E0AD1FA,
BCE582E7,
BD11124F,
3D15FD21,
3DE35C70,
3C1C6A66,
3CEA4357,
BD325386,
3D8CB8A0,
3DCDC74D,
BC873C2B,
3D451FBB,
3E32E5CB,
3DE30852,
BD9BB218,
3E071748,
3E3D839A,
3DBD0A7C,
BCD4E724,
3D0F0EC0,
3E2C8E9B,
3DBDDECE,
BC7D1A0B,
3D33F0C1,
3E08DDA6,
BC4E3D02,
3D44967A,
3D28F0A2,
BDEB5974,
BC3FEC41,
3DCBD1EE,
3D202E30,
BCF895FA,
BD12906C,
3DAE6767,
3DDF39AD,
BCDD98D9,
3DAAEE03,
3CE3915C,
3D8EB88C,
3BD89816,
BD2DFD98,
3DF6E5E9,
BD5F2D61,
BDB7DC0B,
BE109694,
BDD3662B,
BD2AA90E,
BE62E7E0,
BE025F40,
BE1696FD,
BD362029,
BE14E734,
BD79B1FC,
3D67FCDC,
BD11D8F4,
3D626567,
BDC21A59,
BE1E01B4,
3D84598E,
BD8CA8C0,
BDE85A1B,
BE19C596,
3CEE2BB4,
3DA0725B,
3D2C577E,
BD4616E3,
3C03DD5C,
BD16B3BC,
BC13C83F,
BB5DFC83,
BD368EEF,
BE888B02,
BDB89FB1,
3C25CD8D,
3DC1EBE4,
BCBA3CE6,
3B164E63,
3C891494,
3D19AFA8,
3D3CD042,
3DCB1B1A,
BD39A45A,
3DB9DEC6,
3E08575F,
3CB1558B,
3CD6A23B,
BC51F422,
3DF6C142,
3DCA03BA,
3D16FA43,
BD8179B3,
3DF6A138,
3DA55D1D,
3C09BEFB,
BDD0250D,
3CCDF5E3,
3B8B4DFA,
BDBF6345,
BC4A8941,
3E5D66E3,
3DAFCE29,
BDB6B347,
3DB2781E,
3CF16D36,
3E253F46,
3E402FE3,
3C8B0F34,
BD5E16A1,
BD2BB7D7,
3D19C197,
3D1EE92D,
BBF2F40A,
BD27E1E5,
3D749B1C,
3CAA37DD,
3B98DEBD,
3D1A50B9,
3D66517D,
3DEA67CB,
3D831FDB,
3D593661,
3D63D0E2,
3DB70E7D,
3DC274F2,
3D48C83A,
3CE22695,
3D3F0A09,
3CBC2BA1,
3DF11C31,
3DBA1AB3,
BD2C883F,
BD75CB49,
3CB6B5B7,
3D20508D,
BD17D8DA,
3CCBBEF9,
BD6C09BD,
BD13D07C,
BD0595B9,
3D787D06,
3D90F5BB,
3D61F67E,
BD9A2363,
BD95D18C,
3E18CA7B,
3DA7D5AA,
3D047973,
BDFB1635,
BD850FB8,
BD067FAC,
3B5F6650,
BE180F94,
BC1CEFE3,
3BAC3A85,
BDA50B97,
3C71B2E5,
3D57D83A,
3D1F5607,
BE184520,
BD1B8735,
3D940234,
BD80CB64,
BDF197EE,
3D046F35,
3C30DF56,
3AC5B707,
BDD4C121,
BD853039,
BDC3125E,
3D273CF8,
BC8B8073,
3CB24C64,
3C3FD2E5,
BD582790,
BDF9CF3C,
3DAABAFC,
3E582616,
3D3B588C,
3CDB353E,
BDA4CEA2,
BDB8CF18,
3DC5B21D,
3B4D4AA2,
3D920E41,
3E3BDD4C,
3E2DF1E6,
BC9C9C09,
BE7E29C8,
BE3E95C1,
BD50E770,
BE12436A,
BD7D5AA4,
BD9E203C,
BDED0C70,
BE5A1535,
BE56C130,
BE5BB2BE,
BD95705E,
BDAB2C71,
BD884E2A,
BDB591DB,
BDACCDB4,
BDC0417E,
BDAF6AC0,
BC386912,
BD84BA29,
BD36A41D,
3DA18588,
BD4E72F3,
BDE8B307,
BD84FC80,
BD0F218F,
3D615EDC,
BD85ED87,
BE381949,
BE6B9880,
BD767531,
BC2E9919,
BE03F178,
BDAB6337,
BCBB92F8,
BD99F605,
BE2B7938,
BD1C080A,
3D671F24,
BD198BE9,
3B8F0279,
3DB52CA0,
3D6A684B,
BDE82ED9,
3C9566B0,
BE08F0E1,
BE19EA60,
3D65E765,
BE021E6F,
3D01F0D3,
BCB81495,
3CBF04FC,
BE22BF95,
BD46B0E8,
BD79DACF,
BD30286F,
BD86E150,
BCFED1A0,
BBBEA842,
3D14A526,
BD1F86DD,
BDBC5441,
BD65B81A,
BE0DBD09,
3D5D57D2,
BD77F5CB,
BD020119,
BCD2CA35,
BCB55274,
BDA4B6C8,
3BB84319,
BD99740A,
BA34E670,
3D2B1099,
3E1CC541,
3D6E6212,
BD01A3A9,
3CB6EFE8,
3DCD9E21,
BCCDA34D,
BDDB6516,
3D96FE9B,
BCA41E34,
BDA1A875,
BD8882B6,
3DA4DA82,
3C64AC67,
BE288EAF,
BEA75AC9,
BD8C2142,
BE107BB6,
BE19BD12,
3BBEEC7E,
3D467FA0,
BD79BAB4,
BCFC643B,
BC867A19,
3B6D7179,
3D7186D0,
3AC9BDDA,
3D72F472,
BD82D83D,
BB853096,
3D7A7FCC,
3E0186DD,
3D8E902F,
3D7CDE5A,
3DF5FA88,
BD8D6AED,
3D6F084B,
3C5CA580,
3A88FBDA,
B99591AA,
BCDA0878,
BE48E143,
3D1EC3AB,
BE088FA7,
3D5DB95D,
BC8C3B15,
BDB2BDF5,
BD7A78BC,
BDB6AC24,
BD3953D2,
BD6BC55B,
BDAC1D12,
BD89F362,
BD645E05,
BC108A41,
BDA6D0D2,
3B8E60F2,
3B817F3F,
3D37A093,
3E1733A6,
BC778DC0,
BB13E62A,
3E49A859,
3E089F99,
BC033413,
3D13CCBE,
3D7BE38E,
BE070677,
BE5ED548,
BDF77D36,
BDF371CA,
BD9EFEEE,
BDD541B9,
BC929494,
BE03A690,
BD9F0A31,
BD18FE07,
BD2BB240,
BE1CCA26,
BE0350C9,
BDC779C5,
3C871412,
BDB85153,
3D82A057,
BE17BF67,
BDBB941B,
BD3ECBD3,
3AF2B325,
BDAFA29C,
BE333756,
BE4B17B5,
3CB0B94A,
3E127CD6,
BC970150,
BE2C12A4,
3D6CDD85,
3E1266A8,
3DA43447,
BC982294,
3D8C64AB,
3DE63102,
3D5CFFC8,
3D087AF5,
3C982317,
BCD7D3B7,
3CAC6057,
BD3ABBB4,
BC9224A6,
BAEF57DE,
3CDF2BF8,
BE02F140,
BE502E13,
BDB65B4E,
BE51AED4,
3CDAA221,
3D904494,
BDAC5130,
BE6855CB,
BDC97544,
BE0263F2,
BE6C3B27,
BE159D46,
BDA29BE8,
BE1C449D,
BC8D0725,
BE4B2DBC,
3BD6A922,
BCB4074F,
3DBA27A4,
3D93CDD4,
BC91DE84,
3CB44BE9,
3CCAC9A0,
3D5ED2C8,
3BF179EC,
BC75C890,
3DB2344D,
3DC559D4,
BD29E0DC,
3D95626D,
3D64EE08,
3C4E47CC,
BD67E5B2,
BE61F560,
BD7E99B1,
BD61DBE7,
BD39002C,
3D7013EA,
3D86B58D,
3C9FD5B8,
3D1049CB,
3D808A28,
3DD5E8D7,
3E6AE8B9,
3DCE24F7,
3D8531EB,
3D87BFFF,
3E237FBA,
3D64B181,
3D47EB6B,
3DC2B4C4,
3DB3FFE0,
3C8A0808,
BDB0A9C3,
3CBF6D6B,
3D001BEC,
BC691685,
BC07B38E,
3E1DA50F,
3DBB84E1,
BCB6F568,
BD97BDE7,
3CEDA06C,
BD927F1D,
BCD84448,
BD218584,
3CF230A9,
BD0C8F78,
BC35B005,
3DC769EE,
3D680827,
3C0863ED,
3DD0DF08,
BD396196,
3C9E9366,
3D49B729,
BCAA21C3,
BD933713,
BC792D07,
3DA1857C,
3CBA4DDC,
BC2AA550,
BE05FF2E,
BD2E7B24,
BD0CE44A,
BBC32A7A,
BD053303,
BD4255CB,
BD823ABF,
BC979258,
B99A0DA0,
BD3661B9,
BB9FC054,
BC8B79EF,
3E0B40F3,
3DCEC6E6,
BC904C97,
3B8394CF,
3E0835EC,
3D4393DB,
BD6F8662,
BDCE388F,
BDBA843A,
BBE2060B,
BD917CF5,
3D44730D,
3E22E450,
3E09F06E,
BE47AEF0,
BC7674AF,
3DF44BB7,
3E3CAFA9,
BD2BF422,
BE061D3F,
BD485ADD,
3E0E1A1F,
BD14D5DC,
BB15D0DD,
3DE55C76,
3E24FFB5,
3E38F6B0,
BD553CD0,
3DAC0346,
3DCD46FE,
3DAB21AB,
3C92C75F,
BD374223,
3CC7F355,
BCB07EE6,
3D155240,
3D04A918,
3D91EA02,
3D6D7D37,
BE20DAE6,
BDB0B19D,
BE32FAE0,
BE03382D,
3DDE846A,
3B4CEE77,
BC87F192,
3C3D4B2F,
BC236357,
3CF17923,
BD1EDA0F,
BBC9AACE,
BB9900A4,
3DE45E5D,
3DE85370,
BC8CDC0C,
3D80A452,
3D853C14,
BD951986,
BB30CFC7,
3D853C14,
BD6B9741,
BDED9940,
3D69780C,
3DBA9E91,
BDB254C4,
BE0013E1,
BB93D9DD,
3D154FDF,
3D660529,
3DA79CD1,
3D987952,
3D43D83B,
3C9DA6D4,
BD9190B5,
BCF294B4,
3D9B49DD,
3D23651C,
BC93461E,
3D9083C0,
BD3C2414,
BD06BC9E,
BD6CE041,
BDBA22FA,
3CC49C2C,
BE09A0DA,
BE13188B,
BE44EA4B,
BCA5ED60,
BCBFD97E,
BD8BADDA,
BDBF38FC,
BE60EB49,
BD0DF600,
BD93F37E,
BDBE5C40,
BD4463B0,
3D301A61,
BCD65A77,
BDA075E8,
BDAC0201,
3C94B341,
BD42CA4D,
3B91D45D,
3C4395BE,
BD8905F8,
3C8A4DE3,
BD78249C,
BCCC3BB8,
3DC824F5,
3D0ACB17,
3C0F4CC0,
3D938345,
3DF928C2,
3E0DB085,
3D326DF7,
BBC78B06,
BC16D452,
3D84986C,
3E3B5217,
BB67FB1E,
3C788502,
BD78E18E,
3D234B0D,
BE5ADFFF,
BD61A15E,
BDDDFB04,
BD819C1B,
BDAEE006,
BE316352,
BDFC11E0,
BCA46C3F,
BD1E7E43,
BE3DB22C,
BD72435B,
BC4079D9,
BC971CCE,
BE07C515,
BE1855C5,
BD94D82E,
BCB2E7A7,
BC92FF1E,
3CA98503,
BC193CBE,
BD1984DC,
BD171331,
3D8621ED,
BC50A0D1,
3C26D6CC,
BDA08732,
BD2E87B4,
BDDFC5EF,
BCD868D7,
BDEA1108,
BE1A6191,
BD4D3449,
3E02FB7C,
BDEE47F7,
3DCE4A8A,
3D1088D2,
3DB7FF1C,
BE18A527,
3E14FA8E,
3E041980,
BD3E4392,
BDA179BA,
BDBE6C4E,
BDC39C6D,
3DF88339,
3E32A7E0,
3E5B6E60,
3E38C982,
3D93D4A8,
3E36A2FC,
3E40BCB0,
3DE295B8,
BDA46053,
BC256549,
3C676A5E,
BDF8D3A9,
3CF0AEBC,
BD3FB152,
BDA534F4,
BCC2DB1B,
BCC097CA,
BD8A6073,
BD987623,
BCD3A984,
BD94C6A2,
BE5CE328,
BDE16DD2,
BCB9FC99,
3DD21EFD,
BDBC48C0,
3B95627C,
BBF3AF58,
BD8ACAC3,
BE4CAA65,
BD89DF47,
BD11ABEE,
BDA94C72,
BD815384,
3C890D68,
3E3D7D35,
3D8D2531,
BD237091,
3DA1C1E0,
3D946052,
BCE9ED42,
BCA0D0EA,
BD30476F,
3CCCA05B,
3D84646E,
BD1FBC6B,
3D146EAB,
BDFF2D48,
BCB68744,
BD8C8349,
BD8A5FAE,
BE2A7DC7,
3DC45F3C,
3D59D924,
BD9E1498,
BD8B4519,
3E1D07AB,
3E00D37C,
3C8B5FD3,
BDB92AAD,
3DE2B562,
BD1F6CE4,
BA6AC833,
BD33E02C,
BEBAAE17,
BE4FFC28,
BE7B0D3F,
BE70E0A3,
BC989C69,
BD5C4977,
BE18F09C,
BBF0AB82,
BE667507,
BE1546A7,
BDCAFCF4,
BE29FADE,
BDBBA626,
BE51C854,
BE8B61FE,
BE76790C,
3D09A37F,
3C342688,
3D0C4A57,
3DF9E7C2,
BE08AFC6,
3C563B9D,
3DC2DC42,
3E2CA076,
BD67B47E,
BDB77F16,
3D0A6C15,
BD5CEC2E,
3CDF52C7,
3DB43D6C,
BC8AA66A,
3DA4F542,
BC075ED8,
BCE07C9C,
3C377CF9,
BCD2AD73,
3CE1A9B8,
3BE32F80,
3D555763,
3E31C8AE,
3DB65FAE,
BB906028,
BD6A7CB5,
3DAFD007,
3CDAAE74,
3D1431E5,
BCB8CAAA,
3BC78980,
BDF3E92C,
BE49EB7A,
BDCDBDA8,
3D8FD2E3,
BD0602BE,
BE0B08DA,
BE197F61,
BD628F5C,
BCC4796F,
BD8E8C3C,
BCFF07E3,
BD2D27E7,
BDE246D0,
3D2A9F06,
3D75C772,
3DBD0A62,
3D1B348E,
3D99CAC1,
BC1E65CF,
3D3E4F98,
3E136EE7,
BD55ED3E,
BD26305B,
3DCB7E25,
3C9E7AC2,
3DF5E6DD,
BE13BDB5,
BC9B60C7,
3D441B35,
3E39B464,
3DBDD751,
3D5407E3,
3D2FAA03,
BCAA272E,
BDA8BABC,
BDC0A3C3,
39357B56,
BD11AC16,
BDBBF103,
BDC25C29,
3DCED964,
BDE65745,
3D892C72,
3D66AFB3,
BCEA7517,
3D7BB665,
3CC58CF2,
3DF22CD1,
3D3C3146,
3D6892FB,
BD283277,
3D65D3FE,
3D70E19C,
3D033B97,
3BC5E6EC,
BCB46393,
3D57237E,
3D66C44B,
3DD6C30E,
3C5EACE0,
3D5CE6F4,
3E06010D,
3E575CD5,
3D831B58,
BD40DFEC,
3D7120DC,
3D30E781,
BD518019,
BC00E0F7,
3E3E9A34,
3DF13AB1,
3DA5E3C1,
BCEEB642,
3D2FD43E,
3E325B8B,
3D3E9FD9,
3D2B435E,
3E1AA8EE,
3EA28EED,
3D94F309,
BDCBD751,
BCE479A2,
3E0F68AF,
3DF2D127,
BD965A43,
BD38FFDF,
3E048C14,
3E152626,
BB6E8044,
BE29CD5D,
BC7CF271,
BDC5888F,
BE34C466,
BE0F7CFA,
BD9E5D6A,
BC1A1C48,
BC996C2B,
BC0DAAB2,
3D2244FB,
BBB2C23C,
BD84F477,
BC68BA3F,
BD8AE534,
BD63E61A,
3D826675,
3D8F7BC2,
3DACD65E,
3D043045,
BD91F9CF,
BD82BA0A,
3D47ADCF,
BC191A8D,
BCF68781,
BDE757F8,
BE2444E1,
3CD42F6C,
BC64F8C6,
3D2823A4,
3D54E510,
3CFA2A14,
3C4C5D46,
3CC1C090,
3B3AC9B7,
3E0C762F,
3D99B629,
3D4513D4,
3DB84F10,
3DA6D2A4,
3DD1AC37,
3DC8AD62,
3DDC91E9,
3E069C22,
BC040EEC,
3BEDA331,
BDACA945,
3CD6B734,
BD5A3BFD,
3D7A70D3,
3D329EB2,
BC80900A,
BCE99419,
3C55C850,
3D56AFC3,
BD103551,
BD88441F,
BB2CE5DA,
BD6DB9EB,
BCF1721A,
3D32523F,
BCD95107,
3C33095D,
BD1B28A7,
3D47B57C,
BDB2AA49,
3D4E90C3,
3D0295BF,
3DC07B1E,
3D1EEFD9,
3CE2A869,
BB5A77AC,
3CB4F0B4,
3D738142,
3C78E25B,
3DD4CF7A,
3D4C1247,
BE4D2875,
BDCE432C,
3CC439FD,
3D979BCB,
3D7CBF17,
3B6E8656,
3B742941,
3CCB8B63,
3E50293C,
3E089732,
3D826EF6,
3D225610,
3DA776B5,
3E010B3E,
3C6EFA4D,
3DDA9AF5,
3E2403ED,
3E199E02,
BC8DF5B4,
3E281774,
3DDF5BE5,
3D4F01A0,
3CABCE71,
3C58E4AC,
3CD018A7,
BC697834,
BC550E38,
3CD5890F,
BCE99259,
3D6F902F,
BCED624D,
3CA9BE84,
3D56F32B,
BD22B988,
BDAB83D8,
3D83DA3C,
3E212523,
BC09BA1B,
3D3748AF,
3C8A8487,
3DF60A74,
3D95FE18,
3D6B4E9C,
3D2E1ACC,
3D71D1DA,
BCE7F5A7,
3D107B49,
3D08627A,
3DBB981A,
3DD413EF,
3E0E364F,
3C4D30D6,
3D9D527B,
3E8BEA11,
3DB68657,
BC820858,
BD6B6B22,
3BE9B30F,
3B4A91B9,
BB085E32,
BDC4CEE9,
BCF09C31,
3D311CA8,
BD0BB26E,
3C86FF95,
3E183FDE,
3C824B02,
BDC0C543,
3CCD1343,
3E08C2F1,
3D92B8E1,
BD933B9B,
3CB88B9A,
3E2AA6B3,
BD13EAC2,
BD9B4C52,
BCC2DAA0,
BE052326,
3C955CA4,
BBD56557,
3DD201CF,
3CDE7A25,
3D125C74,
BE1F6843,
3D298C78,
3EA805B5,
3E24EC43,
BBF6A8FC,
3E385BD5,
3DFC21D2,
3DB9B849,
BD2BB0CA,
BD2EBD71,
BD2E90F8,
BC29F904,
3D3527D4,
3C081BDA,
BE115800,
3C693DA0,
3D7D49C3,
3D90D49B,
BE0EE032,
3D987EEE,
3E0C164A,
BD6DB3BA,
BD87B741,
3DE70D57,
BDB33A99,
3E075778,
3CB0B501,
BDB6C715,
BE001C03,
3E36996B,
3E01E132,
3DB46DFF,
3DF02638,
3E27A964,
3D4A24F0,
BD984281,
3E2DDFB5,
3D541A6F,
BC8386CB,
BDDCA411,
3CE4AEDD,
3E31908D,
3E080CD8,
3E0F310A,
3CEAA6C0,
3D9DBBC1,
3E0E807B,
3D7410DB,
3CF8006C,
3D7386CF,
3E14A7F7,
3D8F42F7,
3D17B8DC,
3D0E15F2,
3DC4A80A,
BDD9A3AB,
BE2A692A,
BD7AD544,
3CF45CBC,
3CBECE00,
BC81C2F6,
3D6949C2,
BC6FBBBF,
BE1678D9,
BE4F3B07,
BDDD710A,
BE44048F,
BE588556,
BDC26145,
3BC427FA,
3C73BF21,
BD8C84C3,
BE06CFF2,
3DABCFFF,
3DB71BE2,
BCF60345,
3CA3E3FB,
3C8B8887,
3E0AF0D0,
3D8BE601,
3D2C6E99,
3DB68B92,
3DC96A03,
3D23831B,
BDEAB398,
BCD97B03,
3E269B57,
3E43A7AF,
BE2C4CA5,
3D75D399,
BE00C46C,
BD8EE1C8,
BDB2D84E,
3E05F7AA,
BD00AFD8,
BDB04368,
BD82115C,
BE0DF1EB,
BD9DB9D6,
BDF0E8D7,
3D2B95AE,
3DE78127,
3C83BC9C,
3B5FB653,
BDB596F6,
BDB603B5,
BD878649,
3C580710,
3C4FF9FB,
BCEB4E3C,
3CFEB822,
3CD4134A,
3DA27126,
3CFFCB59,
3DB822B8,
3E1DD26F,
3DBDECF8,
3DB52DB3,
3DC5DAC6,
3D378672,
BCADB9AD,
BDA3BBDA,
3C808D7B,
BD0E0A25,
BC3081D4,
BD534649,
BE912D86,
BD7E27F7,
BD8376CA,
BE02E954,
BE03E0ED,
3B6C54C7,
3DD46858,
BC2B4308,
BBE23419,
BD405603,
BDA43104,
BCEA3A87,
BD8BDEF5,
BC590263,
3DAFCBB1,
3D761B35,
BDC310B0,
BC7C623B,
BDA1FAC1,
BE15B84C,
BE7AD424,
3A128A0D,
BE0E52DB,
BE2B2C57,
BE975531,
3BD9BDFA,
3D0E5868,
3D2CD8B2,
3D14D834,
3CB8C6F2,
BD447CFC,
BB95CCF8,
3D4FC623,
BC8E11AA,
BDDD5FEF,
3E201435,
3E03B8B3,
BCB30E38,
BD63D2CD,
3E170A3E,
BB220B62,
3D50364F,
3D858CB5,
3C96798A,
3D7F3D9A,
BDAAFA80,
3CA7BAD8,
3D963839,
3D7B15EC,
3C5B2C12,
3E0671AA,
BE05CA9E,
3C2EE76F,
BD7FAB29,
3D0A5426,
BD29A90F,
3C964942,
3B9CC9A4,
3CAEE584,
BD348BDF,
BD3342D2,
BC34893F,
BDA93FBF,
BD3FCDC9,
BDBFC970,
BCF39AE9,
BE3C52D3,
BD75534C,
BD8C2A33,
BBA7B257,
BE430910,
BE35E51E,
BE03E8CD,
BC4E1093,
BD900A6C,
BDE81A9C,
BD8017EE,
BCF30363,
3A19319E,
BE33C601,
BE0B0B96,
BC61C3AA,
3C8960A9,
3D1C1FFD,
3DF5214F,
3E02C197,
3DC08C34,
BB4583DB,
3E1436D4,
3D40E320,
3D9098AB,
3D4FA57E,
3D04AF92,
3D9755E7,
3DECD27E,
3DE39BDA,
3CFCAB37,
3D1E7A0E,
3D5EC6B6,
3E209DD6,
3DB92FC7,
3D4C13DC,
3CFA145D,
BC6C519E,
3D120FAD,
BCF750F7,
3D119B4C,
3E0581C8,
3E1178D9,
3D9A2BF3,
3D56C91E,
3CADD8AE,
3C30AB89,
3E2FC020,
3DEB9E2B,
3E0215EA,
BC44155F,
3DD94387,
3E27D1D5,
3DD1CD93,
3D6ACEF7,
3D0247C9,
BD4C2C35,
3E082BD9,
BC978E57,
3D21A820,
3CCAA5E0,
3E21C735,
3E1BFAC0,
3E1944BE,
BE3E454B,
BD0C0346,
3D9229D0,
3D7F12A4,
BD1C622D,
BDA03CBB,
3D4D6936,
3D67F184,
BC29FCB0,
BE32BDCD,
BE1977E6,
3BA479E5,
BD27FBDC,
3DC79458,
3D449FD1,
BD8D046B,
BCFFCF34,
BD324B26,
3CEC0701,
3D4B047C,
BD8ECFEA,
BDE1A14C,
BDBF590B,
3D8695BF,
3DC550EC,
3CBE5CEB,
BCD003A5,
3C82FADC,
BD15BB4B,
3DFB2B34,
BD8B26CE,
3D2B69F6,
BC2C096B,
3D233CB4,
BD798D1A,
BD08A3DA,
BD8D5440,
3B3941BC,
BD5F2445,
BC547962,
3D8B7E9C,
BC904D7E,
3D9E1AF5,
3D7D55E7,
BDC1FD68,
BD276139,
BD1460A7,
BD9FDE98,
BE3AEEAE,
BD4FCD38,
BC34CE04,
BE074BFC,
BE3F85CD,
BE5ABD49,
BE10FD3B,
BE8BBD69,
3D5BD7F4,
3C9DA00F,
3D491AE0,
BC8D84B5,
3C919DC9,
3CFAB712,
3D24FD24,
3E236723,
BDA0E777,
BDB492C0,
3BE0809F,
BD21F0A0,
BD9A5AC6,
3D35E61E,
3CE932F2,
BD85AA8D,
3D82C45C,
3DBAD4A6,
3DD2C8C9,
3D830634,
3D45318E,
3D7942C5,
3BD1A26E,
BDD9A90F,
3C0A4CE6,
BCE293EE,
BD42F16B,
BD3FA798,
3BBC9B57,
BD59C651,
BC1EA266,
BD9FC925,
3D25A3A6,
BD8F0DBF,
3C616A3A,
BD83AB04,
3B839C5B,
BE188E59,
BCF8BC87,
3CA2F543,
3D7DC33E,
3D2293AE,
3DB5758E,
3D4FFFB3,
3AEEFBE8,
3DA24119,
3D3E9742,
3DAC6F20,
BC635DB2,
BC35A69B,
BD8C82CF,
3D421355,
BC829C70,
3D2BAAD6,
3D2BB480,
3D97D022,
3E003799,
3DC0E8D1,
3D4C44B2,
3D8E3B3A,
3E6F88B2,
3DD5C1C1,
3E31B863,
3E37EC59,
3D05EC86,
BD6AA2BC,
BCC2F80C,
BDB04413,
3CA328DE,
BC8BE4F3,
BCFFEDA4,
BD93638C,
3D62C99E,
3DD9F661,
3D84C1BC,
BB5AC5E4,
BD736ADF,
BCBAEEC7,
3D04BBCE,
3D1417FD,
BD047281,
BE00A493,
BE0ABB6F,
BDA5FB78,
BD5AC057,
BCD0016E,
3C47F51A,
BDE2A676,
3B88222D,
BD0AE6FB,
BB62ADE0,
BD846A0D,
3E29B07C,
BC953764,
BCC8D263,
BE21DD23,
3CF95EED,
3DEFDB35,
3DB2FFD3,
BD6CC5A1,
BDEDC3A7,
BD94E5B7,
BD09C095,
BDBABE49,
BCF23C91,
BD6D2335,
BE430B5E,
BE498B14,
BD3ACE33,
BE53C40D,
BE891900,
BCCF5CD1,
BC7D7CE6,
BD8B4B5D,
BDE198E0,
BD6169EB,
BD1509D5,
BDB4C6D8,
BD8C3A33,
BD98FCAA,
BD225E51,
BD2B24CF,
BD82E2FA,
3C7F49CF,
3C465B57,
BCA44B7C,
BDEE7004,
BD5F66A3,
BB18BF5B,
3C963E81,
3C9A8016,
BC03C3BC,
3D7CE137,
3DD7DDD1,
BD91DDC8,
BC615036,
3DBC4AA8,
3E28765F,
BE224C02,
BE5EA01C,
BD614EB6,
BC7445AB,
BD8654AB,
BC61F059,
3B198BEF,
BC45DE19,
BD536400,
BBE2914D,
BDF44976,
BC328F71,
BD9A0530,
BD087342,
BD59DE91,
3D06CC92,
BBE2CD5B,
BCFEE280,
3D822CB8,
BD84A8B7,
BDAC5FAD,
BE2C0F46,
3DA418CC,
3CB41EE9,
BD28C9D3,
BC1339A1,
BD84BD00,
3D682D95,
3D826350,
BCB2395D,
3D4922F5,
BBC81389,
BD4B2EE2,
3D7437CB,
BD852B5E,
BD82FA2B,
BCB3C5BD,
3D41D21B,
BD54797B,
3D1F7AC3,
3D7BD06E,
BCC906AD,
3C61CD6C,
BCD6D870,
3E2C27C2,
3AB61EB0,
BCC0A16F,
3C7C4ADA,
3DAF15C6,
BDD86F26,
BCADD316,
3E467042,
3E357C61,
BCB7B04C,
BC5B60DC,
3CCB2DE7,
3D6B0BDB,
BD7BF3A5,
BDC06117,
BBCD026C,
3D86733D,
3CD67CBD,
BDC0869E,
3D48D085,
BA8B16FA,
BD527C53,
BCCFC7BD,
BD86BA74,
BCE794DF,
BD937B1A,
BD86A67C,
BD9EE38C,
BDAD9BE9,
BDF72599,
BDE3D054,
BC05BBEC,
BDBA5AF0,
BE6765C2,
BDFE0CD1,
BD512E25,
BE280D9F,
BE2173F9,
3D5F32EF,
BD9A92F4,
3D69CA84,
BDC74FAA,
BD40974F,
BD66BCFE,
3D0F7F2A,
3C93CB6E,
BDDD3236,
3D33CDF0,
3DB9FE9F,
BD15BF34,
BE4178F2,
3D89B280,
3D9E7F01,
BE019788,
3D856BFD,
3D747E29,
BD65C48F,
BCD4E55C,
3CB6955E,
3DAEA166,
3CC5819A,
3C613779,
BDAB1729,
3D3E237B,
3D50343F,
3B9761FA,
BD626282,
3CD50303,
BDCA3565,
BCE0FB3C,
3E0F7832,
BB448668,
BDB70AA1,
BC59CC57,
3DE195B5,
3DED5F42,
3C966E7F,
BD355CF2,
3D03AA7C,
3DBC5272,
3DBCFB3F,
3CBA0290,
BDCCAA99,
3CDDBF5F,
3D9E37D4,
BBCE1ED0,
BD0C6E30,
BC73FAB3,
BD97EDF8,
BE1D6FF8,
BD7BBE90,
3D474DFE,
3D1A2813,
3B36B468,
BDFF3FD9,
BBE46F72,
BC2B2E4D,
BDD2BFA6,
3D7BB5D5,
3CC56A39,
BE065796,
BD5C4706,
3CB356A7,
BDC69A72,
BE060A08,
BE0621F5,
3D92CF9B,
BD6C8553,
3BF4EABF,
BD80860E,
BC2540E9,
3D468938,
3E1AD27E,
3DD84C1D,
3DA01869,
3D3BDFEC,
3D7162C3,
3E1677CC,
3C80B161,
3DC9CA2C,
BCB9F030,
3D7C2A85,
3D3DBD1D,
3DC9DD34,
3DA0799A,
BCABCCC3,
3A4D9224,
3D3CDFA2,
3CBA24C0,
3D4B2116,
BDF93E6C,
BDB604C1,
BD28F760,
BD82D34D,
BD9A342B,
BDE4E9A9,
BDA33278,
3D0A7D36,
3DCCC07F,
BD5A1E16,
BCAB1864,
BD155082,
BCB53C8B,
3DB6E902,
3E0B3FA7,
3DF445B4,
3CA93C88,
3D85ABA6,
3DB4BC1B,
3E0509F3,
3D22542D,
3D65AB1C,
3D85D17D,
3DF48FA4,
3D80D6D3,
3D213A3E,
3DFB41A3,
3E2788ED,
3D1711B4,
BD3CAE32,
BC578BF3,
3D0576A6,
BCD702BD,
3C21B284,
3D124D6F,
BC1DC2E8,
3DBF41D9,
3DCE0A86,
3D258195,
3DA93518,
BA49EE41,
3D7A84CC,
3C08DB00,
3CE8670D,
3CCE4078,
3DAC3377,
BA8F425B,
3D8F2D8F,
BDA76F7F,
BC84BFB5,
3DC528D3,
3DAF2E1A,
3D844151,
BD920CB8,
B800B040,
BCAF7DD9,
BD070EE6,
BD9DE416,
BD1F9B69,
3DDC0375,
3CBDAE6C,
BCE60129,
BE02872A,
BC884BB2,
3D798C63,
BD04CC31,
BCA478ED,
3DA93315,
3D006E96,
3B3882CA,
3D461FCB,
3D0F9B5D,
3DA7015B,
3D9C3616,
3DF16072,
BBC6FF5B,
3D7540D6,
3E207ECE,
BC95CF94,
BD68D650,
BD3D8C06,
3DAD2975,
BBD22E54,
BE256DB7,
BD6EE404,
3D345B0B,
3B6153A9,
BC8CC8BD,
3D7E176D,
BDB12CEF,
BD384951,
BD5AE012,
3BE4BA60,
3DD0865E,
3D791785,
BD397846,
3DE3F202,
3D9E752F,
BAEE9A61,
3CAAB16C,
3DF7B28E,
3DC42EC4,
BD317876,
BCDE2BC4,
3C826001,
BD87236F,
3C20212D,
3E0BB794,
3C8D97CA,
BE049593,
BE1C3E92,
BD052F4D,
BE0A8CD1,
BE353779,
BE3CB48E,
BD9773E3,
BD1D15FF,
BD04EA04,
BD887DE1,
BC9250B1,
3DA96EAD,
3D9C48F5,
BDE3A924,
BD2B38C1,
BD605044,
BD3CFA8B,
BD10DFD2,
BCF6FAE8,
3DA957C4,
3D4D4D3A,
BDA0FA44,
BD421333,
3C5C6556,
BB645C56,
BD3B93BA,
BD00B8BB,
3A5C8C51,
3D9C5B65,
3E070BF2,
3CD6833D,
3DE3F963,
3E8BAEA4,
3E4EC146,
3DA25D99,
3DC1F5AC,
3E4FDD6B,
3E128465,
3DDA283F,
3B628D14,
3D69A7BE,
BC27E258,
BC0E84E8,
3B4F9A12,
BC080D30,
3C51B798,
BAD1F046,
3CDDB61A,
BD4518F3,
3C9C5D81,
3D846910,
3D1F4B3C,
BCAC4ECF,
3C2C21E5,
3DA10080,
3C47C47C,
3D37C8DC,
3E0749E5,
3DBED9C0,
3CD145AF,
3D34C257,
BCB5458B,
3C2A5BBF,
3D56788F,
3DEA896D,
3D0680A1,
3E0AA470,
3DAC5489,
BC9F22AD,
3CDBB1BB,
3D5E07F9,
BCD93483,
BC4B12C2,
3C8F8DD2,
BABCFBFB,
3C53753C,
3C94BDE5,
3B36D64B,
3D3190D3,
3D5600A3,
3E3E284C,
3DD9096A,
3DD1A155,
3DCCBF5B,
BD8FF03A,
3C0CE40B,
3D366EFF,
3D5964C5,
3B891A37,
3D890B1E,
3DBBA6A8,
3E0F3C53,
3DC1EB4E,
3D4F26C3,
3E163900,
3B74BCB6,
3C49FF9B,
BD992DD0,
3D8353C6,
3D2C6A21,
BD132158,
BE673E68,
BD6AA82A,
BD8E44BD,
BD132575,
BCAB02C6,
3D0EB13F,
3E1B23A4,
BE19B41D,
BD80F0D9,
3D501338,
3D3AF747,
BE609B1F,
BE11DF14,
BC09F453,
BD0E5DA0,
BD90639B,
BDF4D5BD,
BCC3A694,
BA039C97,
BD36E5CA,
3D2FDD6A,
3D3F13E8,
3D5F614B,
3D1114FC,
3C8E8734,
3D62BB32,
BD6FA398,
BE043476,
3DA4B1ED,
3E105520,
BD2F2084,
BDBA5382,
3DA92DA2,
3E2B6C27,
3CF8BF18,
BD8F214F,
BCDEC4EE,
3DD8DD66,
3B745D7E,
BA7A798D,
3DA21E52,
3D7E8229,
3DB1E2C3,
BD4E7EF6,
BDEA2B2E,
3C30863C,
3CC02D8B,
BDDD2599,
BE3C95F1,
3BDE67AB,
BDA81285,
BD8EF08C,
3D19ED2C,
3D880729,
BCCDE590,
BDE70361,
BD65BD71,
BDF2E2F5,
3C938B19,
3DD2BD06,
3DE023D2,
BD94DD21,
BC1805FD,
3E26B7FA,
3D80A483,
3D8905C7,
BD3AA2F3,
BC2319D8,
BD1D4209,
BDAFBAF9,
BDEF2E03,
3C0E8113,
3D71FB3F,
3DE906B6,
BDC5CF27,
3CC4AB2E,
BDBBE8CB,
3D6FC34A,
3D332B4F,
3E096B5C,
BC14F65B,
BD1D99F4,
3D49F31F,
3E27E0FE,
3DFD79DB,
BC253524,
3D2285A5,
BC8677DF,
3DA89702,
BCC8D3D7,
3C94D77F,
BD4C8DAC,
3D9618DA,
3DC14D79,
3D8AF2C4,
3DD894DA,
BDC5D4D6,
3C79D752,
BD03599D,
3BA02857,
3DD39953,
3D095504,
BDE3B4B4,
BE289919,
BDAB0528,
BDC49DED,
BDD5A619,
BDB7B4F8,
BD34CC37,
3C4FD754,
3D9DE17A,
BE2EFD8B,
BD0A19A4,
BC871683,
3CF001EB,
BC28095F,
3D2208B6,
BD79C8BD,
3C8DDDC5,
BD084206,
BD80BA2C,
3BA3472F,
3C74ED12,
3E08E45D,
3E002FA6,
3D7939FF,
BCC6E251,
BCC92FDB,
3DCB7919,
3C19B36B,
BD350123,
BB6D259C,
B9B29895,
BDDBD6BB,
BD930F6C,
BD83EA2D,
BB0927BD,
BDB09408,
3D933B90,
3DF15FB5,
3DCE7652,
BB7A1D99,
3D66C117,
3D97EBB8,
3E18889E,
3D82F665,
3C87245B,
3D5B4E5D,
3D824DC9,
BD18FD45,
BDF5593C,
BB826D90,
BCC815F2,
BD9B6749,
3D3A61EA,
3E53A42A,
3DC364D2,
BDB33C4E,
BE121171,
3D8B835C,
3D83D77A,
3C16BF26,
BDDA7E12,
3D86E0FD,
3B10EE9F,
3BDD2D1B,
3D2D399A,
BCCD5B72,
3DC55FEA,
3D816C1B,
3DF75DA1,
3D9135DD,
3DC41E5A,
BCE1AD8D,
3C5A5393,
3D51E96A,
3D404EDE,
3D94DD6E,
BC7EB4C4,
B99F862E,
3C5BC04D,
3C3206C1,
BD4AA455,
3D3C96C3,
3C4789D7,
BBF49352,
3D7BCC57,
BCF7017A,
3C425A2B,
BDD4CF77,
BD3A9E3F,
3D099453,
BCD5F414,
BBD48428,
BC83C1C5,
BBBB1ADF,
3CC1AE16,
BD0A5F7D,
BC04B8E5,
3DB4E98A,
3C92A0A5,
BDBAF564,
3C9261D7,
3D16DF86,
BD3795AA,
BAD35F68,
3B82D4E8,
BDB1310E,
BD877189,
BCE8BF38,
BD87E95D,
3D018C83,
BC65044B,
BDD8BBCB,
3D4A806E,
3E039FBD,
3AD1A6DC,
3BD5D114,
3D4E69D6,
BDBFF1C0,
BDE476FB,
3DB1F347,
3D9689A9,
BB1923E8,
BDD9270E,
BC98007A,
3D7E5195,
BD73AADB,
BD9E7928,
3D8947B4,
3BE72A2E,
BD118200,
BDA11359,
3CA9103E,
3B9BCD87,
BDB48A2B,
BCE1C0A0,
3D1A5FCD,
3CA5A82E,
BD44DC88,
3CF140E4,
3C847E88,
3CA820AB,
BD9095E8,
BE05C0CA,
3E0E5C9B,
BDB8E55C,
BDD85756,
BD09B71F,
3D551311,
BE1C4A12,
BE5E3997,
BE256F5A,
BD127CA9,
BD1E9BD2,
BC3CAFC2,
BE4D8BE2,
BD3D0741,
BCFDD7AA,
BDCC9862,
BE0102FA,
BE034C04,
BDBA299F,
BE1C78F6,
BA4B7F23,
BDA6A39D,
BE16ECCB,
BC6C7E1F,
3CF59829,
BB373B97,
BD75945D,
3CBA1C93,
3D697BBE,
3D1E69E0,
BCA9DF46,
BBE36603,
3C5CE699,
BD09B861,
3DA67543,
BD9D93D2,
BCEE997B,
3E0F075C,
BD4C2874,
3DDA8603,
3E25544D,
3D28138E,
BD588043,
3E0228D3,
3E42DA77,
3D861226,
3CEA1047,
3D56162A,
3DA61934,
3C871DCC,
BD2554FD,
3E0C4F33,
3E0D8841,
3CD39A7E,
3C00587A,
BCE2138A,
3D8F21C0,
3CD862DB,
BD7D56B5,
BD4D9D5A,
BE29A052,
BDFE5060,
BD6DF84E,
BDC0ACBC,
BE07C1F3,
BCB4F550,
3D72AEDD,
3DCE7DFF,
BBD0DE64,
BC4A68F2,
3DB284E5,
BCEE56A8,
3AE4B408,
BD016A3A,
3C79136A,
BCAE5272,
BE0EB684,
BDF75698,
3D809595,
BD525986,
BE076060,
BD972C31,
3C8AC394,
3CE077FD,
3D2E9EFE,
3C8E486C,
3D992956,
3E19C780,
3E604135,
BC9D59E7,
BCDBC592,
3DA901FE,
3DF0E7AF,
39585B4D,
BDD18853,
BCEB0BE6,
BD17E7AF,
BE330458,
BC761CB3,
BD9D7565,
BD8E5557,
3D73E5B7,
3D23B132,
3CBD2081,
3D5A741F,
3D4C3E7E,
3CC238D1,
3D5A31EA,
BC8E2C5A,
3CCE034D,
BC68E1F5,
BD386B36,
BA443A63,
3DC91FFC,
BBFF5FEF,
BC0F8C13,
3D9AB1B4,
3D59619B,
3DB0EF00,
BC202DA3,
3D91E2C9,
3B24087D,
BBF1B374,
BE2E46BB,
BC8DEDC2,
3E2F31B1,
BD6B7167,
3D0BE61A,
3D6261FD,
3CF7AED5,
3D993180,
3E0857F1,
3C79551F,
3DB2006E,
BD52B17A,
BBD549E9,
3D310D91,
3DD490A7,
BDDABE09,
BDF08032,
3D4E60C0,
3E0B370D,
BE01FFD7,
BBDF11F7,
3D045CFC,
3D0F7A1F,
3D7B7E32,
BD6DF496,
BBE6D14A,
BDB0DFBF,
3CAD042E,
BD3A74F1,
BE762E57,
BE24E1C3,
3D2F2D27,
3DBCB335,
BD0C61C7,
3CA63A4E,
3D5C2368,
3D2D924C,
BA022C99,
BCF65527,
BD9DC6BC,
BB8E233A,
BD384874,
BDB1849E,
3D75E910,
3DF0C314,
3DC216D9,
3CF5DAAB,
3CB72732,
3DEA91C8,
3E0558A9,
3CFD4F34,
BC9024CF,
3D5FA71C,
3E025BFD,
BC2E7494,
3DABDE87,
3C59DE01,
3C9DA28B,
BC751CEA,
BABE7BA1,
3CBF2965,
BD92B618,
BDB196CF,
BD890E86,
BD88E4CC,
BE0E4E50,
BD4BC816,
3DE54316,
3DC866D1,
BDB96909,
BCE44CAB,
3D91D7AE,
3D8321DF,
3D836671,
BDBEDED3,
3B9065B6,
3B4789FE,
BE1152D3,
BE0195E1,
BC1A9C64,
BDC7C705,
BE430F32,
BD4BD32C,
BC9FEE9D,
BE1F3062,
BD538AB7,
BBBA9246,
3DBC67B9,
3D845D11,
3DDD75A0,
BD283A90,
3E02B504,
3E08812A,
3D8543D5,
BBB453EF,
BD8C73EF,
BD0FF850,
3CF3F229,
BD8C60E1,
3CA64DE9,
BE1B41F0,
BC957BA5,
BC53DDB9,
3D897C10,
3DFAB9DF,
3C930C1A,
3DC25C8C,
BD722E27,
BAF8D412,
3D2D39C6,
3C60A1C5,
3B59BFAB,
3C779FAD,
BDA2F306,
3D6D272B,
BDD39D31,
3BE0F9B6,
BD9BED44,
3D242CB9,
3DC22C78,
3DF37809,
3E5516F6,
3CEDA9B2,
3CB1C154,
3C9B9D72,
3D1AF35E,
3C944ACB,
BD361C4F,
BC2BAF62,
BC2C21D6,
BC8D08F7,
3D9685BF,
3D93E03D,
BAC31C46,
3CB4ED65,
3C9E56FE,
BB0F4AE2,
3CB3231B,
3E078E39,
BCF93DAD,
BD42DCA5,
3D5109F0,
3D1F8685,
3B5EC036,
BE8BA80D,
BD62B44B,
3AAC988B,
3C0ABCF7,
BDA1E5CF,
3C21F45E,
BDD0D99D,
BCE1AA96,
BDBEFDA5,
BD35694A,
BC0C40F8,
BC8C1C51,
BE97AC6B,
BE2CAA14,
BDD749FF,
3E4A9BFC,
BD008E7B,
BD2906DE,
3D0BC052,
3E029668,
3D2A95A4,
3D167CB8,
3DC47B69,
3D254129,
3C38CAD6,
3C97B02D,
BCB09CBB,
3D122FA9,
BD1B21FB,
BD575BE7,
3C933698,
BDCC1636,
3DC7FDD5,
3DC51CD5,
BD8FB40F,
3D2AA88B,
BDA2F281,
BC142F92,
BD30D347,
3D6D08E9,
3E112EE4,
3D37B61F,
3E00D18A,
3D6EBD0A,
3DC613FA,
3CE53B90,
3D85D684,
3C83C171,
3CC5FC3A,
3D09D1A7,
3D4C461A,
3D0676C7,
3D442EFA,
3D9EC837,
3D3EFB2A,
BC835822,
BCEAA303,
3D71B607,
BD6C7556,
BC98BB6E,
BD6055E9,
BD7B4410,
3D4511F6,
3D17FFAD,
BC7A2283,
BDAB367A,
BDBE4B48,
BBE20BC6,
BC429A67,
BD0DF1E6,
BCE58ED5,
3CDFAC2D,
BD6753EB,
3C86571C,
3DB9F5AB,
BC961B5F,
BD6D580A,
BB39CBE1,
BD4B2C21,
BDDDC83D,
BD17C76D,
3D7EA889,
3D85401A,
BDF83D69,
BCC47BF8,
3DF8CCBB,
3C47DA6A,
3D0285A5,
3C01CF8D,
BD63675E,
3A378C02,
BDAF3EBC,
BD3A0579,
3D963A47,
BD18E6B7,
BDC6E0BB,
BD45FF12,
3D89263C,
3C5E8318,
BC2687E4,
BD61639C,
BB84CCE3,
3CFC63E4,
BE050186,
3C72E828,
BD481F43,
3D3DB9EF,
BDA47C2F,
3C66F4F9,
3D807821,
3C4F3B69,
3E19391C,
3B92B455,
BCDBC820,
3D070C8F,
3DFFDA77,
3D03011B,
BD5386D9,
3D1BE591,
3D6A7116,
3DBF6012,
3E39553C,
3DAE1C87,
3C9D2107,
BCFF1432,
3D328630,
3D3F3012,
3D928184,
BD342513,
BCF88A88,
3C3B30EF,
3CEED987,
BD558CED,
BCF41E07,
BD6429C0,
3C9FB9DA,
BD11A98B,
BD12CB9B,
3D6887DD,
3C6E6470,
3CC003B3,
BC36F600,
3DAD2416,
3C66CB31,
3D270C88,
3BC0CAF7,
3D165256,
3CC74F37,
3D882D05,
BD38933C,
BC874386,
BD7C7CBC,
BE34E8FC,
BE756B9C,
BDCD8310,
BBDEA2DF,
BE93AC5A,
BE86AC9F,
BD9BC806,
BE250AA1,
BE4C8D3B,
BE636878,
BCF45A80,
3DBF1757,
BDC0FFF5,
BE0AB28F,
3C85C4C1,
3CC00CFB,
BE33FF6F,
3D52E264,
3DEC5817,
3D368F52,
BDE48F36,
BE05C584,
3CFDFD22,
3D87E265,
3D66D988,
BDC791B0,
3AA0B725,
3DA89C04,
BC91BE57,
3D135BB6,
3D5F65D0,
3A8ABA89,
3D7F2709,
BD1C5091,
3CB6F189,
BD300D4B,
3C5B5DDC,
BE085038,
BD079395,
BBFF6919,
BCD53AF5,
3B8D228D,
3D9937EE,
3C251221,
3B42A466,
3CBC6C25,
3C7C8707,
3D15A419,
BD8FBAEB,
BDCA9DFB,
BD8D966C,
3CDAE8FF,
BB20551A,
3C355132,
BCB21CC4,
3DF81044,
3DC67E77,
3D97F322,
3C4ADE0C,
3DF75141,
3D9617AB,
3C846817,
3D2C1BBC,
3D7C990D,
BD2846AC,
3DA6B043,
3D48688B,
3D791BD8,
3D4AC7F5,
3CECF228,
BC643FB1,
3DB155B2,
3DB4E608,
3D8121EE,
BBD56EF8,
3C37AA9D,
BD3BA9C5,
3C2BB5A2,
3D98D26F,
BDC4361F,
3D4D6FA3,
BCCEE008,
BD116DA5,
BC952A32,
3D7CBF09,
3CC59BE0,
3CB3403C,
BC9F977B,
3DF37E87,
3CEC4363,
3D3EB8EE,
3BBE1205,
3CFAD852,
3D9E57CF,
3C9E57F0,
3973BD22,
3D873E99,
3DFCABA0,
3E0DB595,
3CF84048,
BD33EA75,
3D209C80,
3E009AB8,
3D82DE0B,
3D3D5AAC,
BDEA0D60,
BD221EF6,
3DB57A6A,
BD2AA01F,
BDD84FCA,
3C681B5A,
3DC060FD,
3DA18103,
3E4BA765,
3DAFBECE,
3E228C4C,
3DC33B88,
3DB7ADA7,
3D1CF059,
3C334C23,
BE721DD2,
BD9F71B6,
3BF9938A,
BD8F4D4E,
BE1B734B,
BD2DFB8D,
BD1BF704,
BD14C1A1,
3C1FDFB6,
3D899618,
3DA1C3AA,
BD89D2D7,
BD4A4FFB,
3CC66A07,
BD2FEDE2,
BE0686EB,
BE423A12,
BE01D220,
3C94C360,
BDBFEE4C,
BDA54763,
3CA799C7,
BD2CB084,
BD4EB52A,
BBEF1A9E,
BDCD4276,
BE11DE22,
BDCC7A28,
BD634522,
BDAAB4BC,
BDE68FFE,
BCF80DF7,
3DB41416,
BD40A20E,
3CB25AF6,
3CCC499F,
BCA81159,
BD854E36,
BD6BD9A6,
3D9C3C44,
BAB4FCA6,
3CB64072,
3CB1ADFB,
BCDC4080,
BE46969B,
BEA12ED1,
BDC8CE79,
BCECEA8C,
BE4B0A49,
BDAB26D2,
BD4B63FF,
3CBF9FD6,
BD35C6F2,
BD60B9D9,
3CBB7070,
3D4B53A3,
3DB6A7ED,
3E1FD3E7,
3B523920,
3D4ED526,
3D91A12F,
3D3FD803,
BD85C58A,
3D229367,
BD33B3B1,
BC90C90D,
3C8A7A76,
BD4EC7EE,
BCFE4C5A,
BDE1D880,
BC8FFBC2,
BDBC6FA9,
BDE96B4B,
BE5DFD1E,
BD40FAF2,
3D1B4916,
BE652521,
BE4F3A5B,
BE15F369,
BD6B2278,
BDEC5E3C,
BE15B6D8,
BD4EBDC0,
3D0C99DE,
3DC4FE67,
BCC94B2F,
BBDFB323,
BDDDA0B3,
BD653956,
BDFF173D,
3CD466F5,
BDBA45D1,
BE10A36A,
BD953185,
3D3633CE,
BE3A5C4B,
3CA0BB0B,
BCFE4FB6,
3E1EE84E,
BDBDD8B1,
3E4FA341,
3D6776FC,
3D0200A6,
3CBBCD41,
3DD2F7BF,
3DD600E5,
3DDA1596,
BC0E8238,
BCD466D6,
BD06D42B,
3DAF4CA0,
3D2D4231,
3D2AE329,
BD8D0234,
3CDF1659,
3D63D719,
BD286BD6,
BD2A6196,
3C70EA72,
3D759152,
3D65A890,
3DF4336E,
3CBD7E77,
3DAB42B2,
BE09B0AE,
BE3A3F1F,
3D4D58DF,
BC0CF252,
BE2B9047,
BE9D2AEE,
3C437E94,
3E062934,
3C4F6B44,
3CB0B8C4,
3D8E71D1,
3DFE95FD,
3CA8642C,
3E0CFE99,
3DE6B47F,
3CF9C065,
3D16C6BF,
BCF155A3,
BD80E615,
3D68229E,
3CA78C58,
BB27DA75,
BCC3454B,
3DA3EEB6,
3D6AA0C3,
3D85C545,
3BCD0EF6,
3CCB17E5,
3C9FA240,
3D132E53,
3B93CE5D,
BCF42E42,
3CDE01CF,
3E08EBAD,
3DAD9458,
BD79150B,
3D0C6974,
3DC905E7,
3E0DDA47,
3CE941EC,
3D33CE70,
BCF49B8B,
3D8F445D,
BD360CBA,
BB2044A3,
3A5D8B22,
BD18E127,
BDCB289F,
BD2A9DB7,
BD87807E,
BD91BDD8,
BE29122D,
BCC9B5A4,
BD34A4A4,
BD9C5D5D,
BDCDFE12,
BCF87EAE,
BE17310B,
BE16BDE4,
3DD8A58A,
3DB42915,
3DA9FA75,
3DA2E9F6,
3AF68A5C,
BBA763DC,
3C3B3DDC,
BE118A2A,
BBE5B827,
BCBB4F62,
BC68FD53,
BD2425B0,
BB73EA21,
BC98E7A3,
BD0A5E37,
3D318DD5,
BC8401F0,
BC71C2CF,
3BEB84BC,
BD4FCF08,
3BEF53AF,
BE1785FF,
BDEA74D0,
BC4143A5,
BDABADFB,
BE25EA3D,
3D3E6E33,
3D04D4D9,
BDCB5E1E,
BDEB79BD,
3CC9A4FD,
3C4AA00B,
BB415AA4,
3D882E1A,
BDC71CB6,
3C8BEF15,
BD8BF290,
BE706CF3,
BE3B96AC,
3B5FF88A,
BCD562AC,
BCAE6F5E,
BE264A8C,
BE0062B0,
BA12C35A,
3CCACDD2,
3CE3A00C,
BDA4C090,
BCA228F8,
3CAF46C1,
3C7FD1CB,
3CBBE1EB,
3C860D65,
3C5B2317,
3CC943C8,
3D15D9F3,
BD1C60E4,
BB8D0F2D,
3C4A88DF,
3C117F37,
3C457B98,
39CD528E,
BD6FB6C0,
3D9C7169,
3D234DAB,
BD08262B,
3E27DCCF,
BD4A98AD,
3D912414,
BC0CBF54,
3D1EE9C6,
BCF4AA36,
3CC9D34C,
BD5089B7,
BD4781CB,
3C859251,
3C97365C,
BCEA8BAA,
BD8211CC,
BDB67A8B,
3B2391A2,
3CD32D7C,
3DA21F4B,
3D306D76,
3D8248C1,
BD0CF8DF,
BE337A34,
3C30F901,
3D706560,
BC90EAC0,
BCE14598,
3D47FE76,
3C94D775,
3C15AB5D,
BD89DB43,
BCCAB4FE,
3D31961A,
BC028123,
3C1A5EE2,
3D060780,
BCBB644C,
3DE30CDE,
3D510E8D,
3CC9DE86,
3D1E6013,
3E09072F,
3C32966A,
3C8B4571,
3D2976EA,
BD4BFA73,
3DBB1AFC,
3DB30C75,
3DB686BB,
3DBE2211,
3C9EBA31,
BDB43132,
BD338746,
BD4A95E1,
3D0E44FB,
BE019E07,
BD98D779,
BD268B31,
3D13BD3D,
BCA7713B,
3D022C58,
3D25C14D,
3C2EDF27,
BD768DDF,
BD22CC52,
3D550E99,
3D800ACA,
3DF3A05A,
BBA45715,
3E06A7CF,
3E330724,
3E057B0E,
BDC17043,
BD5D0B13,
3CDA1EA0,
3DA5DF37,
3BDD2790,
BCEB49EE,
3C7F208D,
BD64873F,
3D52CAC7,
BC7E1B90,
3D7C1A3B,
3D363C6C,
BC5D6FE1,
BD09C0BE,
BCACD349,
BCF889D5,
BDA17252,
BB0C41B7,
3CE48DE7,
BD56F3B2,
BC62E39D,
3D25662D,
3D4C474E,
3C123559,
BD932BBB,
3CDCE178,
BCDC77D2,
BD48A287,
BD8340BF,
3D748446,
3D1F8691,
3C02F9A0,
BD9B40FD,
3DFEEF2D,
3D5EC9CB,
3D67AA22,
3D0251EF,
BDC4F373,
BDD1AF72,
BE0C3CD7,
BD4C3463,
BDF9C496,
BD7F3BA1,
BCF30606,
BD730817,
BDC6C038,
BBFA3E67,
3E0B6193,
3AA890CC,
3DAD02FA,
3C390204,
BD389729,
3DDCB74D,
3E016DDD,
3CCC2AC7,
BCE0746D,
BC117082,
BC50FF3D,
BDBD4F5D,
3D927C8B,
3CB57903,
BE465A6B,
BE5B4A47,
3D0CFFFC,
BE47A932,
BE5997DC,
BE7FEB3F,
BC0E3206,
3D3693C8,
BCB5E435,
BD5738F5,
3BCCD0F9,
BD92FB8C,
BDC87561,
BBF8C74C,
BC5F98E0,
BCD2B246,
3CAF3CE7,
3C6A11BC,
BC91AC48,
3CCFCC3B,
3DE16E24,
3CC2AC26,
BC86959D,
3E1A17F2,
3DE31786,
3BD92F80,
BDB00A03,
3D699505,
3B848CDD,
3CF927BD,
BCA9A2F3,
3C8E5745,
3C308456,
3DC78ED4,
BD29FE7A,
BDAD2445,
BD8A7D27,
BDEC3CC1,
BD64DD0E,
3DC928AE,
3BBE6C21,
BD2799FD,
BC36113A,
3C252BD8,
BE305872,
3C950F1E,
BD14825B,
3D891BE5,
BC744357,
B9C8823D,
BD8A09E0,
3DDB85AF,
BD4BC073,
3D472FAA,
3D77403D,
3DA33535,
BDC50A04,
3CADE36E,
3B95AD9B,
3D07CAC4,
BCCFEC77,
BCECD5D6,
BD8C97CC,
BB9CC8BF,
3E640313,
3AC38DFD,
3D34B9AB,
3D43BBA7,
3E22F818,
3E3D2EB9,
3B0E53ED,
BC31AD54,
3D90ABA6,
3E170D32,
3D5F021F,
BCD2A4DB,
BE130F42,
BCB14F32,
BD4E37B4,
3B8107AC,
BD3E1142,
BD906643,
BD800D7F,
3DA2EE50,
BDFAA68E,
BDDFB4D2,
BD83EFE3,
BD19676C,
BD40ECFE,
BD2743C8,
BD2B3727,
3CF8A63B,
3D37C738,
BC02717F,
BB9A0DEB,
3D8D2C1A,
BA84187A,
3C141AD7,
3C9E34C0,
3D87832F,
3D349542,
3DDBB306,
3D04DDA8,
3BAE9E69,
BC3645CC,
3CF08F64,
3D136F27,
3E030260,
3CAB6915,
3E00E4A1,
3D02E01F,
BC2B4624,
BCE1A4A0,
BD42CA00,
3D45E95A,
3D4B604B,
BDB20D65,
BC9B03A6,
BDB6F4CA,
3D8576BD,
BDCB904C,
3CF7C9BA,
3A7C7A75,
BD50F916,
BD7441BD,
BB8B3132,
BD45602D,
BBA2DA77,
3D6C2E17,
3D8C73D7,
3CA5C437,
3DA07704,
3D849165,
3D80EFBA,
BC96C77C,
BC86557D,
3D62E0F5,
BD03C71C,
BD2A009C,
3CDA4550,
3D8B00D1,
3ACE0B6D,
3C04EEAB,
3CD23F0E,
3C1A3ACD,
BC1F01E1,
BC8546B5,
3E03E44D,
3D68C385,
3C1F7E6A,
BD46D004,
BCEBA10B,
3D7E4C23,
3D3029D9,
BCE526E1,
BD95304F,
BD750440,
BDC553F5,
BD7B9247,
BD963201,
3CF543A3,
3D374BF3,
B8B76274,
BCBD8F03,
3DB622A6,
3CD1AC5A,
BDB4B869,
3DD50E7F,
3DDD49CF,
3DBFC121,
3B4169DA,
3DA1C263,
3DB55E44,
3D9A99E6,
3D4348FA,
3CFAF9A1,
3E37ECA7,
3E3D4E55,
BB9196B1,
3AA24E0B,
3D657D79,
BD702F13,
BE066FF2,
3D228A94,
3DCF608C,
3D52413F,
BBBF1B71,
BD9F6F03,
3D87F0BA,
3D93110C,
BB769B68,
BDC3DAAD,
BE20B4FD,
3C0E8D58,
BD08ACF6,
BD0F38EE,
BDA9D96A,
BCC7CBE1,
BDBB2575,
BCCB3834,
3C8A6647,
BBC89828,
BDFB608B,
3DAD510A,
3D9CA41B,
3DC79A6A,
3E106DE2,
3CFE1FBA,
BD0639A7,
BCD97A51,
3D6B21F6,
3D212464,
BE449D77,
BE01E35F,
3C6F37A9,
BC6F58FA,
BCD728FE,
BCEF8C1F,
3DB3DEAC,
BCFD3838,
BD2614DC,
3D70D799,
3E121A65,
3C42D197,
BD2B9BD1,
BD4EFE28,
3DF9E6C2,
3C8CC343,
BD9AFB11,
3D968B34,
3AFAF0A5,
3DA26C36,
3C9AB1A1,
BA8144B9,
3C675E6D,
3CB36719,
BC3F19A0,
BCC8138D,
3B8ECCE3,
3CA3A3D9,
3C074B86,
3C6A3536,
3C0E83C6,
BBBAD66E,
3DB5B4D6,
3DAE346B,
3CDDA5C0,
3D1D6916,
3E236289,
3D9DB871,
3D4FB960,
3C0382A6,
3DB06365,
3D462AC7,
BD40DBD4,
3BA67238,
BE38D87C,
BDFCDCCA,
BD066F05,
BDE2C3EB,
BDA7C253,
BE209C64,
BD71046D,
3C83CF6D,
BD3648A0,
3D15EA79,
3CCE7B82,
BDF5B6A1,
BD35869D,
BD9A5677,
BD8D410C,
3DBCAF56,
3E502856,
3E5FAFB2,
3D19F0EE,
3DC18A52,
3E2EBC17,
3E538128,
3DA2A110,
BD1820A3,
3DADC15B,
BD4DB5AD,
BDB0B5A8,
BDE8A647,
BE2CDB94,
BD16BF2E,
3D969119,
BD4BB8E8,
BD4BB418,
BB873F7B,
BCC276CC,
BD9B3C0E,
BC142314,
BD4FC977,
BC32ACA0,
BC3D75FD,
3D630F6D,
BC58FF9E,
BDF16FF4,
3C594021,
BB1DD017,
BBE91C4D,
3D5FF6D2,
BCDEE677,
3C55A45D,
BD519C96,
3C89F216,
BD3D6C9C,
BD9597E8,
BDB4A05C,
3D8C8A86,
BDBFB8AE,
BC9BCBC7,
BE0D20B1,
BE2DD7DD,
3BC15649,
BDE5DAE0,
BDF7A06A,
3D10A6D9,
BD55C2C5,
BE1E8FA9,
BE8DD172,
3D253810,
BE1C223A,
BE3AD3AC,
BE334F51,
BDA53E41,
BD2198FB,
BD48916D,
BD0C890D,
3C690D42,
BB3CCCD1,
3D551C91,
BDCC3687,
BC728C3B,
BD413823,
BD1BF8FF,
3D133619,
3BE7ED94,
3C755CE8,
BD3675C2,
BD9C48A8,
BD713DE9,
3CC6CAE8,
BC780B27,
BE04E814,
BDC327B9,
3CB8F593,
3D5CEFE1,
3CEDD5D3,
3C5D3945,
BE04F4BF,
3CED7D12,
BC3D66C1,
BADD61A3,
BCE116AF,
BE068B42,
BDC01737,
BD8078F2,
BDEFDE5D,
BDAECB8D,
BD63212D,
BDE260E7,
BD703025,
BD6A4299,
BD3F8315,
3D1D2FD4,
BE0209C1,
BE00A643,
BE071A77,
BD732E71,
BDDDAC27,
BE2D3A7A,
BDC8E738,
3D65A3E5,
3D18F65B,
3B1D8252,
BDE434B0,
BC9C7159,
3C4B1E27,
3CC1DEEA,
3CBDB24E,
3D629126,
BD9B83FB,
3BEC53A5,
3DC98875,
3D9FB22F,
BD554AE7,
BD053CE6,
3A09F1D8,
3DE8003D,
3D2BFA89,
BD995255,
BDD6CB39,
3D9801B4,
3E160920,
3D2E4614,
BCCFAE44,
3DA58BD9,
BD60E8FF,
BD451412,
BE3C3686,
BD9C664C,
BD34ADCE,
BBC471F6,
BD8CC3E5,
BD8EE94E,
3C3520A2,
BDF5D0DD,
BD6C22DB,
BC8EE9E4,
BDDAC153,
BE5835AB,
BCC70172,
BD4355A2,
3B601556,
BE1138F2,
BDC04EBE,
BDCF2722,
BD0D5499,
BDD92D7A,
BD4C6DD9,
BC845D27,
BDE32311,
3BA1F6BD,
BCFB6A4D,
BD45FDD3,
3DB2CCC6,
3DB82270,
3D9BDF65,
3B046840,
3CE4B7E9,
3C61404F,
3C4E5FF9,
3D57F90C,
3D97F85B,
3D0DF539,
BC54B4A8,
3D06FE6C,
3BEFE63D,
BC8224E0,
BD215C5D,
3C1194AC,
3DBA51D3,
3DDA8E44,
3E061ED1,
3DC6B144,
3DA0AF3C,
3D66D82F,
BD6F0D90,
BD67AADA,
3D5DC1FF,
BD68F484,
BE0C37A1,
BE01C9FB,
3E03E283,
BDA18E06,
BCFE8334,
BDA82690,
BDBE563F,
BDEA8963,
3CA32769,
3C8C068F,
BCF55F67,
BC0D16D9,
BD3A2EAC,
BD39F071,
BD2D1F8E,
BD223C9C,
BDAF4EE7,
BDAEF8F6,
BD6112A1,
BA389D75,
3BACD440,
BD3CEE64,
BD17515C,
BD2FD98F,
BDF1D507,
BDF6084C,
BDBED6F2,
BCD0A8DE,
BCC10D75,
BE18EA0D,
BDB3F901,
BD79EA48,
BCFFE1DF,
BE2C360C,
BBEE469E,
BC928812,
BD2BA29B,
3C915A06,
3D2DC216,
3DEA3FF8,
3DE62A5C,
3D7E5C33,
3CBDDBAF,
BC1AACD1,
3E0C0A52,
3DDA2242,
BD9370B9,
BE20405D,
3D84E1A0,
3D47C35F,
BC807514,
BE16A354,
BB744109,
3DB2B498,
3D87405A,
3D9C7A7A,
3DC123BE,
3DCD4A23,
3D82C629,
3D820794,
3DF9CCC8,
3DB16703,
3DF43816,
BD75124F,
BD827B98,
3BF935FE,
3CB08D66,
BDBBCD26,
BD0126E0,
BCC79BC0,
BD1FDCBD,
BE4EBE18,
BDA059DD,
BDC59FD4,
BDBDE789,
BE99B790,
BE4D3DEF,
3C2A9CB2,
BBA683AC,
BE3565A5,
BE4B2303,
3DB4FA63,
3DAF13DC,
3CD9660D,
BD1EFA22,
BAD5EE48,
BC86F51D,
3D5EBDF1,
BDA294D9,
BAA60FB9,
3CEFE3AC,
3D77ED0B,
BC95BBC3,
3CDA2798,
3E1AB05A,
BD56A8B4,
BD5B91E0,
3C0A0EA6,
3DB8352E,
BDD84A9C,
BE3AD3F7,
3C41F103,
3CC77B6C,
3D9EA741,
3CCE7300,
BBA4BBFA,
3D2A2E01,
3DB3283B,
BB827452,
BBB6512B,
BD0F9027,
3C6EF463,
3DF6BA39,
3BE985DE,
BD154850,
BCE1562B,
3D88CB04,
3DCACFF3,
3DCE4BB7,
3DB456BB,
3CB16614,
3D5471EB,
3D1B3F0D,
3DBB7792,
3D2E06E1,
3D007786,
BC6D89FC,
BD6DF11B,
BDA954B8,
BD2C5345,
3DED04AE,
BD0BFB24,
BD49A7EA,
3C04267E,
3C24667D,
BD2115ED,
3CE3BC1B,
BD7AFEE3,
BD35AD0C,
BE611450,
BD02CFF9,
3D350292,
BDB2FB1A,
BE757F2B,
BD30196A,
3D12FBE6,
3D2DCCA6,
BCF15ECE,
3DBDEF14,
3D995C56,
3E09421E,
3C957C5D,
BD45FF60,
BD7173A0,
3BC45248,
3C9459E7,
BE1E257E,
BD0C953B,
3CD898EC,
3D20A19B,
BE2AFDD5,
BD96FD1D,
3D17DF3C,
BD786DA7,
BD82F00F,
3A90B37E,
BC0DF07F,
3BA57183,
3D185BED,
3DB6C548,
3D002026,
BBE88BD9,
3C173E99,
BB5EA9D5,
3D5617DD,
3DF93BEF,
3CD869F5,
3DCF6241,
3D3B41DE,
3C4EEB2C,
3D72F876,
3AC0B818,
3C09137E,
3C5F5B62,
BC5E590B,
3D47AD0E,
3DE6CC62,
BC193CC6,
BEA64F98,
BDF4D86B,
3E5B8924,
BC524C8F,
BE8503DE,
BDEF3C31,
3E4E79D5,
BCE648AC,
3D5E099E,
BB8E71A9,
BD5A0579,
BCCCE587,
BDC9DB19,
3D07E2B7,
3CC72E06,
3DABD4DD,
BCF79347,
3D334F17,
3D3085B8,
3E0D02D4,
BC4E66DD,
3DBBF3D3,
3DA96B92,
3D63A88E,
3D5B9F4E,
3DA578A5,
3AE4FA1A,
BD369135,
BD6BED01,
3D803173,
BC9969BB,
BC373FA0,
BD66DF38,
BD2CD2F6,
BDEDDD15,
BDD9236A,
BD204881,
BDB6C6A6,
BCCBF9DA,
BD6FC414,
BC70DD5A,
BD3277B5,
BD163921,
BCDAB02A,
BD19C02F,
3DB82987,
BCC4255B,
BD47D856,
BE08270B,
BDA4D371,
BD5D99E6,
BC227C3F,
BD56E91A,
3D0FE72C,
BBF902CC,
BDFCDF92,
BD60810B,
3D415B01,
BD441A03,
BDF6C641,
BD763115,
BC7AC32F,
BCF5C049,
BD3CD909,
BDBF7580,
BCBC8587,
3DBBDE73,
3D8FA6A0,
3C25CFAB,
BD7C551E,
3DC59EB7,
3CBDDFDB,
BC80F5BE,
BDFCB020,
3CD273A1,
BCDA30DE,
BD3F541C,
3D80DC52,
BD96B2F1,
BDD2D903,
BD1C1851,
3C39C09D,
3CE664A6,
BB123446,
BC04F7D7,
BD08F1AE,
BDA1D91C,
BB7359D8,
3DE5A066,
3DA150D6,
BE40987D,
BE2D5B52,
BE108E18,
3D09A44E,
BE3330D2,
BDAF6AB7,
3D2B99EF,
3D6BCFD3,
BCF2642A,
3CC3987D,
BDACCBE0,
BC6F7CC5,
BE26EDE9,
BE386370,
BE4BE7EE,
BE164DC3,
3E200255,
3C27BB09,
3D1A4E7E,
3C501CFC,
BE0AD9D8,
BB34AC38,
3DCB1867,
3D779034,
BDFE4884,
BD6782CA,
3C9984C3,
BD185EB8,
BD9F5031,
BC1D9AC2,
BCD5B6EC,
BD728E45,
3D98523B,
3DC31BA7,
BC6356CF,
3CFDAD3F,
3CC7FA4A,
BC1B5A9A,
BE161AAF,
BE6057EE,
3E10EBB6,
BD3EA352,
BD2456C8,
BDDE7D71,
3DA503D0,
BE506CD2,
BD188A03,
BD8D7D54,
BCBE3706,
BD3F7DCE,
BD9E9C29,
BDD15E31,
BDE38266,
BE21A287,
BE2562CE,
BDB60191,
BABC76BC,
BD24918A,
BCE48C12,
3D24035B,
3D2391A8,
3D2AC6F4,
3D8B1EC4,
BD5FB225,
3BEA4D37,
BE01A3BA,
BE482BBF,
BE18F617,
3D186631,
BDF63728,
BE6D957C,
BDE9BCFA,
BD930DC7,
BD7A8302,
BDF309C7,
BD8D9E77,
BD924A15,
BE2CB65C,
BD951520,
BE32EC34,
3D26187C,
3DD4096E,
BDD774EB,
BD39132E,
3CAB0AB4,
BD908850,
BDF5487B,
BCE73697,
3D6AF8A8,
3D098081,
3D3B0F17,
BC5DDEB8,
3DCE6F9A,
3D96EBF8,
3D7CAE5F,
3D10C6F1,
BE5B7C5E,
BE04729F,
BD86F360,
BD8497C9,
BE19453D,
BE37C039,
BE00F986,
3D595B04,
BD860CA1,
BE01CA42,
BD837DFB,
3D0311B3,
3C94A1EE,
3C4D64FF,
BE168629,
BD551388,
3D89C7E4,
3C21337F,
3D19B8B9,
3DB6966F,
3B7A3372,
BCE8BE45,
BD7FD033,
3D2883BC,
3DC82264,
BDA519A0,
BD7D0AB4,
3CEFE173,
BD2E22AD,
BD89C328,
BDEE0989,
BDFD1E3F,
3DC79CFB,
3CDAF6E6,
BC5460B0,
3CB7902F,
BD81CBA1,
BCEAE591,
3C117B80,
3DB29391,
BD1836FB,
3D8B4A32,
3D1E7B75,
BB2828F3,
3D47370F,
BCA301A1,
BB8118E2,
BC3C5C51,
BDB559B8,
BD532320,
3DA3AB79,
BC6AAEDA,
3CF9D776,
BD7807E6,
BDA6B513,
BDEAE223,
BC0E68EC,
BDECD7B1,
BD056E0D,
3C06EC7A,
3DD03E28,
3E23906F,
3E59F93C,
3D061D02,
BC5CFADE,
3C6CAEED,
BD84D649,
BD8E2FF5,
3D23C3EC,
BA3C073B,
BE0549FB,
BDF54E02,
3D1D3943,
3D0B513C,
BD39C31A,
BD51FAFC,
3D914EE7,
3DAB82BA,
BC9A0E5A,
3C96A51C,
BC252BDF,
BE206922,
BE3FD3DA,
BDD6BA9A,
BD2ECBBE,
B9CA1EBF,
BDC96527,
BE782D3B,
BD94E6CD,
BDD9667E,
BD63B356,
BE1B4785,
BE13490F,
BBF63C14,
3D5155FB,
BD9929DC,
BDCBF83D,
3D7D847D,
3C9B1B6B,
BD18E9CC,
BE55450A,
BDECBF60,
BDD5C16E,
3D37D4A6,
BDC8336E,
BE5AFBC3,
BDFC8097,
3D8C41BE,
BD80B7D3,
3B8ABAAB,
BCDFC155,
3E1F8E63,
3CFBD136,
3DB87B96,
BCF16E1D,
3D5861B3,
BCC82073,
3CCB35EA,
BE073883,
BDFBD7DD,
BCFB9DC9,
3D96F11C,
BD518C51,
BD841076,
BDB805A2,
BD6AA68E,
BDD5A43B,
BC91FFBA,
3CC8AC67,
3DA0F4CB,
BBA09178,
BE32C65B,
BB5B7ECA,
BBE44C39,
3D282F45,
BDCBBBBD,
BE09B026,
BE3A9A28,
BD52C8B5,
BC9D1E7B,
3CA631B6,
BD3A2F10,
BE0CE6E1,
BCB0CD7D,
3C0E94F4,
3E2C3639,
3D911BAD,
BCECD889,
BC824ABE,
BC42C3CD,
BD414B37,
3B0A7C8A,
BD43D6FC,
3C55EB8F,
3DE03235,
BD119EEF,
3C89329B,
BDA9BE3A,
BDBEBB15,
BE15F377,
3D958CA0,
BAD45688,
BDEDA142,
3CA1B87A,
3DE59748,
3E1F4A70,
3D251387,
3DA8D0DF,
BC5B5968,
3D1E4D66,
3DD19E31,
3E7F4FBB,
BC9CAE22,
3B5F21ED,
BD09DEA1,
3D012794,
BC414FBF,
3D594494,
3D6C0B92,
3D06132A,
3DB28027,
3E1716FB,
3E102095,
3D24D3A9,
3D29FA68,
3D539822,
3D287F5F,
3DBF5FC9,
3D011583,
3D58D936,
3D453E81,
3D857465,
3CC5CEC6,
BCBF0190,
BD40003E,
3B89CDC0,
3DC99BDA,
BD8CBA45,
BDF59F3F,
3CBDAD23,
BD742EDD,
BD516478,
BD60565B,
BC023FB2,
3BD923E0,
BCCE3132,
BD3F65E0,
3D7DF865,
3D43B1E2,
3DAADEBA,
3DC0A77F,
3DA12AFD,
BBD03A08,
BD86C9BB,
BD255569,
3C6A3D49,
BA456AD3,
3CEC0A81,
3C48864F,
3B936CA9,
3D623957,
3C146606,
3CC1E252,
3D8B6954,
BCCB7F7F,
3ADD324E,
BD17AB68,
3B845AC8,
BDE6C358,
3C5750D4,
3E18162B,
3CDE9B29,
BD402E45,
BDEE6FD7,
BE0CACE6,
3ACB8B94,
3D2E15BE,
BBC0895B,
BC4856AD,
BD5EC454,
3C5FAF33,
BBEA6E05,
BDC936AD,
3A6B4D60,
3DD30330,
3E95F0CF,
3E357F22,
BD1C7662,
BDA862E0,
BE14850D,
BDB8BB81,
BD9D6AA6,
BE4914AD,
BE7CE5A1,
BE2B2B9A,
BD95FD8C,
BE0193D3,
BD9BB3A9,
BD8E3A47,
3C59E46C,
3DF62129,
3D85E02D,
BC99574A,
BC8A3CEC,
3DE85253,
3D9B9853,
BD8712D0,
3E43815A,
BD667EAC,
BCB202FF,
BD56999A,
BE035A5D,
3CF5D6F7,
BD2F6425,
BDC90136,
BD3BA2CF,
3E298FF6,
BE00A9B4,
BDB5350A,
BD8C2D7E,
BD768798,
BDA0ACDF,
BD1B2D8F,
3D4A48D7,
BCB575A6,
BD098940,
BDB91F90,
BC84BBD4,
3DCB43AD,
BDC7F820,
BDC0AFA3,
3C1DCAE2,
BB8E9543,
BE568C57,
BE955729,
BD5023D7,
BCE1BF0F,
BE8FFB7C,
BE5D5E5C,
BCD33AF7,
BD7B2B8E,
BE00B489,
BC740481,
BE040813,
3BFA77D2,
BE00361B,
BC484816,
BCB96644,
3DDCA1F7,
BCFBFFD2,
BD0EAB32,
BD4DE144,
3D41421A,
3E057A33,
3DCCFEB4,
BBC9EBF8,
3D3D0DFE,
3E38DD17,
3DED945A,
BCB77B1B,
BE14AA29,
BD1B5578,
BC67274F,
3BBFE8FE,
BDDC562D,
BD9F090D,
BDA415FF,
BDA5FF1B,
BD5FFE0E,
BC93CB0A,
BC9DD03E,
3D6943A2,
3C4BE209,
3D707D4A,
BC772383,
3D56ADF7,
BD02F48B,
BD920C52,
BD6B9892,
BC2B0E03,
BD798938,
BE544124,
BE9305C6,
BC9B424D,
BD1A1C2F,
BE009EFA,
BE640073,
BD5AE2CB,
BD05BA94,
BCE6FB65,
BC310C7F,
BD1235A8,
BC5C5F95,
3CB281D0,
3E1DE338,
BD03CE46,
BD33E388,
3E24A09E,
3DEBA9E1,
BE0D1BB3,
3D87C6F5,
3D05B302,
BBD6B80F,
BCEA8FAB,
BC987C06,
3D88091A,
BDABEAD5,
3D2E16B9,
BE07A60E,
BE38384E,
BE167265,
BD4B4B1E,
BE0FD0A9,
BD663DFB,
BD215459,
BD46B089,
BDA6635B,
BDC6587E,
BB89DAA1,
3D2436D8,
BDA7F3A0,
BDE7FB0E,
BDB8ED4C,
BBA95B0B,
BD3BBE2B,
3DBEE1AC,
3D156096,
3B0D05BB,
3CD3C3C2,
3CD87051,
3D4AA5BC,
3DB6A2CF,
38026FB0,
3D98AC87,
3D9F9D95,
3DE101CE,
3D7CA406,
3D6C6BB1,
3D4C2056,
3D6EF8C1,
3E04CA1F,
3E29F346,
3DE80909,
BDE0B1EF,
BCCECF21,
3DC42324,
BDC7BC30,
BE477BE0,
BDB381C3,
BD571DFD,
3C1E9985,
BC40EB24,
BD132C99,
BD894217,
BD1A9929,
BE071AE3,
3DAA4F74,
3DD789F6,
3CC5031E,
3E110CE9,
BD256BC3,
3E0125C0,
3E31C1BF,
3D86A7B6,
3CEC0A2C,
3D836007,
3D35D041,
3C1FECCE,
3D281DD6,
3D9593EC,
3D2C2571,
BC16BE1A,
BE2FC050,
BCF97190,
3C859C4D,
3D8567F7,
BD220876,
BDB3F144,
BD53CD04,
BD1C7E36,
BE03E5E2,
BE181E9A,
BD29D817,
BC9F25E4,
BE11CFF6,
BE169204,
BDDECA33,
3D925927,
3E0B6D57,
3C406EE0,
BD955E6A,
3E02081F,
3E1554D4,
BD3433D7,
3B15A32E,
3D98E509,
3DFFA033,
BE8601AE,
BE79E0FD,
3CE282D4,
3B5A7413,
BD1EAD2B,
BC36CF8F,
BCB3C4E0,
BE1F1CED,
BE2A3F36,
BE1AFBE8,
BB84A2A9,
BD8E42F4,
BE94FB90,
BE51A15E,
BB286709,
BCB1C973,
BE6E2F6E,
BE79DB55,
BD3A0A07,
3D5952F6,
BD0EB120,
BD8E8B44,
3D5ECDD6,
3CC61ED1,
3CE1C1C4,
3E23999D,
BD087285,
BCFBC8B4,
BD4601F2,
BD5512BD,
3D8EB91A,
BDA740DB,
BD877753,
BD06362D,
3CC629A9,
BE6E9546,
BE210138,
BD113D83,
BE0C7608,
BDCCB17A,
3D0AFE55,
3DD0A716,
3DAFFF00,
3DA5778E,
3DE4A701,
3E085F9E,
BC456912,
3E243EDE,
3E78723C,
3E3CC89B,
3D0A4E49,
3CBCC09E,
3CDFC74B,
3CE8295B,
3D89DE55,
BE02E490,
3E13436F,
3D4A5E3F,
3D04F896,
BD07AD03,
3CACDD99,
BD26E8BF,
BC3006F9,
BCC35BAD,
BD8C57EE,
3B601343,
3D04BE2B,
BD5DF0C4,
BE02DBA0,
BD67E37E,
BC9116D5,
BD9803C1,
BD1B1853,
BC6D9E17,
3B42329F,
BD82EA8E,
3CE05B5D,
BD19D4C4,
3CF08110,
BC8B1F67,
3DB8F16D,
3DC97E86,
3D7D41A6,
3DC2C90D,
3B81B802,
3E165B07,
3D0654C4,
BD8454AA,
BE141EE4,
BE3E59DB,
BDC95A68,
3D7E72A9,
3E0E0767,
BC93F5C7,
BDB64340,
3DAA6E16,
3CCD15A4,
3DF827C5,
BDA6CF9A,
BC85621E,
BDF0ED21,
BCAC3772,
BC52FA56,
3CF9D2D2,
3E029399,
3E383A87,
3E21EA6F,
3DCB91FB,
3E7B6A07,
3E3CE900,
3DADBA15,
3BFED3BE,
3D94009A,
3DA0CDC5,
BC507715,
3C95B28B,
BDD72B75,
BD5DF225,
BD2183CC,
BC88BF1B,
3D0A5332,
BC058544,
BD881415,
3D8DECE2,
3D83D4C6,
3E014BDA,
3DCDAEC2,
3DE00D4A,
3E191822,
3DCE10AD,
BB0AC1EE,
3DFE4564,
3CC5C98A,
BCE07055,
BB8858B7,
BD8196DE,
3E02B9FA,
3E34D7CF,
3D08789A,
BCB9AF23,
3E5AC3D6,
3DF23969,
3B46BE4D,
BD06F073,
3DA62ACF,
BCE84917,
3D10CB09,
BD60B120,
BBE8388B,
B9A9C8C5,
BD44C852,
BD6F81DE,
BC2157F6,
BD269DF5,
BB04B763,
3BB37A5D,
3BFADE6E,
3DBA6D34,
BCA382C7,
BCB01E74,
BDDDE914,
BD871A57,
BD999ECF,
BDA48453,
BDA251F0,
BDAA3989,
BE381F66,
BDA3FD81,
3E1EBB25,
3D4EB8B5,
3D93203E,
BBEC047D,
3D08C1BA,
3CBBC117,
BD5BD0EC,
3D969916,
3E057D3B,
3D9E18F8,
3D35DE3F,
3D0F2246,
3DB13D79,
3D485119,
3D6047E4,
BE17D7D1,
BCA5AA52,
3CD2C325,
3D7E910A,
3D0E67BE,
3DDCA446,
3D001C22,
3C87878C,
3C61D947,
3DA85DCE,
3DF2A665,
3C9FB1BF,
BD320379,
BDEAE893,
BD306358,
3D179C3D,
3D609B1C,
3E935CCC,
3E39DE2B,
3E125759,
3D42A8FA,
3E549ABC,
3DEF7EC6,
3DB0893D,
BCA46757,
BDD1EDBF,
BE1E7D1B,
BD5840A0,
BD842D44,
3D709A94,
BD1AE8A6,
BD211E29,
BDADB2FF,
BC0768BE,
3D804CF3,
3D8A2291,
3D54CD87,
BB3C4C81,
BD8A7C57,
3DCCB3E9,
BDAE27DB,
BD3FEC71,
BDAEB993,
BD422459,
BD5305B6,
BDCF1C6E,
BDAC5446,
BE19DD24,
BE5C693A,
BE477984,
BDA6B513,
BE2FA0E1,
BDBCF681,
BDFB8465,
BD79F350,
3C1B64F4,
BD28F863,
3D0F32FC,
3ACC8B4C,
BD8BADD0,
BD6ADEE1,
3D39D327,
3CC30FDA,
BDFCEBA2,
BD505412,
BDF11184,
BD17B4C7,
3D0119C6,
BC8FC4E4,
BC66797D,
3DE9FDF2,
BDA4BE8D,
3DDADE3E,
3E13D473,
3E183953,
3D376A33,
3D7FFEDE,
3E878F69,
3E63BE7E,
3E1DBEE7,
BD419C5B,
BDDDEAEE,
BE22D74E,
BDAD6B95,
BD4515E7,
BE2F087F,
BE1BFA8C,
3E0D87F1,
3D4E51C6,
BE186F03,
BE23DDF2,
BDF592A6,
3C9CCF5D,
3DD9F6E0,
BD4250F5,
3CFCBA19,
3D7C2B79,
3DB8BAC4,
3DD4F230,
3D7D4641,
3D2BC287,
BC82B757,
3DE199C7,
3E0FC065,
3DF6B7CE,
3E47B4A6,
3E0E5601,
3DABF283,
37681036,
BD3F8E54,
B9434CCF,
BD8F1B4F,
3D4D9687,
3E60FF99,
3D96DE44,
BE275239,
3AD5C844,
3E15C003,
3DDE0F09,
BE4D12DC,
BE04ECAC,
BD1784B7,
3DA60A0B,
3D811896,
BE69DCB9,
BDD6C9FE,
BCACC704,
3A31F0B0,
BDC1B677,
BDCD41DB,
BE1293EB,
BE293535,
BD823128,
BDE627C7,
BD9FA564,
BD21B1E5,
BD1E77F2,
BCEEC621,
3D02DABE,
3C99ECBE,
3CD299CD,
3DADFCAB,
3D798698,
3CBBCB0D,
3E53B792,
3E3748E7,
3E5A862D,
3D1E672E,
BE001C3D,
BB7589B7,
BC9A710A,
BDD86269,
BE09FD9E,
BCC0A749,
BD28B195,
3949E8E1,
BD28E8FC,
BD4C1F4F,
BD169978,
BE0A429E,
3DCEE773,
3D8935E3,
BC64DCDD,
3DAAB621,
3D17F1C6,
BDFB929E,
BDF0C017,
BD201A1F,
BDFEDE65,
BEA03C14,
BDD1CA39,
BD7425A9,
BD2CD308,
BDA6304A,
BDE9956A,
BDB74F19,
3DC349F9,
3E148C21,
3D4076C1,
BD0B1FAD,
BC56A2CF,
3CD56185,
BD404935,
BD0C9846,
3D33852D,
3BDDDB4A,
BB4EB896,
BD4722E5,
3AA37AF4,
3D8C2434,
3B22F671,
BC473D28,
BE35C84C,
BD21D5DD,
BE2CB7E2,
3D90BD42,
BE201654,
BE011B41,
BD8D9EE6,
BE310040,
3D4D51EE,
BDBC3F78,
BD92A081,
BE1C8DD5,
3D0813FD,
BDDE8F05,
BD9CA235,
BCC9272F,
3E4BAD46,
3E633C5F,
3E3AF846,
BD8AA09F,
3DEC3914,
3D7F8592,
BD84B934,
BE726C68,
BD52D8B6,
3D3C8FB7,
3BA720F3,
BDC95A01,
BDF168F1,
BB9D8ECF,
BC306EEA,
BE46FE14,
3D976824,
3DA6AD73,
3DFF851D,
3E092913,
3DDFD800,
3D838C19,
3E38AC8C,
3D863E50,
BD2E87A7,
BE811089,
BD8AE164,
BCFDD06D,
BCCD6E84,
BD5AEA26,
BE2BAFE2,
BE1B2E84,
BD3B7C8B,
BD641175,
3BE20962,
BB8A90DA,
BC3A8CC3,
BE736102,
BE572832,
3C739A44,
BDB8A78F,
BDAC2D30,
BE53B546,
BD874B97,
BD6EECE9,
BE1F66CE,
BDDC288B,
BDFBFF64,
BD83E2A1,
3E37416B,
3EA327E9,
3E4328C2,
3C8F095D,
BDFDB798,
3E245E81,
3D9A8EDA,
BD8AD128,
BE57F8E3,
3BAF46F5,
BCF91044,
BDBE9598,
BE67E283,
BDA82169,
BCD35212,
BDC78AF5,
BE3B7974,
BE210BAE,
BDC9E138,
BE2BD2D7,
BE488DDF,
BE0B67FF,
BD8B5F7F,
BD58A7F9,
BD081F37,
BCA29F04,
3D00F92E,
BB1B8326,
BCD8B6CC,
3D01507E,
3C5338FE,
3CFA96AE,
BC14ED7E,
3CEA7145,
BDB32CEE,
3DD848A2,
BDAD48AE,
BE16FA35,
BD441CB4,
3BEEEE02,
BE0269E7,
BD9F19F7,
3D65B06A,
3D6137B0,
BE05FB3A,
BDA992F7,
3D1CA9D4,
BDE14C0D,
BDEFBF74,
BDB87BDF,
BDB6FB50,
BE0C9490,
BD4CD84A,
BE06C755,
BD7D9D9D,
BD6CAD31,
3DE265EE,
BC9C14F4,
BDDFC81E,
3D8790AE,
3DCFCBB4,
3DECCACC,
BCB49ABF,
BD8946C5,
BCD178DE,
3CEF0C5B,
BD08BE5C,
3E432F87,
3E6BE7A5,
3DC6F827,
BDE179F6,
3E5A612F,
3CD3AAE8,
BE05C883,
BD81ABAA,
3DE8EB7D,
3DACF9D4,
3DEF5C45,
3D330809,
BC99A405,
BDA2BCA4,
3C5D94D7,
3D6128DB,
3D10C300,
BD8D5375,
BD0FE05B,
BE05025C,
BE079697,
BE09340C,
BDA83E6F,
BD96D41F,
BE2F1D24,
BE56E0A4,
BE11F6EA,
BE066A97,
3D947722,
BDB731DE,
BD9130FF,
3CBBFC39,
3D9DC0AE,
BD12B44F,
BDA5459E,
BE098ADB,
3DE385FE,
3E009C17,
3DE23470,
BD0A701B,
3D1DD966,
BBD67208,
3D31CF23,
3D91BBBE,
BC88D3AE,
3CD97970,
3D2B11EB,
39FA51AB,
3E0AC017,
3E50E2CE,
3E0B8E52,
3DA6F096,
3E0B4C5D,
3E4B28EE,
3E1D1B41,
3DEFB5A7,
3D453AEB,
3DFE0709,
3E2B9EC4,
3E0A3D57,
BBC59A7F,
BDB0A254,
BD7D82C8,
BD5366D2,
3BFE8273,
3DA71453,
3D210A08,
3D1A7B4E,
BC774161,
3D42E659,
3CA600AA,
BD5DAA84,
BD319D98,
3B0BDF54,
BDF0AE8A,
BD801BA5,
3DA23CEE,
BCBB3384,
BBBD58D1,
3E358A4B,
3BEE0276,
BCF3084B,
3D35BC9F,
3D278E06,
3D7BA6DC,
3DF62301,
3D75F5C7,
3DAA1FA2,
BBB12084,
3D8FAD90,
3DD6A8DC,
3D097038,
3DFEE283,
BCA736E9,
BC9C3444,
3CBAD5C5,
3D192153,
B92C54B0,
3D9EE001,
3D61B23D,
BD14009F,
BDBDA040,
BD8E70A8,
BCBA3408,
BC59E4A2,
BCCCB8EF,
3D0B2D64,
3DAA2F65,
3DC2FDAB,
3DA65ADD,
3DDF97CB,
3A5DC900,
BD1533B8,
3D378529,
3D815D14,
3D591D29,
3C5D5E39,
BD2FA83E,
3D92752D,
3DEFB059,
3D4332C7,
3CB7D7FB,
BD198F15,
3D1C40E0,
BE163DBF,
BDC8E58F,
3C7BA8CC,
3DB5FFE1,
BD131243,
BE36A1D1,
BE1D6C7B,
3CA1593B,
3D668524,
3C82BC13,
BD9EFA5F,
BD2814FF,
3CB3ACED,
BD3E63DE,
BDAE6B02,
BDDEB9C3,
3D500293,
BDC07930,
BE117DA3,
BE119F04,
BD7D054C,
BC34476C,
BD6F0140,
BE26E409,
BE033AC3,
BE32E9AF,
BE26F9FD,
BE4D589F,
3C377061,
BE36962B,
BDA4875D,
BD306FF1,
3DCE0BB6,
3D8C4806,
3D6088AF,
3D796C5A,
3D01D2AB,
BD9412A9,
3BFA755B,
3E0F6C42,
3D8C83C9,
BE07A946,
BE59004A,
3DDF09E4,
BD9346BE,
BE695853,
BE6B05A0,
BE1A4EF0,
BCA7B895,
3C6692B1,
BD1689B0,
BE526845,
BC2EE6BA,
3DD24823,
3E7F2C46,
3C01311F,
3CD638C0,
BCA9C06D,
3E1D0C2C,
3D0C6470,
BB0A0D78,
3CFAE56A,
3CF250BF,
BCE6CB34,
BD022CA5,
BDC9EDC6,
3A865220,
BD0C9329,
3D0BEC17,
BD26E7A2,
BDB416D8,
BD95E7BC,
3D78082C,
3E3E1E8F,
3DE41758,
3CB786A2,
3D5EF3C8,
3DD5A303,
3D1D870E,
3CD0685B,
BC54083B,
3D282D9A,
3CC68B37,
3CD95367,
BD335B1E,
3CFD7446,
3D66AD0B,
3C88655C,
3D9DC5CB,
3E06638E,
3D942980,
3B43D8B1,
3D907171,
3D701E1F,
3E0453B9,
3E067FE8,
3C691E1A,
BDADFE34,
BDDCCDB4,
BDB6C2C8,
3D3FD515,
3D4C50A6,
BC8396A5,
BB93159D,
3D41124A,
3C630B69,
3CD07839,
3CBAD485,
3D851211,
3CA56FD1,
3E200B4C,
3DCFE595,
3CB5BE3B,
3D508CCB,
3BB120FF,
BC699872,
3D7DC751,
3D8D9A47,
BD579785,
3DAE2B0F,
3DED7A07,
3C949E62,
BCB1A823,
3DC5263A,
3CDB24BD,
3D9AB31E,
BBD02C02,
BC13600D,
3CF3DB77,
3DE4D147,
3E1C1665,
3E18B9AE,
BD93D7D8,
BD69A46A,
3DC4E38F,
3DEBEDBD,
3C632071,
BDA1FE59,
BCA6FCB1,
BDAB86C3,
3DB37AF9,
3D7BCC3B,
3CC2C217,
3DBBAB92,
BCF0CC1C,
BCF0EC98,
BDF86A93,
BE4503D0,
3C123679,
BE2E2338,
3C131E9B,
3D4E5D81,
3D4ABFDC,
BD5E6E75,
BE34686B,
BE040BB4,
3C8511B5,
3C39F2DB,
3D6CD319,
BD42784B,
3D2A8AE2,
3AC10039,
BB476B0C,
BD211AB5,
3C649B10,
BDBB9296,
3C7F945D,
3D342280,
3D8B5CEF,
3D79DFC5,
3E13B270,
BCFFC322,
3DCD285F,
3E0C794C,
3E7FDDAF,
3DBC7ED1,
BDAD7B03,
BE037774,
BE68E101,
BE084395,
BD879FDB,
BDC45E84,
BE12D7FD,
3BE76E8F,
3D4D6472,
BDB16258,
BE3E81F2,
3D3B6565,
BC702C59,
3D16C6EB,
BD46258A,
BCDC038A,
3B94F45A,
BB9716B1,
BCE4639D,
BD3C2986,
3D88CCDD,
3C8DF770,
3CBA49A5,
BCA9918D,
BC91B4F7,
BE94BEA6,
BE819A88,
3DA32170,
BD3C6D91,
BE0C7932,
BE079A1D,
BD042DF7,
BBB8522E,
BD18F7DE,
3DDE875B,
3DE157C0,
BDA3FC20,
BD128DA5,
3E2850D2,
BCC982DE,
3D74F3C1,
BCA399D8,
3ACEAFDB,
BDCE837E,
3DDA4A48,
BE1DDCBC,
BD8A0E06,
BDE08E42,
BC47F549,
BE80A287,
BDD4717F,
BCBBF7EB,
BE362604,
BE4F8CD4,
BC58AB7B,
3D7AEEC9,
BE88673B,
BD1EC1D3,
3D1D13AA,
BD72E8C6,
BE171325,
BDACD0B9,
BB3B77C6,
BE11F2DF,
BD2712D3,
BD949643,
BE1321AA,
3D70E4BD,
BDCC2B45,
BD0361B9,
BE7F9DB6,
BD115694,
BD3BF1FB,
BD622AF1,
BE0200D6,
3DCD41FC,
BCD4B71B,
BD601B2C,
BDF39F4B,
3DED38F8,
3E498DBF,
3DA37C4C,
BAF78147,
3D094D9F,
3E0C2174,
3E1FFAA6,
3E0DA340,
BE0BC2A4,
3D2519CC,
3AD9C96B,
3C5187DA,
BBAF8E74,
BD8AE654,
BC8DE5A5,
BB28B136,
3C25A22D,
BD073D13,
BD60AD46,
BD271F25,
BDA1076F,
3CB7071F,
3DAEAA0E,
BC8D0AF8,
BE4AD7C6,
3C072AE2,
BD508043,
BDCC3CC5,
BDA6575B,
3D00DE81,
BC513972,
BDB4C415,
BD2760FB,
3C79E5D9,
3D994DB6,
3E23B0A6,
3DFAEEC2,
3C8591AF,
3DAC5142,
3E10F9F2,
3D0F7941,
BDDBAD85,
BE1DB4DE,
BE731375,
BC884D45,
BCD46ADC,
BD365BC9,
3D52E150,
3D071F5E,
3D218A9D,
3D8740DA,
3D056524,
3D21F59B,
3D8EFB55,
BE5C054F,
BDF629D6,
3BD08AA4,
3C753911,
3DE3BDE8,
3E421BC3,
3D8FB3C5,
3D8941B4,
3D5C741B,
3DDB3756,
3DCB17F7,
BD0B28D0,
3C89253B,
BD3566EF,
BA52836A,
3D934872,
3CC79ABE,
3D52946D,
3CE6F5DD,
3E090D55,
BCAF91C1,
BD13AA26,
3D24B5FC,
3DC254E8,
BDAC7AB2,
BB34B1A3,
3D6142E0,
BE2D4147,
BE1882A4,
BDE6F11C,
BD26582A,
3BB57899,
3D045F4F,
BDFD77DC,
BE57CBBB,
3E057F3E,
3E22BA5B,
3DC3421E,
BD59A511,
3C424D01,
BCC70BD3,
3D603C69,
BD895B05,
BB3D9E3D,
BE547B16,
BD923FAC,
3CF4476C,
BD082AB8,
3DE871EB,
3DD6E834,
BDB4C276,
3CB5588D,
3E33822D,
3E148A97,
3D0F0FEC,
3D69AEEF,
3E0F5FB8,
3C43FAD8,
3D3CD3A9,
3DA9D4FB,
3D162956,
3D9A7A2E,
3E140E63,
3DDF655E,
3DDA9BC5,
3E302367,
3D519C13,
3E11019E,
3E373661,
3DD96372,
3C4C09DB,
3DE9F83C,
BC4ACAC2,
3AA9397E,
3D022631,
3DA2B17A,
3D840767,
3DF7F681,
BBD5C2D2,
BD48EFBB,
3E5C231D,
3E9B0D3B,
3E11888F,
BDBB8DD8,
BD841194,
3DF8F042,
3DD9D2B5,
BD51BF27,
BE14F601,
3C6FE66E,
3CC255C6,
BD4CC425,
3D368178,
3DC371FA,
BB91D124,
3D1035D7,
BCF2BFAD,
BDD33D3E,
3CD2F0D7,
3E006059,
3C578EE2,
BD39364C,
BD998AA5,
3D8C32E7,
3D3DFB96,
3CBDFD70,
3D4994D7,
BDA0B7AE,
BC4D9C50,
3DEC0763,
3CAAA1AA,
BD05634B,
BDBCEC62,
BB9F1E5F,
3D0616CE,
BD4F1ABD,
BD4EBBB4,
BCEE82C2,
BD40D2F1,
3D52BEA1,
3DCAD7B8,
3D409A52,
3D8550B0,
3D7A4EC9,
BCCD74FA,
3D38AE98,
BD58BDC0,
3D91E622,
3E01638D,
3DDCE340,
BB71090E,
3E1A8E73,
3E1E5034,
3E9174DF,
3DBCDCCE,
3D1520D4,
3DAB7E4E,
3E740CFD,
3E33DC36,
3D9967C1,
3DC7B8C0,
3D8E22EF,
BD672E0F,
3D6E5DC4,
BE358C47,
BE61DB63,
BE0A0270,
BDAD32EE,
BDBB096F,
3CFB1508,
BC21C72E,
BDC4B6DB,
BD476A6F,
BC2CBA74,
BD1155AD,
3D85CB65,
3D5D7ED4,
3DA7299A,
3D64E0C5,
3E0B8D0A,
3DE49898,
3C33071A,
BC9AE675,
3D582D40,
3E029F2D,
3E2B5F78,
3DA71014,
3D5B9892,
3E013CDF,
3DFD17EC,
3DCD7E18,
BC0E6F63,
3DA0EEBE,
3D32000E,
3DBB18EF,
BD154278,
BE1DB40F,
BE1A44CF,
BE025169,
BD9CE545,
BD835965,
BA1F7618,
BCDB09C4,
3D473A16,
3D2250B2,
3D693F1D,
3C6A2384,
3CCA3C19,
3B8BCAD0,
3D0A65BE,
3CEDDDB8,
BDEC9B89,
BE58168E,
BE432B7F,
BE4017BE,
BD2B06A8,
BE8DD6A9,
BE1DF40E,
3CB3D9FC,
BC732A85,
BD53CE43,
BE12A1DE,
3DFAA843,
3E06B1CB,
3D6DC49A,
3D8BA618,
3DB5FFB1,
BCC7F1A1,
BD20CDF6,
BD252894,
BD2774DD,
BE075CD6,
BD5E46E0,
3D011CC1,
BE10E008,
BD9B9979,
BE2E9656,
BD72DA4D,
BD977EAA,
BDB532CA,
BDD191DE,
BD992C5A,
BC9A1DFF,
B876E215,
BD7CD41A,
BD8F765B,
3CD00050,
3D55B975,
